{"<|endoftext|>":0,"!":1,"\"":2,"#":3,"$":4,"%":5,"&":6,"'":7,"(":8,")":9,"*":10,"+":11,",":12,"-":13,".":14,"/":15,"0":16,"1":17,"2":18,"3":19,"4":20,"5":21,"6":22,"7":23,"8":24,"9":25,":":26,";":27,"<":28,"=":29,">":30,"?":31,"@":32,"A":33,"B":34,"C":35,"D":36,"E":37,"F":38,"G":39,"H":40,"I":41,"J":42,"K":43,"L":44,"M":45,"N":46,"O":47,"P":48,"Q":49,"R":50,"S":51,"T":52,"U":53,"V":54,"W":55,"X":56,"Y":57,"Z":58,"[":59,"\\":60,"]":61,"^":62,"_":63,"`":64,"a":65,"b":66,"c":67,"d":68,"e":69,"f":70,"g":71,"h":72,"i":73,"j":74,"k":75,"l":76,"m":77,"n":78,"o":79,"p":80,"q":81,"r":82,"s":83,"t":84,"u":85,"v":86,"w":87,"x":88,"y":89,"z":90,"{":91,"|":92,"}":93,"~":94,"¡":95,"¢":96,"£":97,"¤":98,"¥":99,"¦":100,"§":101,"¨":102,"©":103,"ª":104,"«":105,"¬":106,"®":107,"¯":108,"°":109,"±":110,"²":111,"³":112,"´":113,"µ":114,"¶":115,"·":116,"¸":117,"¹":118,"º":119,"»":120,"¼":121,"½":122,"¾":123,"¿":124,"À":125,"Á":126,"Â":127,"Ã":128,"Ä":129,"Å":130,"Æ":131,"Ç":132,"È":133,"É":134,"Ê":135,"Ë":136,"Ì":137,"Í":138,"Î":139,"Ï":140,"Ð":141,"Ñ":142,"Ò":143,"Ó":144,"Ô":145,"Õ":146,"Ö":147,"×":148,"Ø":149,"Ù":150,"Ú":151,"Û":152,"Ü":153,"Ý":154,"Þ":155,"ß":156,"à":157,"á":158,"â":159,"ã":160,"ä":161,"å":162,"æ":163,"ç":164,"è":165,"é":166,"ê":167,"ë":168,"ì":169,"í":170,"î":171,"ï":172,"ð":173,"ñ":174,"ò":175,"ó":176,"ô":177,"õ":178,"ö":179,"÷":180,"ø":181,"ù":182,"ú":183,"û":184,"ü":185,"ý":186,"þ":187,"ÿ":188,"Ā":189,"ā":190,"Ă":191,"ă":192,"Ą":193,"ą":194,"Ć":195,"ć":196,"Ĉ":197,"ĉ":198,"Ċ":199,"ċ":200,"Č":201,"č":202,"Ď":203,"ď":204,"Đ":205,"đ":206,"Ē":207,"ē":208,"Ĕ":209,"ĕ":210,"Ė":211,"ė":212,"Ę":213,"ę":214,"Ě":215,"ě":216,"Ĝ":217,"ĝ":218,"Ğ":219,"ğ":220,"Ġ":221,"ġ":222,"Ģ":223,"ģ":224,"Ĥ":225,"ĥ":226,"Ħ":227,"ħ":228,"Ĩ":229,"ĩ":230,"Ī":231,"ī":232,"Ĭ":233,"ĭ":234,"Į":235,"į":236,"İ":237,"ı":238,"Ĳ":239,"ĳ":240,"Ĵ":241,"ĵ":242,"Ķ":243,"ķ":244,"ĸ":245,"Ĺ":246,"ĺ":247,"Ļ":248,"ļ":249,"Ľ":250,"ľ":251,"Ŀ":252,"ŀ":253,"Ł":254,"ł":255,"Ń":256,"Ġe":257,"Ġd":258,"Ġa":259,"Ġs":260,"Ġde":261,"Ġl":262,"Ġp":263,"Ġc":264,"er":265,"en":266,"os":267,"qu":268,"Ġm":269,"ar":270,"st":271,"do":272,"on":273,"as":274,"an":275,"Ã³":276,"Ġqu":277,"ÃŃ":278,"re":279,"Ġh":280,"Ġt":281,"ab":282,"un":283,"or":284,"Ġque":285,"in":286,"Ġen":287,"ci":288,"Ġla":289,"Ġy":290,"--":291,"te":292,"Ġn":293,"es":294,"Ã©":295,"Ġse":296,"Ġv":297,"Ġun":298,"ÃŃa":299,"da":300,"Ġel":301,"ra":302,"Ã¡":303,"Ġcon":304,"al":305,"om":306,"Ġsu":307,"ed":308,"to":309,"Ġes":310,"Ġno":311,"ĠÂ":312,"ri":313,"ta":314,"ch":315,"ro":316,"Ġest":317,"..":318,"ol":319,"aba":320,"le":321,"ente":322,"Ġo":323,"di":324,"am":325,"Ã³n":326,"ust":327,"Ġha":328,"ado":329,"usted":330,"Ġusted":331,"Ġb":332,"Ġf":333,"Ġre":334,"Ġmi":335,"Ġle":336,"Ġal":337,"ti":338,"Ġhab":339,"Ġin":340,"Ġpor":341,"ero":342,"ien":343,"vi":344,"Ġlo":345,"Ġuna":346,"Ġcu":347,"Ġpar":348,"el":349,"ĠS":350,"ĠÂ¿":351,"Ã±":352,"Ġdi":353,"ĠR":354,"Ġcom":355,"ĠP":356,"ik":357,"ia":358,"ff":359,"em":360,"jo":361,"Ġlos":362,"Ġdes":363,"cu":364,"Ġsi":365,"la":366,"off":367,"Ã¡s":368,"...":369,"go":370,"ĠE":371,"res":372,"ciÃ³n":373,"Ġme":374,"Ġi":375,"Ġmu":376,"gu":377,"se":378,"bi":379,"ec":380,"Ġto":381,"ĠA":382,"Ġvi":383,"Ġpu":384,"ando":385,"--Â":386,"era":387,"lo":388,"nik":389,"de":390,"Ġdel":391,"Ġex":392,"si":393,"nikoff":394,"dad":395,"tr":396,"mo":397,"Ġlas":398,"dos":399,"ante":400,"ĠÂ¡":401,"Ġg":402,"ask":403,"olnikoff":404,"askolnikoff":405,"co":406,"Ãº":407,"ada":408,"uÃ©":409,"cia":410,"bre":411,"ez":412,"na":413,"Ġpero":414,"ru":415,"est":416,"Ġhe":417,"Ġpara":418,"ca":419,"li":420,"ĠD":421,"mp":422,"cho":423,"ĠhabÃŃa":424,"ĠL":425,"ĠmÃ¡s":426,"Ġsin":427,"Ġten":428,"ven":429,"No":430,"ano":431,"Ġcas":432,"tra":433,"ĠRaskolnikoff":434,"tro":435,"Ġpo":436,"mente":437,"ur":438,"Ġac":439,"ter":440,"gun":441,"um":442,"ido":443,"Ġaqu":444,"ir":445,"tar":446,"amente":447,"Ġper":448,"Ġpre":449,"me":450,"Ġcomo":451,"ĠÃ©":452,"Ã¡n":453,"que":454,"Ġhac":455,"Ġsus":456,"vo":457,"ĠquÃ©":458,"tu":459,"Ġpro":460,"vna":461,"--Â¿":462,"Ġmis":463,"tÃ³":464,"Ġso":465,"fi":466,"sta":467,"Ã©n":468,"il":469,"io":470,"ora":471,"ten":472,"Ġan":473,"Ġjo":474,"Ġver":475,"Ġtodo":476,"Ġjoven":477,"tos":478,"ga":479,"ma":480,"po":481,"ĠC":482,"lar":483,"con":484,"Ġas":485,"Ġma":486,"Ġyo":487,"Ġj":488,"ier":489,"tch":490,"so":491,"--.":492,"los":493,"Ġera":494,"Ġcomp":495,"ran":496,"mi":497,"sa":498,"Ġcasa":499,"ĠÃ©l":500,"Â»":501,"Ġser":502,"az":503,"--Â¡":504,"ren":505,"ĠM":506,"Ġesp":507,"Ġmuy":508,"Ġap":509,"sp":510,"Ġte":511,"Ġdesp":512,"ones":513,"tado":514,"Ġob":515,"Ġti":516,"das":517,"ver":518,"Ġven":519,"onia":520,"ina":521,"Ġpas":522,"ĠI":523,"ento":524,"osa":525,"Ġba":526,"Ġca":527,"Ġtan":528,"Ġhu":529,"Ġaquel":530,"Ġmo":531,"jos":532,"Ġpen":533,"Ġpa":534,"Ġent":535,"osi":536,"diÃ³":537,"Ġdeci":538,"Ġsal":539,"ida":540,"aban":541,"Ġesto":542,"ja":543,"Ġlle":544,"vitch":545,"?--":546,"Ġimp":547,"ce":548,"Ġsen":549,"arse":550,"rim":551,"Ġestaba":552,"ue":553,"uÃ©s":554,"Ġhom":555,"ana":556,"je":557,"Ġcar":558,"ĠT":559,"iento":560,"Ġexp":561,"anovna":562,"Ġman":563,"Ġhi":564,"ios":565,"ĠEn":566,"Ġsab":567,"Ġpal":568,"encia":569,"ĠSonia":570,"ĠPe":571,"der":572,"ĠNo":573,"Ġcuando":574,"Ġesta":575,"qui":576,"ÃŃan":577,"cha":578,"ese":579,"QuÃ©":580,"ĠmÃŃ":581,"Ġtra":582,"tal":583,"Ġdecir":584,"ble":585,"Ġfu":586,"dijo":587,"Ġdos":588,"Ġpr":589,"Ġni":590,"Ġrep":591,"Ġmom":592,"ĠÂ«":593,"ces":594,"za":595,"Ġcab":596,"Ġtien":597,"Ġsegu":598,"Ġpalab":599,"ikin":600,"umikin":601,"azumikin":602,"iÃ³":603,"Ãºn":604,"lam":605,"ĠH":606,"ĠPor":607,"mb":608,"ras":609,"hora":610,"erta":611,"Ġtiem":612,"ĠseÃ±":613,"gar":614,"us":615,"Ġbien":616,"Ġsobre":617,"iÃ³n":618,"rÃŃa":619,"Ġella":620,"Ġesc":621,"Ġhubi":622,"ciones":623,"ĠRazumikin":624,"able":625,"Ġya":626,"Ġmismo":627,"erm":628,"ul":629,"Ġar":630,"Ġtom":631,"Ġeste":632,"ambi":633,"Ġtiempo":634,"vid":635,"taba":636,"Ġson":637,"Ġmomento":638,"Ġr":639,"Ġqui":640,"Ġad":641,"tes":642,"Ġsol":643,"Ġmir":644,"!--":645,"ĠPetro":646,"ita":647,"pre":648,"ĠIv":649,"idad":650,"ba":651,"Ã³mo":652,"Ġhombre":653,"Ġpi":654,"Ġnada":655,"dose":656,"Ġporque":657,"Ġir":658,"uest":659,"zo":660,"tas":661,"ĠtenÃŃa":662,"pa":663,"dido":664,"Ã±a":665,"ĠEl":666,"Ġmen":667,"Ġab":668,"inu":669,"Ġinter":670,"oso":671,"ĠaquÃŃ":672,"va":673,"Ġvo":674,"Ġocu":675,"ĠIvanovna":676,"eces":677,"pe":678,"Ġru":679,"ud":680,"Ġojos":681,"sto":682,"Ġencon":683,"car":684,"ÃŃas":685,"Ġvez":686,"ĠLa":687,"Ġcal":688,"trar":689,"ĠestÃ¡":690,"eza":691,"Ġpoco":692,"Ġhacer":693,"im":694,"Ġtem":695,"ste":696,"Ġpres":697,"Ġcor":698,"Ġtu":699,"Ġcre":700,"rio":701,"Ġentre":702,"Ġparec":703,"ĠPetrovitch":704,"ĠdespuÃ©s":705,"Ġpens":706,"cio":707,"las":708,"eno":709,"Ġpuerta":710,"fer":711,"endo":712,"Ġherm":713,"Ġeso":714,"du":715,"Ġvol":716,"Ã±o":717,"van":718,"pi":719,"Ġalgun":720,"dre":721,"tamente":722,"Ġcompren":723,"argo":724,"Ġmed":725,"ve":726,"is":727,"ĠSe":728,"ac":729,"uda":730,"Ġdej":731,"Ġcosa":732,"ĠDun":733,"stante":734,"ambiÃ©n":735,"Ġhay":736,"eb":737,"jer":738,"Ġotra":739,"pon":740,"ĠY":741,"Por":742,"eci":743,"Ġahora":744,"Ġhaber":745,"Ġcer":746,"rig":747,"Ġmodo":748,"Ġtiene":749,"oc":750,"gn":751,"Ġro":752,"Ġhasta":753,"Ġresp":754,"odi":755,"Ġpod":756,"Ġpregun":757,"Ġmal":758,"rada":759,"Ġtal":760,"Ġemb":761,"unto":762,"Ġtoda":763,"Ã±os":764,"Ġtodos":765,"Ġvoz":766,"atal":767,"mos":768,"por":769,"br":770,"Ġcier":771,"Ġestu":772,"Ġaun":773,"Ġli":774,"ino":775,"ecto":776,"Ġhecho":777,"ĠDunia":778,"ĠV":779,"ĠsÃŃ":780,"Ġnue":781,"Ġpe":782,"ĠtambiÃ©n":783,"rado":784,"Ġcual":785,"Ġpued":786,"len":787,"Ġfi":788,"Ġparte":789,"uel":790,"lex":791,"Ġhace":792,"Ġverdad":793,"ord":794,"Ġese":795,"Ġotro":796,"par":797,"riga":798,"cil":799,"amos":800,"atalina":801,"Ġcam":802,"esp":803,"iloff":804,"vidriga":805,"vidrigailoff":806,"gÃºn":807,"Ġju":808,"Ġemp":809,"rÃ©":810,"Ġextra":811,"tor":812,"Ġra":813,"Ġdirig":814,"emos":815,"Ġpers":816,"Ġcos":817,"itaciÃ³n":818,"lti":819,"ĠseÃ±or":820,"ona":821,"Ġantes":822,"Es":823,"Ġquer":824,"Ġva":825,"Ġlevan":826,"tura":827,"Ġcuar":828,"Ġsido":829,"iendo":830,"ĠCatalina":831,"ic":832,"Ġton":833,"Ġmujer":834,"urante":835,"Ġcabeza":836,"les":837,"ĠÃº":838,"ĠRodi":839,"anto":840,"ĠRom":841,"Ġam":842,"Ġpalabras":843,"tido":844,"Raskolnikoff":845,"ka":846,"Ġech":847,"Ġdem":848,"Ġmes":849,"Ġve":850,"Ġmadre":851,"El":852,"ĠZ":853,"Ġdeb":854,"firio":855,"miento":856,"Ġembargo":857,"Ġna":858,"ĠSvidrigailoff":859,"lic":860,"Ġesper":861,"Ġpron":862,"ĠdÃŃa":863,"Ġseguida":864,"Ġami":865,"Ġco":866,"ĠPero":867,"Ġhubiera":868,"che":869,"Ġvie":870,"Ġcol":871,"Ġfor":872,"tras":873,"Ġacab":874,"En":875,"Qu":876,"ĠU":877,"Ġdesde":878,"Ġmucho":879,"gado":880,"no":881,"Ġprim":882,"inero":883,"Ġbu":884,"ĠÃºlti":885,"ser":886,"eria":887,"Ġgran":888,"cciÃ³n":889,"clam":890,"rÃ¡":891,"Ġdinero":892,"ĠEs":893,"Ġfuer":894,"iÃ©n":895,"vÃŃa":896,"Ġhabl":897,"SÃŃ":898,"cer":899,"gra":900,"onces":901,"unci":902,"ĠhabitaciÃ³n":903,"Ġvisi":904,"arÃŃa":905,"Ġfin":906,"ĠPorfirio":907,"Se":908,"lÃŃ":909,"entes":910,"ÃŃr":911,"Ġpalabra":912,"cias":913,"Ġpreci":914,"--;":915,"riÃ³":916,"ĠAd":917,"zÃ³n":918,"ÃŃdo":919,"ame":920,"Ġide":921,"Ġrepente":922,"tre":923,"yer":924,"Ġdar":925,"inar":926,"ĠfuÃ©":927,"tir":928,"empre":929,"Ġpon":930,"Ġenfer":931,"Ġesa":932,"Ġcuarto":933,"Ġduda":934,"tiÃ³":935,"ĠAl":936,"Ã¡ndose":937,"De":938,"yo":939,"Ġale":940,"Ġnuest":941,"Ġres":942,"ĠasÃŃ":943,"osible":944,"edro":945,"Ġalgo":946,"ĠLud":947,"ĠhacÃŃa":948,"oy":949,"Ġllev":950,"Ġmenos":951,"Ah":952,"lor":953,"Ġindi":954,"Ġhermana":955,"iz":956,"ĠSi":957,"CÃ³mo":958,"Pero":959,"enta":960,"Ġmano":961,"Ġhablar":962,"Ġobje":963,"Ġrub":964,"Ġpuede":965,"Ġtengo":966,"ced":967,"pen":968,"ĠN":969,"Ġmanos":970,"Ġescal":971,"mur":972,"raba":973,"Ġellos":974,"viÃ³":975,"espuÃ©s":976,"jin":977,"Ġlu":978,"ĠtÃº":979,"Ġsup":980,"ex":981,"ist":982,"Ġuno":983,"Ġustedes":984,"Ġpuso":985,"ĠmÃŃo":986,"oci":987,"tinu":988,"Ġgu":989,"Ġdicho":990,"Ġsiempre":991,"respon":992,"edo":993,"ya":994,"ena":995,"Ġmar":996,"and":997,"Ġneces":998,"Ġcuanto":999,"ĠDe":1000,"guntÃ³":1001,"ĠPedro":1002,"Ġprop":1003,"preguntÃ³":1004,"Ġminu":1005,"Ġtar":1006,"Ġveces":1007,"tÃŃa":1008,"Ġllam":1009,"ĠLudjin":1010,"Ġestado":1011,"Ġmirada":1012,"elo":1013,"Ġtodas":1014,"Ġtemb":1015,"Ġvieja":1016,"La":1017,"ĠallÃŃ":1018,"Ġmej":1019,"Ġcasi":1020,"Ġencontr":1021,"Ġnuevo":1022,"cas":1023,"Ġdec":1024,"chas":1025,"tros":1026,"Ġtanto":1027,"ig":1028,"Ġdurante":1029,"Ġaunque":1030,"clamÃ³":1031,"ĠsÃ©":1032,"Ġquien":1033,"Ġconsi":1034,"Ġinc":1035,"siÃ³n":1036,"ĠparecÃŃa":1037,"Ã³nde":1038,"Ġexpres":1039,"Ġaten":1040,"Ġqued":1041,"Ġnos":1042,"esar":1043,"Ġvisto":1044,"fecto":1045,"tan":1046,"Ġ(":1047,"Ġpol":1048,"Ġlado":1049,"Ġestas":1050,"Ġinst":1051,"Ġdese":1052,"Ġentonces":1053,"Ġimpor":1054,"Ġmedio":1055,"Ġamigo":1056,"exclamÃ³":1057,"andro":1058,"ici":1059,"keria":1060,"Ġdere":1061,"ĠSem":1062,"Ġvenido":1063,"Ġros":1064,"respondiÃ³":1065,"zÃ³":1066,"ĠcÃ³mo":1067,"stas":1068,"emÃ¡s":1069,"ĠAlex":1070,"Ġvida":1071,"Ġacer":1072,"ulkeria":1073,"Ġocur":1074,"Ġescalera":1075,"androvna":1076,"ĠAlexandrovna":1077,".Â»":1078,"rep":1079,"Ġter":1080,"Ġtres":1081,"Ġtran":1082,"Ġne":1083,"Ġinf":1084,"Ġinqui":1085,"ĠmirÃ³":1086,"Ġinquie":1087,"iente":1088,"Ġpronto":1089,"Ġrostro":1090,"Ġacu":1091,"quÃ©":1092,"ara":1093,"Ġreci":1094,"esto":1095,"ĠpodÃŃa":1096,"Ġcan":1097,"Ã¡ndo":1098,"tud":1099,"ĠSemeno":1100,"Ġsos":1101,"Ġpunto":1102,"Ġcada":1103,"ario":1104,"Ġhacia":1105,"ĠDios":1106,"Ġefecto":1107,"Ġch":1108,"aron":1109,"Ġhas":1110,"Ġconf":1111,"die":1112,"ĠPulkeria":1113,"ĠDespuÃ©s":1114,"Ã±adiÃ³":1115,"serv":1116,"Oh":1117,"vamente":1118,"Ġri":1119,"Ġposible":1120,"eron":1121,"ase":1122,"ÃŃo":1123,"Ġhan":1124,"undo":1125,"Ġinstante":1126,"Ġidea":1127,"Ġrublos":1128,"Ġmejor":1129,"gre":1130,"gri":1131,"arÃ¡":1132,"rir":1133,"Ġpodido":1134,"Ġje":1135,"Ġhizo":1136,"lla":1137,"arme":1138,"dor":1139,"Ġsilen":1140,"Ġases":1141,"Ġperson":1142,"bres":1143,"ifi":1144,"ocu":1145,"Ġfal":1146,"ientos":1147,"ĠHa":1148,"Ġpie":1149,"Ġalguna":1150,"gÃ³":1151,"zos":1152,"Ã©s":1153,"chos":1154,"Ġfr":1155,"Ġsoy":1156,"Ġmesa":1157,"llo":1158,"Ġbru":1159,"Ġante":1160,"Ġcalle":1161,"Â«":1162,"arÃ©":1163,"sted":1164,"Ġquier":1165,"vocia":1166,"Ġmisma":1167,"Ġmanera":1168,"gi":1169,"uando":1170,"Ġor":1171,"arle":1172,"tivo":1173,"Ġaquella":1174,"Ġhubiese":1175,"ĠRodia":1176,"ĠRomanovna":1177,"usa":1178,"Ġsor":1179,"dado":1180,"Ġbus":1181,"vir":1182,"Ġdist":1183,"Ġdijo":1184,"ĠMar":1185,"Ġapar":1186,"ĠYo":1187,"!...":1188,"aciÃ³n":1189,"dÃŃa":1190,"ĠaÃ±os":1191,"quil":1192,"asi":1193,"Ġtraba":1194,"Ġfa":1195,"ĠSu":1196,"Ġcosas":1197,"laba":1198,"Ġcontra":1199,"ĠSin":1200,"ĠEst":1201,"Ġparece":1202,"Ġnadie":1203,"aÃ±adiÃ³":1204,"ĠdÃŃas":1205,"Ġsom":1206,"erto":1207,"--,":1208,"Ġnoche":1209,"Ġbo":1210,"Ġbajo":1211,"Ġci":1212,"Ġpuesto":1213,"anovitch":1214,"tarse":1215,"ĠAdvocia":1216,"des":1217,"lu":1218,"almente":1219,"cur":1220,"antes":1221,"Â»,":1222,"Ġapres":1223,"bo":1224,"cado":1225,"camente":1226,"ire":1227,"yÃ³":1228,"Ġol":1229,"ĠhabÃŃan":1230,"Ġestoy":1231,"Ġsabe":1232,"ĠÂ«Â":1233,"Si":1234,"Ġmor":1235,"Ã³lo":1236,"Ġbur":1237,"Ã±ana":1238,"gua":1239,"Ġgri":1240,"erdo":1241,"Ġnin":1242,"Ġello":1243,"amiento":1244,"Ġdis":1245,"Ġdisp":1246,"segu":1247,"ĠLe":1248,"Ġtener":1249,"Ġexpli":1250,"Ġfij":1251,"licÃ³":1252,"Ġinstru":1253,"pel":1254,"Ġpla":1255,"erÃŃa":1256,"Ġhum":1257,"trado":1258,"ĠÃ©ste":1259,"Ġasom":1260,"ĠtomÃ³":1261,"Ġjuez":1262,"iÃ©ndose":1263,"orra":1264,"Ã¡r":1265,"Ġconven":1266,"Ġgra":1267,"Ġsino":1268,"Ġcaso":1269,"Ġpobre":1270,"Ġcomple":1271,"ĠvolviÃ³":1272,"Ġrespon":1273,"Ġtono":1274,"tando":1275,"Ġayer":1276,"Ġclar":1277,"inci":1278,"cios":1279,"Ġescu":1280,"trÃ³":1281,"lig":1282,"Ġapro":1283,"Ġbaj":1284,"Ġquiz":1285,"Ġtarde":1286,"Ġsa":1287,"Ġcrim":1288,"eros":1289,"ancia":1290,"Ġrec":1291,"guiÃ³":1292,"Ġhermano":1293,"Ġcierto":1294,"ĠlevantÃ³":1295,"Al":1296,"ĠB":1297,"ĠK":1298,"Ġvuel":1299,"Ġref":1300,"Ġmucha":1301,"ecÃŃa":1302,"Ha":1303,"pren":1304,"ros":1305,"ues":1306,"Ġcin":1307,"erte":1308,"Ġseme":1309,"Ġpreocu":1310,"saciÃ³n":1311,"Ġbastante":1312,"ĠÃºltimo":1313,"Ġobjeto":1314,"Ġsemej":1315,"can":1316,"Ġhora":1317,"Ġop":1318,"Ġrecon":1319,"Ġcomen":1320,"ĠAhora":1321,"Ġsaber":1322,"Ġvolver":1323,"icÃŃa":1324,"ĠpolicÃŃa":1325,"Est":1326,"ĠF":1327,"Ġdaba":1328,"ĠaÃºn":1329,"Ġllor":1330,"enas":1331,"Ġmundo":1332,"Ġconten":1333,"Ġbol":1334,"Ġinm":1335,"Ġcuest":1336,"Ġparti":1337,"Ġdiez":1338,"ikol":1339,"Ġsonri":1340,"vor":1341,"zar":1342,"Ġah":1343,"Ġles":1344,"Ġval":1345,"Ġvest":1346,"toff":1347,"ametoff":1348,"lan":1349,"mal":1350,"Ġaire":1351,"Ġcondu":1352,"omo":1353,"rib":1354,"Ġofi":1355,"Ġinten":1356,"nastas":1357,"ĠmaÃ±ana":1358,"ĠMe":1359,"ĠMikol":1360,"ĠtodavÃŃa":1361,"Ġpersonas":1362,"moff":1363,"Ġlab":1364,"Ġcambi":1365,"Ã³l":1366,"ciencia":1367,"Ġcontrar":1368,"Ġcontinu":1369,"bido":1370,"Ġvista":1371,"ĠRodiÃ³n":1372,"ĠquizÃ¡":1373,"drÃ©":1374,"rar":1375,"Ġsan":1376,"Ġcir":1377,"cido":1378,"tada":1379,"Ġbra":1380,"lidad":1381,"uego":1382,"imen":1383,"eciÃ³":1384,"ĠinstrucciÃ³n":1385,"fec":1386,"Ġdado":1387,"ĠdÃ³nde":1388,"Ġpru":1389,"Ġcora":1390,"osimoff":1391,"Ġprinci":1392,"ĠHe":1393,"Ġencontrar":1394,"ĠZametoff":1395,"Ġnecesidad":1396,"bra":1397,"sab":1398,"Ġpri":1399,"cial":1400,"tio":1401,"Ġdice":1402,"Ġiba":1403,"trÃ¡s":1404,"Ġexper":1405,"Ġocul":1406,"ĠrazÃ³n":1407,"Ġenfermo":1408,"replicÃ³":1409,"Ġprincip":1410,"fe":1411,"ito":1412,"tante":1413,"Ġdeten":1414,"Ġlan":1415,"Ġtri":1416,"cuen":1417,"Ġpudo":1418,"rump":1419,"Ġestudi":1420,"Ġpersona":1421,"ĠquerÃŃa":1422,"gritÃ³":1423,"Ġbrus":1424,"nastasia":1425,"ĠcorazÃ³n":1426,"cun":1427,"mel":1428,"ĠsÃ³lo":1429,"Ġentrar":1430,"ciendo":1431,"Ġconver":1432,"Ġestre":1433,"Ġinte":1434,"Ġdescon":1435,"Ġdesgra":1436,"Ġpatr":1437,"ĠTen":1438,"ĠsabÃŃa":1439,"ĠextraÃ±o":1440,"ĠRomanovitch":1441,"ĠechÃ³":1442,"Ġdemasi":1443,"ĠZosimoff":1444,"Ġacababa":1445,"Ġguar":1446,"Ġsilencio":1447,"Ġdemasiado":1448,"ior":1449,"Ġda":1450,"Ġof":1451,"Ġrela":1452,"til":1453,"ĠEra":1454,"Ġgust":1455,"Ġsof":1456,"Ġcausa":1457,"Ġsenti":1458,"quiera":1459,"uesto":1460,"Ġpreciso":1461,"Ġcircun":1462,"ai":1463,"jas":1464,"Ġdon":1465,"erse":1466,"Ġhor":1467,"orm":1468,"ĠalgÃºn":1469,"Ġtenido":1470,"Ġpeque":1471,"inado":1472,"Ġsuf":1473,"Ġcul":1474,"culo":1475,"Ġpuedo":1476,"Ġpresen":1477,"Ġalgunos":1478,"ĠUn":1479,"ĠatenciÃ³n":1480,"Ġtranqui":1481,"ĠSemenovna":1482,"Ġsospe":1483,"Ġpatrona":1484,"Ġdonde":1485,"?Â»":1486,"zas":1487,"ĠlÃ¡":1488,"quier":1489,"sti":1490,"anza":1491,"damente":1492,"Ã¡c":1493,"Ġconte":1494,"Ġdesa":1495,"ĠAn":1496,"ĠCuando":1497,"Ġpaso":1498,"Ġpregunta":1499,"Ġvisita":1500,"ĠquedÃ³":1501,"Ġescuch":1502,"Ġsangre":1503,"ion":1504,"ias":1505,"ĠpÃ¡":1506,"Ġpesar":1507,"Ġcri":1508,"Ġconoc":1509,"Ġestar":1510,"ĠoÃŃr":1511,"Ġfam":1512,"Ġcuri":1513,"guiente":1514,"sillo":1515,"Ġgen":1516,"Ġgru":1517,"ĠTo":1518,"Ġadver":1519,"Ġcomprender":1520,"gnifi":1521,"ordinar":1522,"ĠexpresiÃ³n":1523,"gos":1524,"ĠQu":1525,"Ġapo":1526,"Ġsac":1527,"Ġcru":1528,"Ġsue":1529,"Ġfran":1530,"ĠAqu":1531,"Ġviol":1532,"Ġpues":1533,"Ġpasos":1534,"Ġsalir":1535,"ĠademÃ¡s":1536,"Ġcerca":1537,"Ġnuestra":1538,"ko":1539,"man":1540,"uso":1541,"Ġeran":1542,"Ġden":1543,"Ġhoy":1544,"Ġtab":1545,"Ġnoso":1546,"esa":1547,"Ġsegun":1548,"ĠvÃŃ":1549,"Ġins":1550,"ela":1551,"ĠEsto":1552,"Ġdelante":1553,"Ġgol":1554,"Ġasunto":1555,"ĠserÃŃa":1556,"ĠserÃ¡":1557,"Ġpapel":1558,"Ġquiero":1559,"Ġirri":1560,"ĠYa":1561,"Ġquerido":1562,"ĠdemÃ¡s":1563,"Ġprimera":1564,"Ġquiere":1565,"Ġreflex":1566,"ĠcuestiÃ³n":1567,"Ġcircunst":1568,"Sonia":1569,"edad":1570,"gust":1571,"lÃ³":1572,"Ġlargo":1573,"aso":1574,"ĠtÃŃ":1575,"Ġenga":1576,"rido":1577,"Ġcome":1578,"cular":1579,"Ġpermi":1580,"mag":1581,"ĠCon":1582,"Ġcara":1583,"Ġhija":1584,"ĠseÃ±ora":1585,"Ġsolamente":1586,"Ġcierta":1587,"Ġderecho":1588,"Ġacerca":1589,"Ġlabios":1590,"Que":1591,"tnikoff":1592,"xim":1593,"Ġmos":1594,"ÃŃn":1595,"Ġesf":1596,"ril":1597,"ĠSan":1598,"iatnikoff":1599,"eme":1600,"ĠAnastasia":1601,"Ġgente":1602,"Ġacom":1603,"ĠMi":1604,"Ġespeci":1605,"Ġhombres":1606,"Ġseguro":1607,"Ġescri":1608,"Ġlugar":1609,"Ġcrimen":1610,"bro":1611,"bur":1612,"cos":1613,"dÃ³n":1614,"sbur":1615,"tum":1616,"Ã©r":1617,"Ġsea":1618,"ĠoÃŃdo":1619,"Ġinvi":1620,"Ġsitio":1621,"Ġimag":1622,"eziatnikoff":1623,"ĠLo":1624,"urÃ³":1625,"tersbur":1626,"tchka":1627,"Ġpasar":1628,"Ġarre":1629,"ebeziatnikoff":1630,"murmur":1631,"Ġminuto":1632,"sabel":1633,"Ġexperimen":1634,"ĠconversaciÃ³n":1635,"Me":1636,"etchka":1637,"gaba":1638,"ror":1639,"vol":1640,"Ġag":1641,"inos":1642,"esde":1643,"Ġsala":1644,"ĠPetersbur":1645,"Ġtomar":1646,"pens":1647,"Ġnego":1648,"ĠMikolai":1649,"Ġbruscamente":1650,"ĠpÃ¡li":1651,"Lo":1652,"gan":1653,"lado":1654,"samente":1655,"Ġatre":1656,"Ġconoci":1657,"dio":1658,"Ġreco":1659,"Ġmil":1660,"ĠhabrÃŃa":1661,"iene":1662,"ĠdiÃ³":1663,"Ġdescu":1664,"bir":1665,"Ġpadre":1666,"ĠsaliÃ³":1667,"Ġllegar":1668,"Ġcarta":1669,"Ġprimer":1670,"Ġbuen":1671,"Ġningun":1672,"Yo":1673,"bar":1674,"gada":1675,"mientos":1676,"Ġhal":1677,"eso":1678,"ales":1679,"alidad":1680,"Ġestos":1681,"Ġreg":1682,"Ġsitu":1683,"tuvo":1684,"Ġarro":1685,"Ġpresencia":1686,"ĠdirigiÃ©ndose":1687,"Ġsombr":1688,"Ġcinco":1689,"Con":1690,"uer":1691,"ĠdÃ©":1692,"ent":1693,"Ã³si":1694,"Ġhon":1695,"Ġencuen":1696,"adoff":1697,"Ġborra":1698,"ĠviÃ³":1699,"Ġacord":1700,"Ġsolo":1701,"Ġpensamiento":1702,"Ġdejar":1703,"ĠdirigiÃ³":1704,"ĠpropÃ³si":1705,"Ġminutos":1706,"Ġaproxim":1707,"meladoff":1708,"Ġintelig":1709,"ĠPetersburgo":1710,"ete":1711,"pes":1712,"tana":1713,"ĠmÃ©":1714,"inÃ³":1715,"Ġconfi":1716,"Ġesca":1717,"rible":1718,"taciÃ³n":1719,"Ġprof":1720,"Ġapenas":1721,"ĠIsabel":1722,"Ġimpres":1723,"Ġcabo":1724,"Ġfuerza":1725,"Ġparticular":1726,"Ġcontrario":1727,"cÃ³":1728,"rÃ³":1729,"sos":1730,"udo":1731,"zado":1732,"Ġabi":1733,"ĠcÃ³l":1734,"entos":1735,"ĠentrÃ³":1736,"Ġsuyo":1737,"amÃ¡s":1738,"Ġbar":1739,"sist":1740,"ĠLos":1741,"ĠLebeziatnikoff":1742,"Ġventana":1743,"Ġpase":1744,"Ġtienes":1745,"lena":1746,"Ġhablado":1747,"Ġresol":1748,"Ġencontraba":1749,"Ġofre":1750,"Ġculp":1751,"ĠcÃ³lera":1752,"idos":1753,"Ġasegu":1754,"ĠdetrÃ¡s":1755,"onio":1756,"Ġotros":1757,"Ġcua":1758,"ĠEste":1759,"resa":1760,"gue":1761,"caciÃ³n":1762,"illa":1763,"Ġtomado":1764,"Ġsola":1765,"ĠsofÃ¡":1766,"murmurÃ³":1767,"ap":1768,"Ġmon":1769,"Ġcons":1770,"Ġfel":1771,"Ġloco":1772,"Ġcuenta":1773,"ĠEsta":1774,"Ġexist":1775,"Ġpasado":1776,"Ġocup":1777,"ĠÂ«Â¿":1778,"Ġsemejante":1779,"Ġcontemp":1780,"den":1781,"dera":1782,"fa":1783,"tÃŃ":1784,"Ġeres":1785,"ern":1786,"untos":1787,"ĠsegÃºn":1788,"Ġhacha":1789,"Ġmiedo":1790,"Ã±ado":1791,"Ġexam":1792,"Ġtrata":1793,"ĠHab":1794,"Ġabs":1795,"Ġsonrisa":1796,"malia":1797,"ĠpropÃ³sito":1798,"Usted":1799,"ves":1800,"redor":1801,"Ġsuelo":1802,"ĠSÃŃ":1803,"dez":1804,"Ġprest":1805,"Ġanti":1806,"continu":1807,"Ġmatado":1808,"ĠcarÃ¡c":1809,"Ġrin":1810,"Ġimporta":1811,"Ã¡ndole":1812,"Ġfrente":1813,"Ġbolsillo":1814,"ĠcarÃ¡cter":1815,"drÃŃa":1816,"Ġpos":1817,"osos":1818,"Ġsepar":1819,"Ġele":1820,"Ġestaban":1821,"cul":1822,"Ġsignifi":1823,"Ġido":1824,"Ġmuchas":1825,"Ġvivamente":1826,"Ã©ndose":1827,"ilia":1828,"Ġmirando":1829,"Ġcreo":1830,"Ġcreer":1831,"cill":1832,"Ġdebe":1833,"Ġbuena":1834,"ĠAdemÃ¡s":1835,"Ġobjetos":1836,"Ġdeclar":1837,"Ġtrabajo":1838,"Ġfamilia":1839,"Ġacompa":1840,"**":1841,"?...":1842,"Cu":1843,"cel":1844,"daba":1845,"Ġdom":1846,"Ġatra":1847,"Ġlen":1848,"Ġmol":1849,"ÃŃri":1850,"Ġher":1851,"oria":1852,"omen":1853,"Ġcomer":1854,"ecer":1855,"Ġextre":1856,"ĠespÃŃri":1857,"Ġobserv":1858,"Ġhubo":1859,"Ġhijo":1860,"Ġmiraba":1861,"Ġruido":1862,"ĠdejÃ³":1863,"Ġemple":1864,"Ġtonter":1865,"Ġnatura":1866,"ĠUsted":1867,"Ġtemblor":1868,"Ġbuscar":1869,"ĠMarmeladoff":1870,"Ġolvi":1871,"Ġestudiante":1872,"Ġnosotros":1873,"Ġespecie":1874,"Ġninguna":1875,"continuÃ³":1876,"ĠespÃŃritu":1877,"drÃ¡":1878,"ju":1879,"nos":1880,"ob":1881,"sas":1882,"table":1883,"yor":1884,"Ġdorm":1885,"Ġdetuvo":1886,"ome":1887,"ombre":1888,"Ġsub":1889,"ĠestÃ¡n":1890,"amÃ¡":1891,"Ġlejos":1892,"tiva":1893,"adamente":1894,"Ġperman":1895,"Ġmayor":1896,"Ġmovi":1897,"ĠsentÃ³":1898,"Ġhijos":1899,"Ġencontrado":1900,"Ġhablaba":1901,"Ġprecisamente":1902,"Ġaleg":1903,"Ġgener":1904,"),":1905,"cÃ³n":1906,"lando":1907,"taban":1908,"uciÃ³n":1909,"vos":1910,"Ġder":1911,"Ġtir":1912,"ciÃ³":1913,"Ġcono":1914,"edia":1915,"Ġesos":1916,"Ġocho":1917,"Ġotras":1918,"ĠreÃŃr":1919,"Ġdif":1920,"ĠPues":1921,"Ġmuchos":1922,"Ġdeli":1923,"lico":1924,"Ġproced":1925,"Ġbaja":1926,"osidad":1927,"Ġpiso":1928,"ĠabriÃ³":1929,"Ġinterrump":1930,"Ġvoy":1931,"pital":1932,"Ġform":1933,"ĠdecÃŃa":1934,"Ġincl":1935,"Ġreflexion":1936,"Le":1937,"cÃŃa":1938,"iones":1939,"pr":1940,"Ġdvor":1941,"Ġpien":1942,"arla":1943,"esen":1944,"Ġdigo":1945,"emp":1946,"bil":1947,"ĠDesde":1948,"Ġprodu":1949,"Â».":1950,"osiciÃ³n":1951,"osiguiÃ³":1952,"Ġfuese":1953,"Ġcabal":1954,"bajo":1955,"Ġinterro":1956,"ĠpodrÃŃa":1957,"ĠVamos":1958,"Ġcostum":1959,"Ġconfes":1960,"ĠrincÃ³n":1961,"bu":1962,"cre":1963,"fÃŃa":1964,"ks":1965,"tur":1966,"zaba":1967,"Ġum":1968,"Ġko":1969,"Ã©cil":1970,"ompren":1971,"ĠestÃ¡s":1972,"dico":1973,"Ġblan":1974,"Ġrecu":1975,"tis":1976,"Ã±or":1977,"Ġimb":1978,"esta":1979,"Ġasp":1980,"Ġpasa":1981,"Ġfuera":1982,"ceso":1983,"Ġpensar":1984,"Ġmedia":1985,"Ġhaya":1986,"Ġcamino":1987,"ĠextraÃ±a":1988,"ĠÃºltima":1989,"Ġmarch":1990,"Ġinquietud":1991,"ĠapresurÃ³":1992,"bral":1993,"ĠsituaciÃ³n":1994,"Ġumbral":1995,"Ġkope":1996,"grim":1997,"presa":1998,"tun":1999,"Ġren":2000,"Ġay":2001,"Ġagua":2002,"entras":2003,"osamente":2004,"ria":2005,"tad":2006,"Ġbil":2007,"Ġfun":2008,"Ġmira":2009,"Ġmientras":2010,"Ġalma":2011,"viese":2012,"ello":2013,"ĠAmalia":2014,"ĠÃ©sta":2015,"Ġdesper":2016,"Ġcaus":2017,"Ġaquello":2018,"ĠTe":2019,"Ġextraordinar":2020,"Ġmujeres":2021,"Ġesperaba":2022,"serva":2023,"Ġllevaba":2024,"Ġasesina":2025,"Ġsorpresa":2026,"drÃ©s":2027,"ĠlÃ¡grim":2028,"Ġcuriosidad":2029,"Ġesfuer":2030,"Ġculpable":2031,"Ġdvornik":2032,"ĠlÃ¡grimas":2033,"cen":2034,"zco":2035,"Ġaf":2036,"Ġagu":2037,"Ġped":2038,"Ġhemos":2039,"Ġtest":2040,"unca":2041,"Ã¡l":2042,"div":2043,"Ġbe":2044,"vista":2045,"Ġmuerte":2046,"Ġace":2047,"Ġperder":2048,"medad":2049,"Ġjust":2050,"Ġservi":2051,"Ġllegado":2052,"ĠsentÃŃa":2053,"ĠniÃ±os":2054,"Ġropa":2055,"Ġempez":2056,"Ġamar":2057,"ĠdebÃŃa":2058,"Ġfuerzas":2059,"Ġponer":2060,"Ġenfermedad":2061,"Ġnuestro":2062,"ĠSemenovitch":2063,"Ġasesino":2064,"Ġdisgust":2065,"ĠsueÃ±o":2066,"Ġaspecto":2067,"!Â»":2068,"Ya":2069,"dar":2070,"llas":2071,"don":2072,"abas":2073,"Ġunos":2074,"entemente":2075,"dir":2076,"Ġalta":2077,"tica":2078,"ellos":2079,"biÃ³":2080,"ece":2081,"Ġperfec":2082,"Ġcompa":2083,"Ġvenir":2084,"diÃ³s":2085,"idado":2086,"ĠllegÃ³":2087,"ĠseÃ±al":2088,"QuiÃ©n":2089,"Ġideas":2090,"Ġconsider":2091,"Ġderecha":2092,"Ġresponder":2093,"Ġpreocup":2094,"Ġgolpe":2095,"ĠimbÃ©cil":2096,"brado":2097,"dr":2098,"ea":2099,"if":2100,"sÃŃ":2101,"udad":2102,"ĠÃºn":2103,"Ġpin":2104,"Ġpel":2105,"Ġcien":2106,"ĠmamÃ¡":2107,"onario":2108,"Ġtor":2109,"Ġconciencia":2110,"Ġcuer":2111,"ĠPol":2112,"Ġvivir":2113,"Ġperdido":2114,"inaciÃ³n":2115,"Ġtienen":2116,"Ġtemor":2117,"Ġestuvo":2118,"Ġvisitante":2119,"Ġfalta":2120,"Ġinmedia":2121,"Ġborracho":2122,"He":2123,"Sab":2124,"cciones":2125,"imo":2126,"Ġpan":2127,"eras":2128,"inaba":2129,"iniÃ³n":2130,"Ġenten":2131,"Ġencar":2132,"Ġnombre":2133,"Ġseis":2134,"Ã¡p":2135,"Ġconse":2136,"diendo":2137,"ampo":2138,"Ġfunci":2139,"Ġcuya":2140,"Ġsilla":2141,"tarle":2142,"Ġprepar":2143,"Ġprob":2144,"migo":2145,"Ġdespre":2146,"ĠPetrovna":2147,"Ġalgunas":2148,"Ġamor":2149,"grad":2150,"Ġdistin":2151,"ĠMarfa":2152,"Ġciudad":2153,"ĠopiniÃ³n":2154,"Ġreconoci":2155,"ĠahÃŃ":2156,"ĠAndrÃ©s":2157,"ĠTodo":2158,"ĠpÃ¡lido":2159,"Ġbille":2160,"ampoco":2161,"Je":2162,"Ten":2163,"Vamos":2164,"ofÃŃa":2165,"ĠO":2166,"Ġadiv":2167,"eramente":2168,"unque":2169,"Ġvar":2170,"Ġvino":2171,"Ġbril":2172,"Ġrev":2173,"Ġpared":2174,"Ġasust":2175,"spera":2176,"Ġaquellos":2177,"Ġtraje":2178,"Ġtrataba":2179,"ĠquiÃ©n":2180,"ĠveÃŃa":2181,"ĠÂ«Â¡":2182,"Ġmuchacha":2183,"ĠimpresiÃ³n":2184,"prosiguiÃ³":2185,"Ġkopeks":2186,"Ġasesinato":2187,"Ġperfectamente":2188,"cti":2189,"eba":2190,"gen":2191,"gas":2192,"lia":2193,"scu":2194,"Ġej":2195,"Ġdef":2196,"Ġdest":2197,"Ġces":2198,"Ġnunca":2199,"ala":2200,"tados":2201,"Ġretir":2202,"Ġcomis":2203,"ĠAlena":2204,"ĠLas":2205,"Ġacos":2206,"Ġacaso":2207,"Ġpropi":2208,"Ġcomprende":2209,"Ġcama":2210,"Ġpronunci":2211,"Ġfuerte":2212,"Ġocurrido":2213,"Ġterrible":2214,"Ġtrabaj":2215,"Ġbrazo":2216,"Ġgrupo":2217,"ĠdÃ©bil":2218,"ĠmÃ©dico":2219,"Ġmolest":2220,"Ġmovimiento":2221,"Ġacep":2222,"Dios":2223,"cor":2224,"fac":2225,"iamente":2226,"isa":2227,"jÃ³":2228,"sado":2229,"tonces":2230,"tÃ¡ndose":2231,"ĠJ":2232,"ĠsÃº":2233,"Ġdebajo":2234,"Ġluego":2235,"Ġpl":2236,"erÃ¡":2237,"Ġhos":2238,"cimiento":2239,"test":2240,"Ġconmigo":2241,"omÃŃa":2242,"ĠestÃ©":2243,"Ġocas":2244,"ĠPar":2245,"ĠPro":2246,"Ġdesesp":2247,"lio":2248,"ĠsintiÃ³":2249,"Ġpoder":2250,"Ġacaba":2251,"irm":2252,"Ġobr":2253,"Ġsalud":2254,"Ġsentido":2255,"Ġadvir":2256,"Ġmirar":2257,"Ġabrir":2258,"pitiÃ³":2259,"Ġcuales":2260,"Ġluz":2261,"Ġatentamente":2262,"Ġdeseo":2263,"Ġacuerdo":2264,"Ġsatis":2265,"EstÃ¡":2266,"Ġbrazos":2267,"ĠlanzÃ³":2268,"Ġdesgracia":2269,"pensÃ³":2270,"Ġantigu":2271,"Ġderredor":2272,"Ġcostumbre":2273,"ĠcompaÃ±":2274,"Ġfuncionario":2275,"cÃ³mo":2276,"dÃ³":2277,"ha":2278,"igo":2279,"mas":2280,"per":2281,"trim":2282,"Ġau":2283,"Ġlla":2284,"ancias":2285,"ÃŃsi":2286,"repitiÃ³":2287,"Ġtus":2288,"Ġenter":2289,"Ã©is":2290,"Ġellas":2291,"Ġcontar":2292,"Ġsupon":2293,"Ġsuced":2294,"ĠÂ»":2295,"leza":2296,"dida":2297,"Ġinquil":2298,"Ġcuidado":2299,"ĠpareciÃ³":2300,"Ġdiver":2301,"Ġsiquiera":2302,"Ġmuerto":2303,"Ġviuda":2304,"locu":2305,"illo":2306,"Ġmatrim":2307,"Ġcaer":2308,"Ġmotivo":2309,"Ġimposible":2310,"Ġexplic":2311,"uesta":2312,"Ġinterlocu":2313,"Ġcree":2314,"ison":2315,"Ġdejado":2316,"gnor":2317,"Ġtales":2318,"Ġnueva":2319,"uelo":2320,"ĠseÃ±oras":2321,"izÃ¡":2322,"Ġmarido":2323,"ĠencontrÃ³":2324,"repuso":2325,"Ġcompleto":2326,"Ġcambio":2327,"Ġdesgraci":2328,"Ġcuatro":2329,"Ġgeneral":2330,"Ġejemp":2331,"Hab":2332,"Pues":2333,"To":2334,"bal":2335,"cta":2336,"idas":2337,"lÃ¡":2338,"men":2339,"nas":2340,"tÃ¡":2341,"Ã¼":2342,"ĠÃ¡n":2343,"Ġdol":2344,"Ġagi":2345,"erna":2346,"Ġta":2347,"Ġesas":2348,"Ã±as":2349,"traba":2350,"ĠDurante":2351,"Ġcasu":2352,"ĠjamÃ¡s":2353,"Ġobscu":2354,"Ġcad":2355,"Ġcap":2356,"Ġsabido":2357,"Ġescena":2358,"ĠrÃ¡p":2359,"Ġmenest":2360,"Ġpresente":2361,"ecido":2362,"Ġlig":2363,"Ġpecho":2364,"Ġpuedes":2365,"Ġveo":2366,"Ġvein":2367,"Ġcolor":2368,"Ġconsiguiente":2369,"Ġsorpren":2370,"Ġboca":2371,"Ġoficial":2372,"ĠintenciÃ³n":2373,"ĠTenÃŃa":2374,"Ġdentro":2375,"Ġdescub":2376,"ĠHabÃŃa":2377,"Ġeleg":2378,"ĠalegrÃŃa":2379,"Ġmatrimonio":2380,"col":2381,"caba":2382,"gÃŃa":2383,"gÃ¼":2384,"mu":2385,"vas":2386,"vado":2387,"Ġos":2388,"Ġevid":2389,"ervi":2390,"Ġmas":2391,"stra":2392,"ables":2393,"inal":2394,"Ġconvi":2395,"Ġnoti":2396,"char":2397,"diente":2398,"ĠSofÃŃa":2399,"Ġdire":2400,"Ġdiciendo":2401,"Ġsimp":2402,"Ġsiguiente":2403,"Ġexac":2404,"Ã¡nto":2405,"ĠComo":2406,"Ġmatar":2407,"Ġobli":2408,"Ġsentado":2409,"ĠniÃ±a":2410,"Ġcabellos":2411,"ĠartÃŃ":2412,"Ġinteres":2413,"ĠinterÃ©s":2414,"Ġtuvo":2415,"Ġentrevista":2416,"Ġpensaba":2417,"Ġcolo":2418,"Ġimportan":2419,"Ġterror":2420,"Â«Â":2421,"Ġclaro":2422,"Ġvestido":2423,"Ġprueba":2424,"Ġadvertir":2425,"Ġtaberna":2426,"ĠtÃŃmi":2427,"Ġarreg":2428,"ĠacompaÃ±":2429,"Ġolvidado":2430,"atura":2431,"laban":2432,"ancill":2433,"Ġquin":2434,"reo":2435,"Ġtur":2436,"cima":2437,"--:":2438,"chka":2439,"Ġestable":2440,"emente":2441,"Ġdesh":2442,"loj":2443,"siones":2444,"Ġperten":2445,"tuchka":2446,"Ã©ndo":2447,"Ġanim":2448,"ĠCancill":2449,"Ġapre":2450,"rase":2451,"ablemente":2452,"Ġrom":2453,"Ġadel":2454,"tase":2455,"Ġrespe":2456,"Ġsosten":2457,"Ġjefe":2458,"Ġapresu":2459,"Ġexplicar":2460,"Ġcompletamente":2461,"Ġprueb":2462,"Ġprincipio":2463,"ĠvÃŃcti":2464,"Ġcircunstancias":2465,"ifest":2466,"ĠsÃºbi":2467,"Ba":2468,"Cuando":2469,"dente":2470,"ico":2471,"tc":2472,"Ġetc":2473,"eran":2474,"ini":2475,"Ġenf":2476,"cion":2477,"Ġnervi":2478,"Ġsecre":2479,"dito":2480,"Ġfison":2481,"Ġreloj":2482,"tivos":2483,"Ġcomun":2484,"Ġgab":2485,"Ġpensa":2486,"Ġmanifest":2487,"Ġdecirle":2488,"Ġpied":2489,"Ġmenor":2490,"Ġabando":2491,"ĠpensÃ³":2492,"ĠcomprendÃŃa":2493,"Ġjuz":2494,"icamente":2495,"Ġmeses":2496,"Ġforma":2497,"ĠUna":2498,"Ġalegre":2499,"ĠocurriÃ³":2500,"Ġplacer":2501,"Ġrecord":2502,"Ġllorar":2503,"ĠAquel":2504,"Ġcircunstancia":2505,"Ġnegocios":2506,"ĠaproximÃ³":2507,"Ġabierta":2508,"Ġpose":2509,"Ġsignifica":2510,"Ġlengua":2511,"Ġrecuerdo":2512,"Ġejemplo":2513,"Ġmenester":2514,"gÃ¼en":2515,"ĠartÃŃculo":2516,"ĠCancillerÃŃa":2517,"ados":2518,"cina":2519,"gna":2520,"llos":2521,"tero":2522,"Ġdoc":2523,"Ġpier":2524,"stos":2525,"anos":2526,"ÃŃg":2527,"Ġtampoco":2528,"Ġencima":2529,"cir":2530,"alo":2531,"Ġnoble":2532,"chaz":2533,"Ġrecur":2534,"Ġleer":2535,"Ġhabla":2536,"Ġsiete":2537,"...--":2538,"bilidad":2539,"terior":2540,"Ġprocur":2541,"Ġbasta":2542,"Ġpene":2543,"ĠTÃº":2544,"Ġadmi":2545,"vech":2546,"bros":2547,"Ġlib":2548,"Ġcualquier":2549,"Ġcoloc":2550,"servÃ³":2551,"Ġolvid":2552,"ĠningÃºn":2553,"Ġgracias":2554,"ribu":2555,"Ġtriste":2556,"Ġestrech":2557,"Ġgusto":2558,"Ġsombrero":2559,"Ġinteligente":2560,"Ġpelig":2561,"ĠadvirtiÃ³":2562,"Ġinterlocutor":2563,"Ġdolor":2564,"Ġimportancia":2565,"Ġpruebas":2566,"ĠfisonomÃŃa":2567,"Los":2568,"Su":2569,"Va":2570,"bado":2571,"itch":2572,"tÃ©":2573,"tribu":2574,"zquier":2575,"Ġdu":2576,"Ġce":2577,"arlo":2578,"Ġtre":2579,"Ġterm":2580,"inta":2581,"Ġenvi":2582,"ciente":2583,"Ġconv":2584,"dia":2585,"dientes":2586,"Ġbon":2587,"Ġbes":2588,"Ġfon":2589,"Ġreun":2590,"tivamente":2591,"ĠhabrÃ¡":2592,"Ġizquier":2593,"Ġpudi":2594,"Ġexten":2595,"iraba":2596,"Ã¡ne":2597,"Ġmiseria":2598,"Ġdespa":2599,"cep":2600,"Ġrepar":2601,"vidu":2602,"Ġalguno":2603,"Ġraz":2604,"Ġechado":2605,"Ġresuel":2606,"Ġindividu":2607,"Ġneg":2608,"ĠBa":2609,"Ġconducta":2610,"Ġoficina":2611,"Ġcriada":2612,"ĠconocÃŃa":2613,"ĠQuizÃ¡":2614,"Ġcometido":2615,"Ġconoce":2616,"Ġayud":2617,"Ġmiradas":2618,"Ġhospital":2619,"balbu":2620,"DÃ³nde":2621,"dencia":2622,"eta":2623,"ego":2624,"ima":2625,"mento":2626,"ued":2627,"ueno":2628,"vÃ¡n":2629,"Ġgo":2630,"Ġamb":2631,"Ġllen":2632,"Ã³ven":2633,"Ġtier":2634,"ridad":2635,"tame":2636,"ĠestÃº":2637,"Ġfe":2638,"tico":2639,"Ġpartes":2640,"Ġdiab":2641,"gular":2642,"ĠAunque":2643,"Ãºtil":2644,"Ġhechos":2645,"Ġtenga":2646,"taron":2647,"Ġperdon":2648,"ĠjÃ³ven":2649,"ĠIlia":2650,"Ġsalido":2651,"Ġhist":2652,"Ġpensado":2653,"Ġcomprendo":2654,"Ġlimi":2655,"Ġverdadero":2656,"Ġresul":2657,"Ġpropio":2658,"Ġinflu":2659,"Ġrecibido":2660,"Ġdistra":2661,"ĠEstaba":2662,"Ġburl":2663,"Ġasombr":2664,"Ġgrave":2665,"Ġpreocupa":2666,"Ġsemejantes":2667,"Ġsentimiento":2668,"Ġhoras":2669,"ĠAquÃŃ":2670,"Ġsegundo":2671,"ĠresoluciÃ³n":2672,"omenzÃ³":2673,"Ġnatural":2674,"observÃ³":2675,"Ġcuerpo":2676,"gradable":2677,"Ġdesespera":2678,"Ġcasualidad":2679,"ĠrÃ¡pida":2680,"Ġpiedra":2681,"gÃ¼enza":2682,"ĠjÃ³venes":2683,"Dun":2684,"DespuÃ©s":2685,"Eso":2686,"Sin":2687,"clu":2688,"ebre":2689,"icia":2690,"ilidad":2691,"jero":2692,"meno":2693,"Ġus":2694,"Ġdemos":2695,"Ġll":2696,"Ġtras":2697,"Ġenti":2698,"Ġsum":2699,"riba":2700,"dillas":2701,"amientos":2702,"Ġbeb":2703,"Ġlog":2704,"ĠPer":2705,"...?":2706,"ĠEso":2707,"Ġignor":2708,"Ġvivo":2709,"Ãºm":2710,"ĠLle":2711,"tarme":2712,"Ġmiser":2713,"Ġja":2714,"Ġbatuchka":2715,"Ġsentarse":2716,"Ġprome":2717,"Ġseguir":2718,"Ġcomprendido":2719,"Ġpreguntaba":2720,"Ġempe":2721,"Ġgrandes":2722,"Ġsuplico":2723,"Ġtemblar":2724,"Ġdeseos":2725,"Ġrelaciones":2726,"Ġsentimientos":2727,"Ġrecobr":2728,"Ġhallaba":2729,"Ġarroj":2730,"Ġescapar":2731,"ĠtonterÃŃa":2732,"Ġdelirio":2733,"ĠPoletchka":2734,"Ġinmediatamente":2735,"Ġabandon":2736,"00":2737,"Para":2738,"Svidrigailoff":2739,"TÃº":2740,"iga":2741,"pos":2742,"pero":2743,"rer":2744,"Ġator":2745,"Ġpsi":2746,"Ġcoc":2747,"anco":2748,"ÃŃtame":2749,"Ġtro":2750,"orme":2751,"inter":2752,"Ġvas":2753,"Ġhaciendo":2754,"ador":2755,"Ġhabr":2756,"ĠdirÃ©":2757,"Ġcomida":2758,"Ġproy":2759,"illas":2760,"ierto":2761,"Ġespan":2762,"Ġobserva":2763,"ĠpasÃ³":2764,"Ġimped":2765,"Ġtoma":2766,"Ġpies":2767,"Ġmenudo":2768,"ĠSegÃºn":2769,"Ġrode":2770,"Ġrodillas":2771,"Ġpreguntar":2772,"Ġrato":2773,"Ġvaci":2774,"Ġvaya":2775,"Ġacabar":2776,"Ġllevar":2777,"icilio":2778,"Ġfati":2779,"Ġbajar":2780,"ĠKo":2781,"Ġdesconoci":2782,"Ġsufrim":2783,"Ġsospechas":2784,"Ġnegocio":2785,"Ġhonor":2786,"Ġencuentra":2787,"ĠacordÃ³":2788,"Ġprofun":2789,"Ġfeliz":2790,"Ġexistencia":2791,"Ġdomicilio":2792,"Ġdisgusto":2793,"ĠvÃŃctima":2794,"Ġfondo":2795,"Ġhistoria":2796,"Dunia":2797,"Esto":2798,"Te":2799,"comenzÃ³":2800,"hÃŃ":2801,"Ġeb":2802,"Ġaver":2803,"Ġpes":2804,"Ġho":2805,"ĠhuÃ©":2806,"Ã©ri":2807,"Ġvamos":2808,"Ġsuerte":2809,"Ġodi":2810,"Ġcuello":2811,"ĠSus":2812,"Ã±ar":2813,"Ġdisi":2814,"ĠPara":2815,"culos":2816,"bida":2817,"ĠAsÃŃ":2818,"Ġviva":2819,"Ġexal":2820,"Ġexcel":2821,"Ġgorra":2822,"ĠtenÃŃan":2823,"venir":2824,"Ġmadera":2825,"Ġobst":2826,"ĠvenÃŃa":2827,"Ġvenga":2828,"Ġpagar":2829,"Ġllegada":2830,"Ġcargo":2831,"ĠEntonces":2832,"Ġrepres":2833,"Ġquiso":2834,"ĠirÃ©":2835,"ÃŃase":2836,"gno":2837,"ĠpreguntÃ³":2838,"Ġmalo":2839,"Ġciertos":2840,"Ġcamp":2841,"Ġcoche":2842,"Ġviejo":2843,"ĠacabÃ³":2844,"Ġalem":2845,"Ġnuestros":2846,"Ġsupuesto":2847,"Ġincor":2848,"Ġincomo":2849,"Ġpiedad":2850,"Ġexplica":2851,"Ġasombro":2852,"Ã¡rs":2853,"ciosamente":2854,"ĠbajÃ³":2855,"ĠcomenzÃ³":2856,"Ġcontinuaba":2857,"ĠTengo":2858,"Ġtranquili":2859,"Ġescuchaba":2860,"Ġcruz":2861,"Ġsegunda":2862,"Ġinsul":2863,"Ġcometer":2864,"pensaba":2865,"ĠsombrÃŃo":2866,"Ġexaminar":2867,"Ġabsur":2868,"***":2869,"Ġherido":2870,"Ġpedir":2871,"Ġsatisfac":2872,"Ġllave":2873,"Ġdoctor":2874,"ÃŃgame":2875,"Ġtreinta":2876,").":2877,"Eh":2878,"II":2879,"dra":2880,"gamos":2881,"hi":2882,"mÃ¡":2883,"var":2884,"viendo":2885,"zando":2886,"Ġer":2887,"Ġdando":2888,"Ġaum":2889,"Ġentra":2890,"cida":2891,"ciedad":2892,"cidente":2893,"ĠnÃºm":2894,"Ã¡b":2895,"Ġalmo":2896,"Ġalter":2897,"titud":2898,"Ġhable":2899,"Ġinsi":2900,"via":2901,"vieron":2902,"Ġloca":2903,"Ġdije":2904,"Ġdices":2905,"Ġdescan":2906,"Ġsir":2907,"ĠEse":2908,"Ġmulti":2909,"guien":2910,"Ġga":2911,"Ġgan":2912,"mpli":2913,"irse":2914,"Ġpropon":2915,"ill":2916,"ĠvergÃ¼enza":2917,"Â»--":2918,"Ġimpa":2919,"Ġrepent":2920,"Ġabri":2921,"Ġinterior":2922,"Ġcorre":2923,"Ġpensamientos":2924,"Ġvolun":2925,"rigor":2926,"Ġrespuesta":2927,"Ġlibre":2928,"Ġcampes":2929,"Ġechar":2930,"Ġesperanza":2931,"SeÃ±or":2932,"ĠponÃŃa":2933,"caso":2934,"Ġimportante":2935,"Ġchi":2936,"ĠHay":2937,"ĠfrÃŃo":2938,"Ġdistancia":2939,"Ġfavor":2940,"ĠrespondiÃ³":2941,"Ġvuelto":2942,"Ġvalor":2943,"rumpiÃ³":2944,"Ġdesconfi":2945,"Ġsufrir":2946,"ĠvÃŃspera":2947,"Ġgolpes":2948,"Ġfelici":2949,"Ġextremo":2950,"tuna":2951,"Ġbillete":2952,"ĠcomisarÃŃa":2953,"ĠocasiÃ³n":2954,"Ġobreros":2955,"Ġantiguo":2956,"ĠgabÃ¡n":2957,"Ġtierra":2958,"Ġpsicol":2959,"Compren":2960,"bles":2961,"cante":2962,"eda":2963,"hada":2964,"it":2965,"icio":2966,"ozco":2967,"Ġedu":2968,"Ġata":2969,"ĠaÃ±o":2970,"Ġasist":2971,"Ġlar":2972,"ĠpÃº":2973,"ĠcrÃ©":2974,"enka":2975,"arro":2976,"ster":2977,"onÃŃa":2978,"ĠharÃŃa":2979,"inalmente":2980,"Ġencan":2981,"tese":2982,"Ġvan":2983,"Ġvela":2984,"Ġvaso":2985,"Ġconserv":2986,"Ġconden":2987,"Ġsuya":2988,"Ġsubir":2989,"chado":2990,"ĠoyÃ³":2991,"Ġley":2992,"Ġlecciones":2993,"Ġalguien":2994,"ĠinÃºtil":2995,"Ġportero":2996,"vil":2997,"ĠPo":2998,"cura":2999,"ĠsiguiÃ³":3000,"ĠAyer":3001,"Ġexci":3002,"tran":3003,"uma":3004,"Ġverla":3005,"larse":3006,"sopor":3007,"Ġcaf":3008,"ĠpaÃ±":3009,"Ġsabes":3010,"Ġdecirlo":3011,"cesi":3012,"Ġinteresa":3013,"Ġcalor":3014,"Ġtemer":3015,"lase":3016,"Ġrespecto":3017,"Ġpreguntas":3018,"Ġfiebre":3019,"Ġcamisa":3020,"Ġesperar":3021,"Ġamigos":3022,"Ġprimero":3023,"Ġbueno":3024,"Ġinquieta":3025,"ĠHasta":3026,"Ġfrunci":3027,"Ġquieres":3028,"ĠexplicaciÃ³n":3029,"Ġvuelta":3030,"Ġsonriendo":3031,"Ġintenciones":3032,"Ġguardia":3033,"ĠpequeÃ±a":3034,"Ġtranquilo":3035,"Ġdenunci":3036,"ĠimaginaciÃ³n":3037,"Ġaseguro":3038,"ĠtonterÃŃas":3039,"Ġesfuerzo":3040,"Ġinquilinos":3041,"ĠdirecciÃ³n":3042,"Ġadelante":3043,"Vaya":3044,"Ġizquierda":3045,"Ġdespacho":3046,"uede":3047,"Ġdiablo":3048,"Ġincorpor":3049,"Una":3050,"gor":3051,"iver":3052,"nado":3053,"su":3054,"tin":3055,"zada":3056,"Ġ[":3057,"Ġrigor":3058,"Ġdul":3059,"Ġasi":3060,"Ġagar":3061,"Ġdeja":3062,"ercado":3063,"ensa":3064,"quÃŃ":3065,"ĠmÃŃa":3066,"ÃŃcil":3067,"eses":3068,"Ġvia":3069,"Ġcontado":3070,"omitch":3071,"Ġsupi":3072,"rito":3073,"olu":3074,"Ġreh":3075,"Ġlecho":3076,"Ġinde":3077,"Ġinsp":3078,"Ġinju":3079,"Ġinsopor":3080,"Ġcuyo":3081,"Ġdiga":3082,"ĠdivÃ¡n":3083,"iada":3084,"bierto":3085,"Ġexclam":3086,"ĠgÃ©n":3087,"term":3088,"tario":3089,"Ġsopor":3090,"Ġangust":3091,"Ġcompr":3092,"aza":3093,"Ġimpul":3094,"Ġhice":3095,"ĠtratÃ³":3096,"ĠniÃ±o":3097,"Ġmomentos":3098,"Ġarriba":3099,"ĠsonriÃ³":3100,"ĠIvanovitch":3101,"ĠDunetchka":3102,"Ġpeor":3103,"Ġpueden":3104,"orden":3105,"torio":3106,"Ġvacil":3107,"Ġcobar":3108,"Ġgrande":3109,"Ġdarle":3110,"Ġcanal":3111,"Ġorgu":3112,"Ġorig":3113,"Ġhumor":3114,"ĠFomitch":3115,"Ġllorando":3116,"Ġvale":3117,"Ġprisa":3118,"Ġocultar":3119,"ĠsacÃ³":3120,"ĠEstoy":3121,"ĠagitaciÃ³n":3122,"culta":3123,"Ġtemblorosa":3124,"Ġdormir":3125,"Ġbebido":3126,"ĠempezÃ³":3127,"ĠParecÃŃa":3128,"Ġautor":3129,"Ġpensativo":3130,"Ġlenguaje":3131,"Ġinfluencia":3132,"interrumpiÃ³":3133,"Ġcampan":3134,"Ġentrada":3135,"Ġalmohada":3136,"ĠgÃ©nero":3137,"Durante":3138,"Era":3139,"Un":3140,"dando":3141,"oj":3142,"rÃ¡s":3143,"ubi":3144,"Ġemo":3145,"Ġequi":3146,"endi":3147,"Ġmem":3148,"Ã³vil":3149,"Ġense":3150,"Ġcondi":3151,"Ġfan":3152,"iencia":3153,"ĠRe":3154,"ikodi":3155,"Ġdesma":3156,"guÃ©s":3157,"ĠAhÃŃ":3158,"Ġvive":3159,"cog":3160,"ĠDi":3161,"Ġacento":3162,"ĠperdÃ³n":3163,"Ġsociedad":3164,"Ġverle":3165,"ĠCompren":3166,"Ġjuntos":3167,"iere":3168,"Ġdespe":3169,"Ġpendientes":3170,"ĠseguÃŃa":3171,"Ġarm":3172,"Ġquiera":3173,"ĠcomprendiÃ³":3174,"Ġcerrar":3175,"Ġmala":3176,"radamente":3177,"Ġcualquiera":3178,"Ġverdadera":3179,"ĠdirigÃŃa":3180,"Ġamen":3181,"ĠesperÃ³":3182,"Ġfortuna":3183,"Ġhablando":3184,"Ġalej":3185,"Ġindigna":3186,"penas":3187,"ĠNikodi":3188,"Ġnecesario":3189,"Ġllama":3190,"tanas":3191,"ĠacercÃ³":3192,"Ġacuer":3193,"Ġchal":3194,"Ġorgan":3195,"ĠSupon":3196,"ĠEstÃ¡":3197,"Ġaho":3198,"Ġtrist":3199,"Ġescuchar":3200,"Ġapoy":3201,"ĠdifÃŃcil":3202,"Ġreflexionar":3203,"Ġsuponer":3204,"Ġquince":3205,"Ġbondad":3206,"Ã¡neamente":3207,"ĠestÃºp":3208,"Ġlleno":3209,"ĠobservaciÃ³n":3210,"ĠKoch":3211,"Ġdesconocido":3212,"ĠnÃºmero":3213,"Ġvoluntad":3214,"Ġchiquil":3215,"Ġfelicidad":3216,"ĠcafÃ©":3217,"Ġviaje":3218,"Ġmemoria":3219,"ĠNikodim":3220,"An":3221,"Ea":3222,"Nada":3223,"Razumikin":3224,"aciones":3225,"ientes":3226,"ler":3227,"med":3228,"ne":3229,"san":3230,"trio":3231,"Ġ1":3232,"Ġordinar":3233,"Ġevi":3234,"Ġedad":3235,"Ġdur":3236,"Ġavan":3237,"Ġafec":3238,"Ġsiento":3239,"Ġdepen":3240,"Ġpun":3241,"ĠposiciÃ³n":3242,"Ġcesar":3243,"ertas":3244,"osas":3245,"arte":3246,"Ġtos":3247,"abilidad":3248,"unf":3249,"inist":3250,"Ġenc":3251,"Ġentrado":3252,"rados":3253,"Ġconti":3254,"Ġsuel":3255,"rifi":3256,"ches":3257,"Ġoy":3258,"ĠoÃŃ":3259,"Ġhago":3260,"Ġbanco":3261,"ĠfrÃŃa":3262,"Ġrefi":3263,"tiendo":3264,"Ġind":3265,"Ġinno":3266,"Ġpormeno":3267,"Ġporvenir":3268,"vido":3269,"Ġcuidad":3270,"ĠSon":3271,"ĠdirÃŃa":3272,"ĠPas":3273,"Ġdesem":3274,"ĠEx":3275,"eco":3276,"Ġpuente":3277,"ĠtendrÃŃa":3278,"Ġacon":3279,"irÃ¡":3280,"irme":3281,"Ġsocial":3282,"fitch":3283,"contest":3284,"ĠMercado":3285,"Ġtanta":3286,"Ġaquellas":3287,"Ġpena":3288,"Ġcarca":3289,"ĠTal":3290,"ĠTambiÃ©n":3291,"ĠprÃ³":3292,"Ġsonre":3293,"Ġhacerlo":3294,"imos":3295,"ĠcreyÃ³":3296,"Ġmedios":3297,"ĠSeÃ±or":3298,"Ġdejaba":3299,"Ġlimp":3300,"Ġfigu":3301,"Ġfija":3302,"Ġjuicio":3303,"Ġlevantarse":3304,"Ġdeber":3305,"ĠÃºltimos":3306,"Ġfing":3307,"ĠNe":3308,"Ġsuper":3309,"Ġgui":3310,"Ġriendo":3311,"ĠburguÃ©s":3312,"Ġconvencido":3313,"Ġdetenido":3314,"Ġestreme":3315,"Ġhorrible":3316,"ĠpequeÃ±os":3317,"Ġapoder":3318,"kofitch":3319,"Ġesfor":3320,"emetrio":3321,"Ġconocido":3322,"Ġconocimiento":3323,"Ġencuentro":3324,"Ġinteligencia":3325,"Ġescap":3326,"Ġrenunci":3327,"Ġesfuerzos":3328,"ĠProkofitch":3329,"Ġacabado":3330,"Ġnoticias":3331,"Ġromp":3332,"Ġliberta":3333,"balbuce":3334,"Ġsufrimiento":3335,"Ġmultitud":3336,"ĠpÃºb":3337,"Ġinjuri":3338,"cultades":3339,"Ġpormenores":3340,"Ahora":3341,"Acaso":3342,"Po":3343,"av":3344,"ayer":3345,"dÃŃ":3346,"ide":3347,"ica":3348,"iste":3349,"jada":3350,"koff":3351,"rente":3352,"tÃ³n":3353,"ulo":3354,"val":3355,"vuel":3356,"Ġorden":3357,"Ġdarse":3358,"Ġdoy":3359,"Ġdeterm":3360,"Ġpec":3361,"Ġcr":3362,"Ġcla":3363,"erado":3364,"erdad":3365,"Ġmer":3366,"arios":3367,"stor":3368,"stru":3369,"Ã³gi":3370,"Ġhier":3371,"ĠtÃ©r":3372,"Ġencer":3373,"Ġviendo":3374,"ramente":3375,"Ã¡ver":3376,"Ġconsegu":3377,"Ġconclu":3378,"Ġfres":3379,"Ġfirm":3380,"Ġfrase":3381,"Ġrechaz":3382,"Ġmister":3383,"Ġletra":3384,"Ġalar":3385,"Ġalcan":3386,"tifi":3387,"ĠSen":3388,"Ġdesen":3389,"...Â»":3390,"Ġexcu":3391,"sidad":3392,"Ġgros":3393,"lica":3394,"Ġacera":3395,"Ġacceso":3396,"tarÃŃa":3397,"Ġprote":3398,"Ġasuntos":3399,"Ġmater":3400,"Ġmadra":3401,"ĠMÃ¡s":3402,"Ġespera":3403,"spec":3404,"Ġobed":3405,"Ġobstante":3406,"Ġventanas":3407,"Ġcapital":3408,"Ġpaciencia":3409,"ioso":3410,"Ġtrastor":3411,"Ġdecirte":3412,"Ġdecirse":3413,"Ġfutura":3414,"Ġrepu":3415,"zados":3416,"ĠHeno":3417,"Ġhubieran":3418,"Ġcalles":3419,"Ġcorri":3420,"Ġcorrer":3421,"ĠcreÃŃdo":3422,"dura":3423,"Ġhaberse":3424,"Ġembria":3425,"Ġciertas":3426,"Ġestuviese":3427,"Ġlibro":3428,"ĠVa":3429,"Ġcoch":3430,"Ġindifer":3431,"Ġrublo":3432,"Ġllamar":3433,"Ġtemblando":3434,"ĠcÃ³moda":3435,"Ġmoral":3436,"ĠfijÃ³":3437,"Ġhuman":3438,"Ġasombrado":3439,"Ġsacar":3440,"Ġreconoc":3441,"Estaba":3442,"Ġvestidos":3443,"ĠMikolka":3444,"Ġdesapar":3445,"Ġconocer":3446,"Ġescrito":3447,"Ġconfianza":3448,"Ġocupaba":3449,"cillamente":3450,"Ġnaturaleza":3451,"Ġdifunto":3452,"ĠinclinÃ³":3453,"Ġpienso":3454,"Ġcaballo":3455,"ĠconfesiÃ³n":3456,"Ġjusticia":3457,"Ġservicio":3458,"Sabes":3459,"Ġvarias":3460,"Ġdesgraciado":3461,"ĠcadÃ¡ver":3462,"Ġveinte":3463,"ĠconvicciÃ³n":3464,"Â«Â¿":3465,"ĠtÃŃmida":3466,"Ġpiernas":3467,"Ġrazon":3468,"ĠdesesperaciÃ³n":3469,"ĠrÃ¡pidamente":3470,"Ġexcelente":3471,"ĠsatisfacciÃ³n":3472,"Ġimpaciencia":3473,"ĠpaÃ±uelo":3474,"Ġinnoble":3475,"Ġlibertad":3476,"ĠtÃ©rm":3477,"Ġmadrastra":3478,"?Â»,":3479,"Cre":3480,"Mu":3481,"decÃŃa":3482,"gon":3483,"gando":3484,"ique":3485,"ible":3486,"iza":3487,"zc":3488,"zel":3489,"ĠG":3490,"Ġavi":3491,"Ġamo":3492,"Ġatro":3493,"Ġdebido":3494,"Ġpren":3495,"Ġcen":3496,"Ġced":3497,"ere":3498,"erme":3499,"ens":3500,"quina":3501,"ard":3502,"stro":3503,"inco":3504,"Ġvac":3505,"Ġviene":3506,"Ġconmo":3507,"ĠoÃŃa":3508,"Ġbel":3509,"Ġfeb":3510,"Ġreal":3511,"Ġretor":3512,"Ġalquil":3513,"Ġalha":3514,"Ġaloj":3515,"tito":3516,"Ġincidente":3517,"ienta":3518,"Ġcuan":3519,"ĠcuÃ¡nto":3520,"Ġcumpli":3521,"ĠSÃ©":3522,"Ġdifi":3523,"Ġdesgar":3524,"Ġil":3525,"sele":3526,"ĠAdiÃ³s":3527,"ĠvivÃŃa":3528,"Ġpusi":3529,"sible":3530,"Ãºs":3531,"ĠDemetrio":3532,"ĠLi":3533,"Ġsingular":3534,"ĠtendrÃ¡":3535,"ĠacciÃ³n":3536,"umoff":3537,"irÃ³":3538,"tarÃ¡":3539,"Ġpreced":3540,"Ġhacen":3541,"Ġverme":3542,"ĠCreo":3543,"Ġjun":3544,"ieron":3545,"Ġesposa":3546,"Ġcate":3547,"ĠpensiÃ³n":3548,"Ġllegaba":3549,"Ġsencillamente":3550,"Ġcari":3551,"quiÃ©n":3552,"ĠseÃ±as":3553,"Ġhubiesen":3554,"Ġarran":3555,"Ġabra":3556,"Ġtuviese":3557,"ĠcreÃŃa":3558,"ferir":3559,"jeron":3560,"Ġcerrada":3561,"Ġenferma":3562,"ĠllevÃ³":3563,"Ġtemblaba":3564,"igos":3565,"Ġexpresaba":3566,"Ġrecibi":3567,"ĠHace":3568,"Ġoro":3569,"Ġbote":3570,"Ġgritos":3571,"Ġfijamente":3572,"Ġconveniente":3573,"Ġcompleta":3574,"Ġaprovech":3575,"ĠKap":3576,"Hasta":3577,"Ġtriunf":3578,"Ġsofoc":3579,"ĠUniver":3580,"Ġtabern":3581,"ĠirritaciÃ³n":3582,"ĠengaÃ±":3583,"Ġarreba":3584,"Ġexperimentaba":3585,"Ġregist":3586,"Ġresolver":3587,"ernumoff":3588,"Ġabsolu":3589,"ĠpermaneciÃ³":3590,"Ġinclin":3591,"Ġtorno":3592,"Ġpropias":3593,"Ġaceptar":3594,"Ġpluma":3595,"Todo":3596,"Ġobscuridad":3597,"Ġcapaz":3598,"Ġelegante":3599,"Ġsimple":3600,"Ġenfrente":3601,"Ġjuzgar":3602,"Ġterminado":3603,"Ġcocina":3604,"Ġebrio":3605,"ĠobstÃ¡":3606,"Ġrepresen":3607,"ĠalemÃ¡n":3608,"Ġabsurdo":3609,"Ġinsignifi":3610,"Ġdesconfianza":3611,"ĠcrÃ©dito":3612,"ĠemociÃ³n":3613,"contestÃ³":3614,"balbuceÃ³":3615,"Ġrepugn":3616,"ĠKapernumoff":3617,".)":3618,"Como":3619,"Par":3620,"ban":3621,"bri":3622,"bran":3623,"gres":3624,"ili":3625,"ores":3626,"pas":3627,"ĠÃ¡r":3628,"Ġdue":3629,"ĠatrÃ¡s":3630,"Ġdetal":3631,"Ġdebilidad":3632,"ĠcÃ¡l":3633,"aro":3634,"arÃ¡n":3635,"Ġquedado":3636,"Ġenem":3637,"cifer":3638,"Ġvec":3639,"oma":3640,"tores":3641,"Ġleg":3642,"Ġalu":3643,"Ġalto":3644,"tida":3645,"Ġhabi":3646,"Ġhablo":3647,"ientras":3648,"Ġpartido":3649,"ĠSoy":3650,"Ġdesi":3651,"Ġdescar":3652,"cucha":3653,"cuenta":3654,"Ġmetido":3655,"Ġmuj":3656,"ĠAr":3657,"ĠpuÃ±":3658,"Ġexig":3659,"Ġtenemos":3660,"Ġteniendo":3661,"Ġpoca":3662,"ĠaquÃ©":3663,"Ġperm":3664,"Ġpreca":3665,"Ġpreten":3666,"ĠÃ©se":3667,"Ġhaces":3668,"Ġprov":3669,"Ġprocu":3670,"Ġpropor":3671,"Ġanterior":3672,"ĠCu":3673,"Ġserio":3674,"ĠMa":3675,"ĠMas":3676,"Ġespanto":3677,"Ġteor":3678,"ĠvendrÃ¡":3679,"ĠIn":3680,"talÃ³n":3681,"Ġrepe":3682,"garme":3683,"Ġescrib":3684,"ermÃŃtame":3685,"Ġquisi":3686,"Ġadem":3687,"Ġsolici":3688,"idades":3689,"imiento":3690,"ĠtemÃŃa":3691,"Ġpresi":3692,"Ġtuvi":3693,"Ġparecer":3694,"Ġpensando":3695,"Ġmedida":3696,"Ġlibr":3697,"ĠVen":3698,"cilla":3699,"Ġlevantado":3700,"Ġtonta":3701,"Ġdebo":3702,"Ġcodos":3703,"Ġcolcha":3704,"trey":3705,"Ġsuplic":3706,"Ġmejillas":3707,"Ġconsidera":3708,"Ã¡ndola":3709,"Ġpersonal":3710,"Ġgrito":3711,"Ġplata":3712,"Ġcincuenta":3713,"Ġcontento":3714,"Ġcontrari":3715,"ĠprisiÃ³n":3716,"Ġprincipal":3717,"Ġrelato":3718,"ĠpequeÃ±o":3719,"ĠpresentÃ³":3720,"Ġdesagradable":3721,"Ġcriatura":3722,"Ġsacrifi":3723,"Ġcruel":3724,"Ġviolento":3725,"Ġnosotras":3726,"ĠengaÃ±ado":3727,"Ġescribir":3728,"volviÃ³":3729,"ĠpÃ¡lida":3730,"Ġprofundo":3731,"ĠcontemplÃ³":3732,"Ġempleado":3733,"Ġinterroga":3734,"Ġblanco":3735,"Ġaguar":3736,"Ġjustifi":3737,"Sabe":3738,"ĠpantalÃ³n":3739,"Ġentender":3740,"Ġrevel":3741,"Ġpronunciar":3742,"ĠcompaÃ±ero":3743,"Ġveinti":3744,"Ġsorprendido":3745,"Ġdescubrir":3746,"Ġevidente":3747,"Ġturb":3748,"ĠsÃºbitamente":3749,"Ġpeligro":3750,"Ġconvul":3751,"Ġresuelto":3752,"Ġdisimu":3753,"Ġdescansillo":3754,"Ġinsoportable":3755,"Ġcampanilla":3756,"Ġcondiciones":3757,"ĠindignaciÃ³n":3758,"Ġfebril":3759,"ĠUniversidad":3760,"Bueno":3761,"Desde":3762,"Esta":3763,"Rodi":3764,"Tiene":3765,"cri":3766,"cando":3767,"hum":3768,"jes":3769,"jese":3770,"lante":3771,"mon":3772,"rf":3773,"rÃŃan":3774,"ts":3775,"tera":3776,"vest":3777,"vÃŃan":3778,"Â¡":3779,"ĠQue":3780,"ĠÃŃn":3781,"Ġeje":3782,"Ġaz":3783,"Ġaven":3784,"Ġater":3785,"Ġama":3786,"ĠaÃ±a":3787,"ĠadiÃ³s":3788,"Ġdep":3789,"Ġdedos":3790,"ĠlÃŃ":3791,"ĠcÃ¡r":3792,"erro":3793,"enidad":3794,"anda":3795,"ÃŃs":3796,"rede":3797,"Ġham":3798,"uncia":3799,"inas":3800,"Ġenig":3801,"Ġentraba":3802,"cidad":3803,"cioso":3804,"ciÃ©ndo":3805,"Ġlazo":3806,"esas":3807,"Ġsev":3808,"Ġunas":3809,"ral":3810,"Ġcontribu":3811,"alle":3812,"Ġesquina":3813,"rovi":3814,"rojo":3815,"Ġestabas":3816,"olia":3817,"dizo":3818,"dicos":3819,"Ġfre":3820,"Ġflo":3821,"Ġreti":3822,"tien":3823,"Ġincon":3824,"Ġingen":3825,"ienes":3826,"iencias":3827,"vigo":3828,"vierto":3829,"Ġdifer":3830,"ĠPre":3831,"Ġdesli":3832,"Ġsigue":3833,"ĠmetiÃ³":3834,"Ġmezc":3835,"bili":3836,"ĠAc":3837,"Ġpueda":3838,"Ġdelic":3839,"Ġexas":3840,"Ġexcesi":3841,"sis":3842,"sion":3843,"sica":3844,"sillos":3845,"Ġgor":3846,"Ġgana":3847,"Ġcasarse":3848,"urera":3849,"Ġperspec":3850,"Ġprogres":3851,"Ġandando":3852,"Ġveremos":3853,"laro":3854,"Ġmaqu":3855,"Ġserenidad":3856,"Ġespal":3857,"Ġventa":3858,"Ġvende":3859,"ĠcayÃ³":3860,"ĠsalÃŃa":3861,"Ġimpre":3862,"cejo":3863,"ĠTiene":3864,"Ġmanchas":3865,"Ġhici":3866,"Ġtratar":3867,"Ġfuri":3868,"Ġrepro":3869,"Ġtomaba":3870,"Ġirse":3871,"Ġvoces":3872,"Ġhacerme":3873,"Ġcoron":3874,"ĠcordÃ³n":3875,"Ġcorredor":3876,"Ġtuve":3877,"Ġentrecejo":3878,"Porque":3879,"Ġhaberle":3880,"Ġcerrojo":3881,"Ġrobado":3882,"ĠVi":3883,"ĠVoy":3884,"Ġempren":3885,"ĠseÃ±orita":3886,"Ġantesala":3887,"Ġlevantar":3888,"Ġdeben":3889,"iÃ©ndo":3890,"Ġpone":3891,"ĠLudvigo":3892,"ĠNada":3893,"Ġpropia":3894,"Ġocurre":3895,"Ġterc":3896,"Ġconfesar":3897,"Ġrisa":3898,"Ġsilenciosamente":3899,"ĠEstos":3900,"Ġapresur":3901,"Ġsacu":3902,"Ġcontenerse":3903,"Ġbolsa":3904,"Ġbolsillos":3905,"ĠinmÃ³vil":3906,"ĠcontinuÃ³":3907,"Ġpersonaje":3908,"Ġgusta":3909,"Ġtranquila":3910,"ĠsueÃ±os":3911,"Ġmostr":3912,"ĠMitrey":3913,"Ġexperimentado":3914,"Ġrecobrado":3915,"Ġabierto":3916,"Ġmonstru":3917,"ĠdeclaraciÃ³n":3918,"Ġlentamente":3919,"Ġobservar":3920,"ĠdormÃŃa":3921,"Ġtirar":3922,"ĠtirÃ³":3923,"Ġconozco":3924,"ĠdespertÃ³":3925,"Ġpreocupado":3926,"ĠreconociÃ³":3927,"Ġpropie":3928,"Ġdesgraciada":3929,"Ġobligado":3930,"Â«Â¡":3931,"Ġestablecimiento":3932,"Ġsecreto":3933,"Ġrecursos":3934,"ĠestrechÃ³":3935,"Ġindividuo":3936,"Ġambos":3937,"Ġusurera":3938,"Ġentierro":3939,"ĠlogrÃ³":3940,"Ġmiserable":3941,"Ġproyecto":3942,"ĠhuÃ©rf":3943,"Ã¡rselo":3944,"Ġaumen":3945,"Ġencantado":3946,"Ġsupiese":3947,"Ġoriginal":3948,"ĠoÃŃdos":3949,"ĠestremeciÃ³":3950,"Ġhierro":3951,"Ġhumanidad":3952,"Ġatropel":3953,"Ġalojamiento":3954,"Ġejecu":3955,"ĠcÃ¡rcel":3956,"Ġperspectiva":3957,"ĠLudvigovna":3958,");":3959,"Catalina":3960,"Deb":3961,"Este":3962,"Pedro":3963,"cada":3964,"dec":3965,"darse":3966,"garse":3967,"hka":3968,"mÃ³":3969,"ron":3970,"rarse":3971,"vel":3972,"veza":3973,"vÃ©s":3974,"zoso":3975,"Ġora":3976,"Ġza":3977,"Ġeter":3978,"Ġdob":3979,"Ġsar":3980,"Ġsiendo":3981,"Ġdeje":3982,"Ġclase":3983,"aria":3984,"aridad":3985,"ÃŃe":3986,"ÃŃda":3987,"Ġener":3988,"Ġenam":3989,"Ġnum":3990,"Ġnudo":3991,"esor":3992,"esÃºs":3993,"Ã©j":3994,"Ġsemb":3995,"Ġves":3996,"Ã¡cil":3997,"Ġsuma":3998,"ĠsubiÃ³":3999,"amento":4000,"Ġhaga":4001,"Ġbos":4002,"Ġbro":4003,"ĠfÃ¡cil":4004,"Ġrest":4005,"Ġredu":4006,"ĠleÃŃa":4007,"ĠleÃŃdo":4008,"tidad":4009,"timiento":4010,"Ġhabita":4011,"Ġina":4012,"ĠcuÃ¡n":4013,"Ã±Ã³":4014,"Ġdign":4015,"ĠRes":4016,"emen":4017,"Ġdesn":4018,"Ġpueb":4019,"Ġextran":4020,"Ġgar":4021,"cados":4022,"ĠDu":4023,"ĠLuego":4024,"Ġcasas":4025,"terio":4026,"umn":4027,"Ġpersegu":4028,"quete":4029,"vocifer":4030,"tencia":4031,"Ġandaba":4032,"ĠverÃ¡":4033,"ĠCh":4034,"Ġasiento":4035,"Ġjuego":4036,"Ġjard":4037,"ierta":4038,"Ġservir":4039,"Ġobten":4040,"Ġcapa":4041,"Ġpenosa":4042,"Ġpausa":4043,"osiciones":4044,"Ġdecidido":4045,"Ġimper":4046,"ĠsensaciÃ³n":4047,"ĠTra":4048,"ĠtravÃ©s":4049,"ĠprÃ¡c":4050,"Ġrepito":4051,"Ġesclar":4052,"Ġarma":4053,"Ġirres":4054,"Ġocupa":4055,"Ġcalumn":4056,"Ġhacerle":4057,"Ġpresa":4058,"Ġcorrespon":4059,"Ġmedias":4060,"acer":4061,"Porfirio":4062,"Ġcerra":4063,"Ġpreguntado":4064,"Ġestuche":4065,"ĠVerdad":4066,"Ġnuevas":4067,"Ġpeda":4068,"Ġverdaderamente":4069,"ĠlevantÃ¡ndose":4070,"Ġcuarenta":4071,"Quiere":4072,"Ġfueron":4073,"Ġponerse":4074,"ĠalejÃ³":4075,"ĠNi":4076,"Ġsupli":4077,"ĠllamÃ³":4078,"Ġencontraban":4079,"Ġpolvo":4080,"Ġinfan":4081,"ĠreciÃ©n":4082,"Ġcantidad":4083,"Ġbrutal":4084,"Ġanteayer":4085,"Ġbusca":4086,"Ġfasti":4087,"Ġbotas":4088,"Ġclara":4089,"Ġclaramente":4090,"Ġcriminal":4091,"Hay":4092,"ĠcontenÃŃa":4093,"Ġprincipalmente":4094,"Ġsospech":4095,"ĠAntes":4096,"ĠTodos":4097,"Ġadvertido":4098,"ĠQui":4099,"Ġfranque":4100,"Ġinsol":4101,"Ġpermitido":4102,"Ġacordaba":4103,"Ġbarba":4104,"Ġpiensa":4105,"Ġcaball":4106,"Ġmarcharse":4107,"Ġextraordinario":4108,"Ġtestigos":4109,"Ġpreocupaba":4110,"ĠÃºnico":4111,"ĠÃºnica":4112,"Ġdesprecia":4113,"Ġdistingu":4114,"TenÃŃa":4115,"Ġdefini":4116,"Ġdestino":4117,"Ġtrabajar":4118,"ĠÃ¡nimo":4119,"Ġtapi":4120,"Ġnoticia":4121,"ĠtÃŃmidamente":4122,"Ġdeshon":4123,"ĠAquella":4124,"ĠbesÃ³":4125,"Ġayudante":4126,"Ġresultado":4127,"Ġerror":4128,"Ġsoportar":4129,"Ġcomprome":4130,"Ġcobarde":4131,"Ġchaleco":4132,"ĠsonreÃŃr":4133,"ĠNeva":4134,"ĠtÃ©rminos":4135,"Ġalhajas":4136,"Ġdesign":4137,"ĠpuÃ±eta":4138,"Ġproporcion":4139,"Ġatropellado":4140,"Ad":4141,"AquÃŃ":4142,"Ese":4143,"Per":4144,"SerÃ¡":4145,"Ve":4146,"adie":4147,"be":4148,"brÃŃa":4149,"brada":4150,"cal":4151,"ger":4152,"gel":4153,"gase":4154,"ira":4155,"ivi":4156,"jaba":4157,"kin":4158,"mil":4159,"mana":4160,"pu":4161,"pÃ¡":4162,"rera":4163,"tri":4164,"tÃ¡n":4165,"tÃ©s":4166,"vaba":4167,"yos":4168,"Ġu":4169,"Ġdud":4170,"ĠdÃŃgame":4171,"Ġaj":4172,"Ġat":4173,"ĠaÃ±adiÃ³":4174,"Ġador":4175,"Ġses":4176,"Ġdedo":4177,"Ġlin":4178,"Ġplan":4179,"queza":4180,"stu":4181,"ÃŃos":4182,"oriz":4183,"Ġqueda":4184,"cible":4185,"ciÃ©ndose":4186,"Ġlav":4187,"Ġvoso":4188,"Ġsuje":4189,"Ġnotar":4190,"tadas":4191,"ole":4192,"Ġoje":4193,"dieron":4194,"dilla":4195,"Ġben":4196,"Ġbor":4197,"Ġmitad":4198,"Ġalco":4199,"Ġaltan":4200,"Ġalivi":4201,"ĠhabÃŃas":4202,"Ġinca":4203,"viÃ©ndose":4204,"Ġcuch":4205,"ĠSÃ³lo":4206,"ĠPest":4207,"ĠPuede":4208,"Ġdesvan":4209,"Ġdesarro":4210,"ĠsiÃ©n":4211,"laciÃ³n":4212,"lace":4213,"Ġilu":4214,"Ġmur":4215,"Ġmuerta":4216,"ezas":4217,"cadio":4218,"ĠtenÃŃas":4219,"Ġpobres":4220,"Ġactu":4221,"irando":4222,"ĠperiÃ³":4223,"Ġprovo":4224,"Ġmismos":4225,"Ġansi":4226,"Ġandar":4227,"ĠMu":4228,"Ġespec":4229,"Ġpatio":4230,"Ġimpru":4231,"Ġcarro":4232,"Ġreposo":4233,"ĠHubi":4234,"Ġtomando":4235,"Ġsoldado":4236,"Ġpisos":4237,"Ġmental":4238,"Ġruego":4239,"ĠcallÃ³":4240,"Ġpreso":4241,"Ġpresentes":4242,"Ġcrea":4243,"ĠvolvÃŃa":4244,"ebro":4245,"ĠcerrÃ³":4246,"gne":4247,"Ġestupor":4248,"ĠVe":4249,"Ġnueve":4250,"Ġlevantando":4251,"ĠÃºtil":4252,"Ġvea":4253,"ĠdeberÃŃa":4254,"Ġesperando":4255,"Ġprimeros":4256,"Ġbuenas":4257,"Ġenfermi":4258,"Ġllevado":4259,"ĠNatura":4260,"Ġlucha":4261,"Ġgus":4262,"Ġmarcha":4263,"Ġpropios":4264,"Ġllamado":4265,"Ġdeseaba":4266,"Ġocurrir":4267,"Ġtranquil":4268,"Ġinfam":4269,"Ġcigar":4270,"ĠgritÃ³":4271,"Ġdiscul":4272,"Ġplaza":4273,"Ġhumana":4274,"Ġconvencer":4275,"ĠBueno":4276,"Ġvueltas":4277,"Ġreconozco":4278,"Ġcomenz":4279,"Ġcomenzaba":4280,"Ġvolverse":4281,"Ġoficio":4282,"Ġcambiar":4283,"Ġdesconcer":4284,"Ġofen":4285,"tillas":4286,"ĠtÃŃsica":4287,"ĠmostrÃ³":4288,"dÃ³neme":4289,"Ġinvitado":4290,"ĠinvitaciÃ³n":4291,"sistiÃ³":4292,"Ġofrecer":4293,"Ġocupado":4294,"Ġcontemplar":4295,"CuÃ¡nto":4296,"Ġatraves":4297,"Ġextrem":4298,"ĠpermanecÃŃa":4299,"Ġproceder":4300,"turas":4301,"Ġblanca":4302,"riakoff":4303,"Ġdvorniks":4304,"Ġtestigo":4305,"Ġbebida":4306,"drÃ¡s":4307,"ĠÃºnicamente":4308,"Ġprobablemente":4309,"Tengo":4310,"Ġasustada":4311,"Ġretirarse":4312,"Ġcomisario":4313,"Ġacostum":4314,"Ġplante":4315,"ÃŃsimo":4316,"Ġdiversos":4317,"Ġapresuradamente":4318,"Ġindividuos":4319,"Ġatormen":4320,"Ġprofunda":4321,"Ã©rica":4322,"ĠexaltaciÃ³n":4323,"Ġexplicaciones":4324,"Ġasistir":4325,"Ġlarga":4326,"Ġcondenado":4327,"Ġamenaz":4328,"ĠrompiÃ³":4329,"Ġmateri":4330,"Ġinsignificante":4331,"Ġmujik":4332,"ĠArcadio":4333,"ĠteorÃŃa":4334,"monos":4335,"tshka":4336,"Ġenamor":4337,"ĠjardÃŃn":4338,"ĠPestriakoff":4339,"Ex":4340,"Has":4341,"In":4342,"Las":4343,"Tom":4344,"acio":4345,"bol":4346,"beria":4347,"ctu":4348,"carse":4349,"eff":4350,"fera":4351,"id":4352,"iese":4353,"ky":4354,"mado":4355,"ppe":4356,"plic":4357,"sal":4358,"ua":4359,"ub":4360,"usiÃ³n":4361,"ubo":4362,"vada":4363,"zan":4364,"Ġdo":4365,"Ġaus":4366,"Ġauda":4367,"Ġatribu":4368,"Ġagradable":4369,"Ġacog":4370,"ĠlÃŃn":4371,"Ġllena":4372,"Ġpesa":4373,"Ġpeso":4374,"Ġciento":4375,"ĠmÃº":4376,"dora":4377,"Ġhara":4378,"ĠharÃ¡":4379,"ĠharÃ©":4380,"ĠtÃŃo":4381,"Ġquebran":4382,"cito":4383,"esiÃ³n":4384,"date":4385,"Ã¡les":4386,"ĠcontÃ³":4387,"Ġconced":4388,"ale":4389,"roqui":4390,"Ġodio":4391,"difi":4392,"Ġhachaz":4393,"Ġbrib":4394,"Ġfil":4395,"Ġfac":4396,"ĠfÃŃsi":4397,"Ġfirme":4398,"Ġresi":4399,"Ġmirado":4400,"Ġlec":4401,"ĠallÃ¡":4402,"Ġalrede":4403,"tidos":4404,"Ġinvest":4405,"Ġlocura":4406,"Ġcur":4407,"Ġpartir":4408,"Ġparroqui":4409,"Ġdientes":4410,"ĠcomÃºn":4411,"iaciÃ³n":4412,"cuencia":4413,"Ġsigu":4414,"lada":4415,"Ġmeter":4416,"gual":4417,"guez":4418,"ĠApenas":4419,"Ġvicio":4420,"Ġpura":4421,"erada":4422,"sivo":4423,"sivamente":4424,"Ġgalo":4425,"Ġhecha":4426,"ĠDeb":4427,"mpa":4428,"Ġsincer":4429,"tarte":4430,"Ġprevi":4431,"turo":4432,"Ġsopa":4433,"ĠCierto":4434,"Ġjunto":4435,"miÃ³":4436,"saciones":4437,"Ġseriamente":4438,"Ġdesped":4439,"Ġvender":4440,"Ġbast":4441,"ĠcaÃŃdo":4442,"Ġhuir":4443,"Ġmozo":4444,"Ġmotivos":4445,"Ġmobili":4446,"jadas":4447,"uedo":4448,"Ġhombros":4449,"ĠEntre":4450,"ĠtraÃŃdo":4451,"Ġtratando":4452,"Ġfuturo":4453,"Ġprom":4454,"Ġmoment":4455,"Ġseguido":4456,"Ġron":4457,"Ġrab":4458,"Ġadqui":4459,"ĠsolÃŃa":4460,"ĠpidiÃ³":4461,"Ġirre":4462,"ĠirÃ¡":4463,"Ġirme":4464,"uestra":4465,"ĠElla":4466,"pefac":4467,"carle":4468,"Ġcalma":4469,"Ġtemp":4470,"Ġcomprendiendo":4471,"ismo":4472,"Ġcerveza":4473,"Ġcerebro":4474,"ĠpodrÃ¡":4475,"para":4476,"ĠextraÃ±as":4477,"Ġrayo":4478,"Ġesperado":4479,"Ġformal":4480,"Entonces":4481,"Qui":4482,"ĠAllÃŃ":4483,"Ġnuestras":4484,"Ġruboriz":4485,"Ã¡ndome":4486,"ĠridÃŃ":4487,"Ġsomos":4488,"Ġbota":4489,"Ġdispuesto":4490,"ĠdisposiciÃ³n":4491,"Ġfijaba":4492,"Ġclaridad":4493,"Ġrecor":4494,"ĠKolia":4495,"Hace":4496,"Ġoprim":4497,"Ġpartida":4498,"Ġahor":4499,"Ġvestida":4500,"Ã³lver":4501,"Ġestudios":4502,"ĠguardÃ³":4503,"Ġhorror":4504,"Ġsospecha":4505,"stico":4506,"Ġapoyo":4507,"Ġviolen":4508,"Ġviolencia":4509,"Ġsegundos":4510,"Ġirritado":4511,"ĠtÃŃtu":4512,"ĠengaÃ±a":4513,"Ġmostraba":4514,"Ġimaginar":4515,"ĠexperimentÃ³":4516,"Ġdescubierto":4517,"Ġllegaron":4518,"Ġregal":4519,"Ġborrachos":4520,"Ġpaseaba":4521,"ĠofrecÃŃa":4522,"Ġcuad":4523,"apole":4524,"Ġconsol":4525,"ĠexaminÃ³":4526,"ĠacompaÃ±ado":4527,"ĠreflexionÃ³":4528,"Ġproducido":4529,"Ġrecuer":4530,"Ġextraordinaria":4531,"ĠseÃ±alando":4532,"ĠPolenka":4533,"Ġreconocido":4534,"ĠrevÃ³lver":4535,"Ġcesaba":4536,"ĠJesÃºs":4537,"Ġsatisfe":4538,"ĠcompaÃ±eros":4539,"Ġdiversas":4540,"Ġagitado":4541,"Ġligero":4542,"Ġevidentemente":4543,"Ġsostener":4544,"Bah":4545,"Basta":4546,"Ġcomuni":4547,"Ġcomunic":4548,"Ġposee":4549,"Ġadmitir":4550,"vechzel":4551,"Ġdolorosa":4552,"Ġgravedad":4553,"Ġdemostrar":4554,"Ġsuminist":4555,"Ġbeber":4556,"Ġespantos":4557,"Ġimpedir":4558,"Ġvacilar":4559,"Ã¡bamos":4560,"Ġcorredizo":4561,"Ġexclamaciones":4562,"Ġorgullo":4563,"Ġtristeza":4564,"Ġdesempe":4565,"Ġsuperior":4566,"Ġreconocer":4567,"izaciÃ³n":4568,"ĠLippe":4569,"Ġcategor":4570,"Ġbotella":4571,"Ġarrebato":4572,"ĠademÃ¡n":4573,"Ġpresidio":4574,"Ġaguardiente":4575,"Ġhambre":4576,"Ġespalda":4577,"ĠhuÃ©rfanos":4578,"ĠenergÃŃa":4579,"Ġrestable":4580,"Ġpueblo":4581,"Ġgusano":4582,"Ġfacciones":4583,"Ġmobiliario":4584,"apoleÃ³n":4585,"ĠLippevechzel":4586,"Anastasia":4587,"Aunque":4588,"Son":4589,"cto":4590,"dme":4591,"ega":4592,"fre":4593,"gren":4594,"gist":4595,"iciÃ³n":4596,"itado":4597,"ices":4598,"jar":4599,"mor":4600,"mÃ©rica":4601,"ple":4602,"pado":4603,"sfera":4604,"tka":4605,"tantes":4606,"tÃ¡neamente":4607,"ura":4608,"uciones":4609,"yas":4610,"zÃ¡ndose":4611,"Ġ*":4612,"Ġ3":4613,"Ġdaban":4614,"Ġafe":4615,"Ġastu":4616,"Ġpaz":4617,"Ġposi":4618,"Ġpelo":4619,"Ġcli":4620,"ertos":4621,"erno":4622,"enos":4623,"encias":4624,"arra":4625,"arnos":4626,"repe":4627,"ines":4628,"inarse":4629,"Ġensa":4630,"Ġensan":4631,"Ġladr":4632,"Ġnec":4633,"Ġseco":4634,"Ġsemana":4635,"Ġconje":4636,"Ġconstante":4637,"Ġsudor":4638,"Ġsuav":4639,"todo":4640,"rist":4641,"risto":4642,"lectu":4643,"dica":4644,"ampa":4645,"Ġfur":4646,"Ġreca":4647,"Ġreclam":4648,"Ġremed":4649,"ĠlecciÃ³n":4650,"Ġintro":4651,"Ġinva":4652,"Ġinex":4653,"Ġcubi":4654,"Ġparecido":4655,"Ã±aba":4656,"ĠPermÃŃtame":4657,"ĠEsp":4658,"ĠirÃŃa":4659,"Ġiban":4660,"guÃ©":4661,"Ġpuesta":4662,"Ġgrado":4663,"Ġgesto":4664,"estos":4665,"lich":4666,"ligi":4667,"ĠDos":4668,"ĠDes":4669,"Ġcasos":4670,"Ġacar":4671,"umbre":4672,"Ġpere":4673,"Ġpreju":4674,"ĠhacÃŃan":4675,"Ġproceso":4676,"Ġprohi":4677,"Ġano":4678,"Ġanunci":4679,"gados":4680,"ĠCre":4681,"ĠClaro":4682,"Ġasal":4683,"Ġmagist":4684,"Ġcompla":4685,"Ġcomprar":4686,"Ġespero":4687,"Ġespacio":4688,"Ġapos":4689,"verdad":4690,"Ġmoda":4691,"Ġmover":4692,"Ġentera":4693,"ĠdecidiÃ³":4694,"Ġlleva":4695,"Ġimprovi":4696,"Ġcarac":4697,"Ġcarrera":4698,"Ġestatura":4699,"Ġtraer":4700,"Ġtratado":4701,"Ġdecirme":4702,"ĠfuÃŃ":4703,"Ġcabello":4704,"Ġseguridad":4705,"Ġseguramente":4706,"ĠHas":4707,"ĠquitÃ³":4708,"ĠmirÃ¡ndole":4709,"pados":4710,"Ġocupar":4711,"carme":4712,"Ġcallar":4713,"ĠcorrÃŃa":4714,"Ġcortes":4715,"Ġcrey":4716,"pito":4717,"udado":4718,"jeros":4719,"Ġrojo":4720,"Ġrobar":4721,"Ġpregunte":4722,"Ġmaldi":4723,"Ġmalici":4724,"Ġestuvi":4725,"Ġestupefac":4726,"Ġfijos":4727,"Ġempu":4728,"Ġtonto":4729,"Ġcofre":4730,"Ġhablaban":4731,"cerÃŃa":4732,"tirse":4733,"ĠponiÃ©ndose":4734,"ĠAlgun":4735,"ĠSiberia":4736,"ĠNapoleÃ³n":4737,"istas":4738,"Ġdesea":4739,"icios":4740,"Ġtransp":4741,"Ġinquieto":4742,"Ġacusado":4743,"Ġrecibir":4744,"Ġcantar":4745,"Ġcharla":4746,"Ġconfun":4747,"Ġinstantes":4748,"ĠfaltÃ³":4749,"Ġbuscado":4750,"Ġapartar":4751,"Ġapariencias":4752,"Ġfacultades":4753,"ĠEstado":4754,"Ġmorb":4755,"Ġmorir":4756,"erdote":4757,"Ġdiscu":4758,"Ġdispu":4759,"Ġdispon":4760,"Ġdispuso":4761,"Ġhumil":4762,"Ġpobreza":4763,"Ġbajando":4764,"Ġcomenzar":4765,"ĠvolverÃ©":4766,"ĠFuÃ©":4767,"Ġinmen":4768,"ĠcambiÃ³":4769,"Ġprincipios":4770,"cuencias":4771,"Ġestrecha":4772,"Ġintelectu":4773,"ĠlÃ¡ti":4774,"stica":4775,"Ġcontest":4776,"Ġfamili":4777,"Ġcuriosos":4778,"Ġgrueso":4779,"Ġsacerdote":4780,"Ġfranco":4781,"Ġfranqueza":4782,"Ġviolenta":4783,"Ġtabique":4784,"Ġirritada":4785,"ĠreflexiÃ³n":4786,"Ġacome":4787,"ĠMitka":4788,"Ġatrever":4789,"Ġninguno":4790,"sistencia":4791,"Ġasegurar":4792,"Ġprestado":4793,"Ġatrav":4794,"Ġempleo":4795,"Ġdormido":4796,"Ġpermanecer":4797,"Ġinterrumpir":4798,"Ġconfesiones":4799,"Ġdespertar":4800,"ĠcausÃ³":4801,"!Â»--":4802,"drÃ¡n":4803,"Ġpintor":4804,"Ġconsecuencias":4805,"Ġdesprecio":4806,"Ġbilletes":4807,"Ġadivinaba":4808,"Ġcesado":4809,"ĠretirÃ³":4810,"ĠJamÃ¡s":4811,"Ġllaves":4812,"Ġexplicarse":4813,"Ġcadena":4814,"Ġligeramente":4815,"Ġexacta":4816,"Ġcolore":4817,"Ġarreglar":4818,"Ġrespetable":4819,"Ġnervios":4820,"Ġrecordar":4821,"Ġprocurando":4822,"Ġcejas":4823,"imaciÃ³n":4824,"Ġambas":4825,"Ġpreocupaciones":4826,"000":4827,"Ġtrop":4828,"Ġproyec":4829,"ĠpagarÃ©":4830,"***.":4831,"Ġabrigo":4832,"Ġcampesino":4833,"ĠfrunciÃ³":4834,"Ġdenunciarse":4835,"Ġdulce":4836,"Ġrehus":4837,"Ġindepen":4838,"ĠestÃºpida":4839,"Ġordinario":4840,"Ġcontigo":4841,"Ġsuelen":4842,"Ġcarcajada":4843,"ĠprÃ³x":4844,"Ġinjurias":4845,"Ġembriaguez":4846,"Ġsofocante":4847,"Ġabsolutamente":4848,"Ġquisiera":4849,"ĠÃŃnti":4850,"Ġdeposi":4851,"Ġexasper":4852,"Ġmaquinalmente":4853,"Ġsacudir":4854,"mÃ³sfera":4855,"Ġsemblante":4856,"Ġhabitaciones":4857,"ĠReslich":4858,"Ġextranjero":4859,"vociferÃ³":4860,"ĠChampa":4861,"Ġpedazo":4862,"Ġinfantil":4863,"Ġfastidi":4864,"Ġcaballero":4865,"ĠatmÃ³sfera":4866,"Ġalcoba":4867,"ĠsiÃ©ntese":4868,"Ġmurmur":4869,"Ġextremadamente":4870,"Ġlectura":4871,"Ġviolentamente":4872,"repetÃŃa":4873,"Ġensangren":4874,"Ġnecedad":4875,"Ġsuavemente":4876,"Ġremedio":4877,"Ġcaracter":4878,"ĠChampagne":4879,"DÃ©j":4880,"Estas":4881,"Hum":4882,"Ja":4883,"Mar":4884,"MÃ¡s":4885,"Otra":4886,"Re":4887,"Soy":4888,"VÃ¡":4889,"atÃŃa":4890,"caban":4891,"cÃŃan":4892,"dÃ©":4893,"dero":4894,"dÃ³nde":4895,"gente":4896,"gio":4897,"he":4898,"henka":4899,"igu":4900,"ista":4901,"itas":4902,"jÃ³n":4903,"mes":4904,"ogÃŃa":4905,"ovia":4906,"paz":4907,"rask":4908,"sky":4909,"uisa":4910,"vÃŃ":4911,"vora":4912,"Ġz":4913,"Ġul":4914,"Ġejer":4915,"ĠdurÃ³":4916,"Ġagra":4917,"Ġdepar":4918,"Ġpuntos":4919,"entas":4920,"arÃ¡s":4921,"asiÃ³n":4922,"anzas":4923,"ÃŃti":4924,"remos":4925,"ĠhÃ©":4926,"ĠhÃ¡":4927,"Ġtela":4928,"inte":4929,"inando":4930,"inamente":4931,"ĠenÃ©r":4932,"Ġencen":4933,"cita":4934,"cili":4935,"citos":4936,"ciadamente":4937,"tel":4938,"Ġvano":4939,"Ġviento":4940,"davÃŃa":4941,"Ġcontaba":4942,"Ġconserva":4943,"alquiera":4944,"Ġsur":4945,"Ġnobles":4946,"riendo":4947,"tate":4948,"ĠestarÃŃa":4949,"Ġopor":4950,"amo":4951,"Ġbre":4952,"Ġfras":4953,"ĠreÃŃa":4954,"Ġresto":4955,"Ġrealidad":4956,"tible":4957,"tiles":4958,"ĠhabÃŃase":4959,"Ġinoc":4960,"Ġinesp":4961,"Ġcuento":4962,"Ġcubierto":4963,"ĠRec":4964,"ĠPuesto":4965,"emn":4966,"Ġdescen":4967,"cuche":4968,"lados":4969,"Ġigual":4970,"bio":4971,"ecen":4972,"ĠAmÃ©rica":4973,"Ġpul":4974,"deza":4975,"Ġdelito":4976,"Ġdeliraba":4977,"Ġexceso":4978,"Ġgem":4979,"ĠLuisa":4980,"Ġsinc":4981,"ĠtendiÃ³":4982,"Ġtendido":4983,"ĠtendrÃ©":4984,"ĠÃ©x":4985,"Ġsuspi":4986,"Ġprotest":4987,"Ġsocor":4988,"Ġanci":4989,"Ġverte":4990,"Ġverse":4991,"pocon":4992,"ĠcompasiÃ³n":4993,"mida":4994,"Ġseria":4995,"ĠMientras":4996,"Ġespe":4997,"Ġespon":4998,"Ġape":4999,"sped":5000,"Ġobra":5001,"Ġtira":5002,"Ġvengo":5003,"Ġpasaba":5004,"Ġcasti":5005,"Ġpension":5006,"Ġpago":5007,"Ġpaquete":5008,"Ġsalida":5009,"Ġhombro":5010,"Ġcarita":5011,"ĠTu":5012,"Ġexpon":5013,"Ġhipocon":5014,"Ġsabiendo":5015,"ĠmÃŃos":5016,"Ġtradu":5017,"Ġpros":5018,"cesos":5019,"Ġarra":5020,"Ġarru":5021,"videncia":5022,"Ġsonido":5023,"Ġadvierto":5024,"Ġmirarle":5025,"Ġencontra":5026,"Ġhacerse":5027,"imÃ³n":5028,"Ġpresenta":5029,"Ġcortado":5030,"ĠcorriÃ³":5031,"Ġcorral":5032,"ĠcortÃ©s":5033,"ĠentregÃ³":5034,"Ġentrecor":5035,"ĠvolviÃ©ndose":5036,"Ġdejarle":5037,"Ġhayas":5038,"Ġcerrado":5039,"ocado":5040,"Ġrespiraba":5041,"braba":5042,"ĠVol":5043,"ĠVea":5044,"Ġpegado":5045,"uela":5046,"cillo":5047,"Ġcampo":5048,"Ġempero":5049,"Ġempresa":5050,"toria":5051,"Ġdirigido":5052,"Ġdirigir":5053,"Ġquerer":5054,"Ġamaba":5055,"Ġamable":5056,"Ġdemas":5057,"Ġcole":5058,"Ġcolmo":5059,"Ġacababan":5060,"ĠÃºltimas":5061,"ĠhablÃ³":5062,"Ġprecip":5063,"ĠdarÃ©":5064,"izar":5065,"istible":5066,"Ġtarta":5067,"ĠtardÃ³":5068,"Ġllame":5069,"Ġllamaba":5070,"Ġencontrarse":5071,"Ġquienes":5072,"Ġtercer":5073,"Ġrico":5074,"grita":5075,"Ġsilencioso":5076,"Ġfaltado":5077,"Ġsorti":5078,"curso":5079,"Ġolor":5080,"Siempre":5081,"Ġmortal":5082,"Ġburla":5083,"Ġgritar":5084,"Ġexplico":5085,"Ġfijar":5086,"Ġescucha":5087,"Ġrecomen":5088,"Ġvuelva":5089,"ĠFinalmente":5090,"Ã³lvora":5091,"Ġencontraron":5092,"Ġexperiencia":5093,"Ġoculto":5094,"Ġocultado":5095,"Ġdetener":5096,"Ġdadas":5097,"Ġpresentado":5098,"Ġsospechar":5099,"stitu":5100,"ĠengaÃ±o":5101,"ĠConfi":5102,"Ġescribi":5103,"Ġinvitados":5104,"Ġagita":5105,"ĠatrevÃŃa":5106,"Ġatrevido":5107,"Ġbuenos":5108,"Ġconfieso":5109,"Ġparticularmente":5110,"Ġconsen":5111,"Ġconsum":5112,"ĠexistÃŃa":5113,"Ġcontemplaba":5114,"Ġabsor":5115,"CuÃ¡l":5116,"ĠsubÃŃa":5117,"Ġcostumbres":5118,"Ġfunda":5119,"Ġpedido":5120,"Ġtestim":5121,"Ġamarga":5122,"Ġciencia":5123,"Ġentendido":5124,"Ġprepara":5125,"Ġadivinar":5126,"Ġvarios":5127,"Ġdefen":5128,"ĠParece":5129,"Ġobrero":5130,"Ġinquilino":5131,"Ġexplicado":5132,"Ġagitaba":5133,"Ġcapri":5134,"Ġexactitud":5135,"Ġanimal":5136,"Ġadelan":5137,"Ġrespeto":5138,"ĠsÃºbita":5139,"Ġnervioso":5140,"Ġpensativa":5141,"ĠcolocÃ³":5142,"Ġconviene":5143,"Ġpudiera":5144,"cepto":5145,"Ġreparar":5146,"Ġrazones":5147,"Ġnegros":5148,"balbuciÃ³":5149,"ĠburlÃ³n":5150,"Ġburlona":5151,"ĠasombrÃ³":5152,"Ġatorm":5153,"ĠhabrÃŃan":5154,"Ġprofundamente":5155,"Ġodioso":5156,"***,":5157,"ĠproponÃŃa":5158,"Ġrepentinamente":5159,"ĠpsicolÃ³gi":5160,"Ġconservaba":5161,"ĠPoco":5162,"ĠincorporÃ³":5163,"Ġimpulsado":5164,"Ġorgullos":5165,"ĠComprendo":5166,"Ġdespecho":5167,"Ġacuerda":5168,"ĠestÃºpido":5169,"Ġcuidados":5170,"ĠSonetchka":5171,"ĠPashenka":5172,"ĠSentÃŃa":5173,"Ġtrastornado":5174,"Ġindiferente":5175,"stroff":5176,"ĠvacÃŃo":5177,"ĠobstÃ¡culos":5178,"Parece":5179,"ĠÃ¡rbol":5180,"ĠdueÃ±o":5181,"Ġenemigo":5182,"Ġprovin":5183,"Ġescribe":5184,"ĠconsideraciÃ³n":5185,"Ġazul":5186,"Ġsevera":5187,"Ġdelicado":5188,"Ġemprender":5189,"Ġtercera":5190,"Ġirresistible":5191,"Ġdefinitivamente":5192,"ĠtapicerÃŃa":5193,"Ġincapaz":5194,"Ġcuchara":5195,"ĠperiÃ³dicos":5196,"Ġaudacia":5197,"ĠmomentÃ¡neamente":5198,"Ġsatisfecho":5199,"Ġastucia":5200,"Ġcliente":5201,"Ġintrodu":5202,"Ġpereulo":5203,"Ġatravesar":5204,"raskovia":5205,"ĠhipocondrÃŃa":5206,"!,":5207,"Amalia":5208,"AdiÃ³s":5209,"AsÃŃ":5210,"Apenas":5211,"Di":5212,"Dos":5213,"Esp":5214,"FuÃ©":5215,"Iba":5216,"Ma":5217,"Mientes":5218,"Pulkeria":5219,"TambiÃ©n":5220,"Ven":5221,"ag":5222,"avi":5223,"ber":5224,"cÃŃ":5225,"cinco":5226,"dres":5227,"dÃŃan":5228,"eas":5229,"etshka":5230,"flex":5231,"har":5232,"ib":5233,"ilo":5234,"iest":5235,"jor":5236,"jÃŃa":5237,"kal":5238,"ll":5239,"lle":5240,"lmente":5241,"mentos":5242,"nimo":5243,"nit":5244,"og":5245,"ptura":5246,"selo":5247,"tÃ©n":5248,"tora":5249,"udas":5250,"vienta":5251,"xto":5252,"zin":5253,"Â¿":5254,"Ġecha":5255,"Ġedifi":5256,"Ġdan":5257,"Ġais":5258,"Ġabajo":5259,"Ġdejo":5260,"Ġdetu":5261,"Ġdeuda":5262,"Ġdevol":5263,"ĠcÃ¡n":5264,"Ġcemen":5265,"eraba":5266,"erosa":5267,"osÃŃ":5268,"Ġmente":5269,"arlos":5270,"arnit":5271,"stado":5272,"anÃŃa":5273,"reza":5274,"ĠhÃº":5275,"Ġhil":5276,"Ġtren":5277,"Ġtorm":5278,"inete":5279,"inadamente":5280,"intiendo":5281,"Ġencu":5282,"Ġentu":5283,"Ġenorme":5284,"ciosa":5285,"esos":5286,"Ġvel":5287,"rate":5288,"racias":5289,"Ã¡is":5290,"Ġconci":5291,"all":5292,"alab":5293,"edas":5294,"Ġescon":5295,"rillo":5296,"chi":5297,"roe":5298,"Ġestim":5299,"Ġestamos":5300,"ĠestrÃ©":5301,"Ġojo":5302,"dice":5303,"didamente":5304,"adores":5305,"Ġbr":5306,"Ġfen":5307,"Ġfatal":5308,"Ġreo":5309,"Ġrean":5310,"Ġmiem":5311,"Ġlej":5312,"ĠhabÃ©is":5313,"Ġino":5314,"Ġinfer":5315,"Ġininte":5316,"ienen":5317,"ĠcuÃ¡ndo":5318,"ĠcuÃ¡l":5319,"Ġcuentas":5320,"elle":5321,"ĠSab":5322,"ĠSol":5323,"ĠSimÃ³n":5324,"Ġdic":5325,"Ġdivi":5326,"Ġdieron":5327,"ĠdiciÃ©ndo":5328,"ĠRus":5329,"Ġcomien":5330,"Ġcomido":5331,"Ġsiga":5332,"...!":5333,"ĠEran":5334,"ĠEsa":5335,"Ġmueb":5336,"ĠmuriÃ³":5337,"seun":5338,"Ġpub":5339,"Ġpupi":5340,"ĠpuÃ±os":5341,"eraciÃ³n":5342,"dest":5343,"Ġdelirando":5344,"Ġexh":5345,"Ġexterior":5346,"Ġexclu":5347,"ezÃ³":5348,"estar":5349,"ĠDel":5350,"ĠLena":5351,"Ġsiniest":5352,"Ġacto":5353,"Ġactos":5354,"Ġactitud":5355,"umen":5356,"irar":5357,"Ġperju":5358,"Ġpredi":5359,"ĠÃ©po":5360,"Ã¡nda":5361,"Ġsuspen":5362,"Ġproferir":5363,"Ġmagn":5364,"Ġjur":5365,"Ġjud":5366,"tchkin":5367,"Ġesposo":5368,"Ġapla":5369,"Ġtecho":5370,"Ġoblig":5371,"Ġbajos":5372,"ĠcajÃ³n":5373,"Ġtantas":5374,"Ġmozos":5375,"Ġpenoso":5376,"ĠpapÃ¡":5377,"Ġsalva":5378,"idamente":5379,"Ġlleve":5380,"Ġsensible":5381,"Ġcarre":5382,"Ġcarne":5383,"ĠTem":5384,"Ġmaneras":5385,"Ġmanchado":5386,"ĠmÃŃnimo":5387,"ĠHan":5388,"Ġtiempos":5389,"ĠescÃ¡nda":5390,"ĠrÃŃo":5391,"Ġraro":5392,"ĠrÃŃe":5393,"Ġpiel":5394,"Ġpieza":5395,"Ġmenti":5396,"Ġinterpre":5397,"Ġruptura":5398,"Ġcorte":5399,"Ġtuyo":5400,"Ġentreab":5401,"ĠparecÃŃan":5402,"acÃŃa":5403,"Ġdejando":5404,"Ġhayan":5405,"ecieron":5406,"Ġrob":5407,"Ġrobo":5408,"ĠpodÃŃan":5409,"Ġmaltra":5410,"Ġmaldito":5411,"brar":5412,"Ġestuvieron":5413,"Ġpegar":5414,"Ġjuven":5415,"Ġpersua":5416,"Ġcuartos":5417,"Ġambi":5418,"ĠZarnit":5419,"Ġpronuncia":5420,"Ġcobre":5421,"ĠEscucha":5422,"iÃ©ntese":5423,"graciadamente":5424,"Ġvisible":5425,"Sea":5426,"Ġindicios":5427,"izado":5428,"Ġhablarle":5429,"Ġhablaremos":5430,"ĠNadie":5431,"Ġnecesi":5432,"Ġnecesito":5433,"Ġquedaba":5434,"Ġtranseun":5435,"Ġinfin":5436,"Ġreciente":5437,"ĠcanciÃ³n":5438,"Ġcantaba":5439,"Ġchar":5440,"ĠconfusiÃ³n":5441,"Ġrisas":5442,"ĠbuscÃ³":5443,"ĠapartÃ³":5444,"Ġapartaba":5445,"ĠsombrÃŃa":5446,"Ġciego":5447,"Ġgritando":5448,"Ġhumano":5449,"Ġconvencida":5450,"ĠquizÃ¡s":5451,"Ġcrimin":5452,"erosos":5453,"Ġmuchacho":5454,"Ġcomenzado":5455,"ĠvolverÃ¡":5456,"EstÃ¡s":5457,"Ġconduce":5458,"ribles":5459,"Ġcambiado":5460,"Ġocultaba":5461,"Ġlanzar":5462,"Ġdatos":5463,"ĠrelaciÃ³n":5464,"ĠpequeÃ±":5465,"Ġsufrido":5466,"Ġculpa":5467,"?Â»--":5468,"Ġescuchado":5469,"ĠQuerÃŃa":5470,"ĠapoyÃ³":5471,"Ġfrancamente":5472,"Ġpermito":5473,"Ġpermiti":5474,"Ġmostrado":5475,"Ġimagen":5476,"Ġarrepen":5477,"Ġexperimentar":5478,"Ġagentes":5479,"Ġhalla":5480,"Ġregalo":5481,"uerme":5482,"Ġhonra":5483,"Ġhonrado":5484,"Ġacordarse":5485,"Ġimpresion":5486,"Ġculpabilidad":5487,"Ġconsul":5488,"Ġprestar":5489,"Ġprestaba":5490,"cultad":5491,"CuÃ¡ndo":5492,"Ġdominar":5493,"Ġherida":5494,"Ġextrema":5495,"ĠsubÃŃan":5496,"ĠinterrumpiÃ³":5497,"Ġcaballos":5498,"tismo":5499,"ĠmarchÃ³":5500,"Ġayuda":5501,"Ġfuner":5502,"Ġcausado":5503,"Ġextraordinariamente":5504,"Ġafirm":5505,"Ġconsideraba":5506,"Ġpintores":5507,"Ġinmediata":5508,"Ġencargo":5509,"Ġconsecuencia":5510,"Ġprobable":5511,"Ġdespreci":5512,"Ġadivinado":5513,"Ġbrill":5514,"Ġbrillaba":5515,"Ġbrillaban":5516,"Ġacostado":5517,"Ġtrabajaban":5518,"ÃŃsima":5519,"Todos":5520,"Ġturbado":5521,"ĠpertenecÃŃa":5522,"Ġexplicarme":5523,"Ġnerviosa":5524,"Ġsecretos":5525,"ĠmanifestÃ³":5526,"Ġalegremente":5527,"Ġrecurso":5528,"Ġpenetrar":5529,"ĠpenetrÃ³":5530,"Ġdura":5531,"Ġcele":5532,"Ġenviado":5533,"ĠreuniÃ³n":5534,"Ġpudiese":5535,"ĠBasta":5536,"Ġhospitalidad":5537,"ĠdistraÃŃdo":5538,"Ġprometido":5539,"ĠempeÃ±ado":5540,"Ġfatigado":5541,"ĠhuÃ©sped":5542,"Ġpedirle":5543,"Ġhablemos":5544,"Ġsirvienta":5545,"Ġgastos":5546,"Comprende":5547,"ĠeducaciÃ³n":5548,"Ġequival":5549,"ĠfantÃ¡":5550,"ĠComprendÃŃa":5551,"Ġacuerdas":5552,"ĠSupongo":5553,"Ġchiquillos":5554,"Ġaconte":5555,"Ġcarcajadas":5556,"Ġrenunciar":5557,"Ġrenunciado":5558,"ĠpÃºblico":5559,"vuelto":5560,"ĠcrÃŃ":5561,"Ġmerced":5562,"Ġconseguir":5563,"ĠconclusiÃ³n":5564,"Ġexcusas":5565,"Ġcochera":5566,"Ġalquilar":5567,"Ġcuantas":5568,"Ġdificultades":5569,"Ġilum":5570,"Ġtabernas":5571,"Ġtabernero":5572,"ĠcÃ¡lculo":5573,"ĠpermÃŃtame":5574,"ĠprecauciÃ³n":5575,"Ġveinticinco":5576,"ĠlÃŃmi":5577,"ĠenigmÃ¡":5578,"Ġgorro":5579,"Ġmonstruo":5580,"Ġpropietario":5581,"Ġzapa":5582,"ĠDutchkin":5583,"Ġobtener":5584,"Ġcerradura":5585,"ĠVerdaderamente":5586,"ĠpuÃ±etazo":5587,"Ġadornado":5588,"Ġvosotros":5589,"Ġojeada":5590,"Ġbene":5591,"Ġaltanero":5592,"Ġdesarrol":5593,"ĠespectÃ¡":5594,"Ġdesconcertado":5595,"TomÃ³":5596,"Ġharapos":5597,"Ġhachazos":5598,"Ġrabia":5599,"Ġrecuerdos":5600,"Ġconjeturas":5601,"Ġconstantemente":5602,"Ġacarici":5603,"Ġprejuicios":5604,"Ġaposento":5605,"ĠcortesÃŃa":5606,"Ġtranspor":5607,"Marmeladoff":5608,"Ġdeparta":5609,"ĠhÃ©roe":5610,"Ġoportun":5611,"Ġarrast":5612,"Ġtestimonio":5613,"Ġpereulok":5614,"Ġcementerio":5615,"osÃŃmil":5616,"ĠhÃºme":5617,"Ġhilaridad":5618,"ĠestrÃ©pito":5619,"Ġininteligi":5620,"ĠRusia":5621,"Ġmuebles":5622,"ĠÃ©poca":5623,"ĠZarnitzin":5624,".,":5625,"?,":5626,"Aqu":5627,"Ayer":5628,"Creo":5629,"Hoy":5630,"Ilia":5631,"JamÃ¡s":5632,"Puede":5633,"Sal":5634,"bor":5635,"bamos":5636,"cÃ©":5637,"ctamente":5638,"crÃ¡":5639,"darÃŃa":5640,"dentes":5641,"eh":5642,"fÃŃo":5643,"firm":5644,"gamente":5645,"gaban":5646,"gic":5647,"gles":5648,"her":5649,"hab":5650,"ivo":5651,"idiÃ³":5652,"izo":5653,"idez":5654,"jado":5655,"mano":5656,"melo":5657,"ogar":5658,"pro":5659,"pul":5660,"roso":5661,"saba":5662,"ton":5663,"tÃŃan":5664,"uro":5665,"vsky":5666,"yan":5667,"zaban":5668,"zarse":5669,"zler":5670,"Ġon":5671,"Ġras":5672,"Ġuso":5673,"Ġecon":5674,"Ġago":5675,"Ġaba":5676,"Ġatur":5677,"Ġagrad":5678,"Ġaristo":5679,"Ġdedi":5680,"Ġdeno":5681,"Ġllu":5682,"ĠlÃ³gi":5683,"Ġpesta":5684,"Ġcita":5685,"Ġmel":5686,"stre":5687,"stem":5688,"Ã³r":5689,"Ã³meno":5690,"ÃŃtan":5691,"recciÃ³n":5692,"Ġhel":5693,"Ġtol":5694,"Ġtam":5695,"Ġtaza":5696,"una":5697,"uni":5698,"ormal":5699,"ortun":5700,"Ġquej":5701,"Ġenvol":5702,"cidos":5703,"cimientos":5704,"cientos":5705,"Ġlados":5706,"ĠlatÃŃa":5707,"Ġnar":5708,"Ġnom":5709,"Ġnormal":5710,"Ġseda":5711,"Ġsepa":5712,"Ġsecamente":5713,"Ġvin":5714,"Ġvul":5715,"Ã¡zar":5716,"omanÃŃa":5717,"Ġsubi":5718,"Ġsupo":5719,"Ġnotado":5720,"Ġnoches":5721,"chamente":5722,"Ġestilo":5723,"dil":5724,"diese":5725,"dimiento":5726,"didez":5727,"Ġbal":5728,"Ġbest":5729,"Ġfra":5730,"Ġfuego":5731,"Ġreven":5732,"Ġrevol":5733,"Ġreserva":5734,"Ġredon":5735,"ĠrelÃ¡":5736,"Ġrell":5737,"Ġalum":5738,"tia":5739,"tivas":5740,"ĠhabrÃ©":5741,"Ġinti":5742,"Ġinven":5743,"Ġpariente":5744,"ellas":5745,"eliz":5746,"ĠdirÃ¡":5747,"ĠPav":5748,"ĠPraskovia":5749,"ĠPalab":5750,"Ġdescor":5751,"Ġsiente":5752,"Ġsiti":5753,"Ġsillas":5754,"Ġsigno":5755,"lag":5756,"ladamente":5757,"Ġis":5758,"Ġigles":5759,"Ġmuest":5760,"ĠAun":5761,"Ġvir":5762,"Ġviv":5763,"Ġvivi":5764,"Ġpuertas":5765,"Ġdelgada":5766,"Ġexiste":5767,"sias":5768,"siguiÃ³":5769,"dados":5770,"Ãºrate":5771,"cadas":5772,"ĠDese":5773,"ĠhabÃŃamos":5774,"urrecciÃ³n":5775,"Ġacciones":5776,"tarÃ©":5777,"tarla":5778,"tarlos":5779,"Ġperdi":5780,"Ġperpe":5781,"ĠperdÃŃa":5782,"Ġpertur":5783,"Ġprete":5784,"Ġpremed":5785,"ĠÃ©sa":5786,"ĠÃ©stos":5787,"voca":5788,"Ġprove":5789,"Ġanda":5790,"ĠanimaciÃ³n":5791,"Ġverde":5792,"Ġverano":5793,"ĠverosÃŃmil":5794,"ĠCosa":5795,"cones":5796,"iertamente":5797,"Ġcompro":5798,"Ġseres":5799,"ĠservÃŃa":5800,"speras":5801,"Ġdespren":5802,"Ġdespierto":5803,"Ġtiro":5804,"Ġtimi":5805,"ĠvendrÃŃa":5806,"inados":5807,"Ġpasada":5808,"ĠIgnor":5809,"Ġtantos":5810,"Ġmoder":5811,"ĠpaÃŃs":5812,"Ġentab":5813,"Ġentero":5814,"Ġdecidir":5815,"Ġsale":5816,"Ġsaltar":5817,"Ġllega":5818,"ceda":5819,"Ġsentada":5820,"Ġsencilla":5821,"Ġsentencia":5822,"Ġcargada":5823,"ĠexpiaciÃ³n":5824,"Ġmanifi":5825,"Ġsaben":5826,"Ġpalide":5827,"Ġtrato":5828,"Ġfuesen":5829,"ĠprosiguiÃ³":5830,"Ġrepi":5831,"Ġseguidas":5832,"Ġtiemb":5833,"Ġescanda":5834,"Ġarrim":5835,"Ġardiente":5836,"Ġtome":5837,"videntemente":5838,"Ġadm":5839,"ĠadÃ³nde":5840,"Ġsollo":5841,"bados":5842,"Ġpide":5843,"ĠabrÃŃa":5844,"Ġruidos":5845,"cara":5846,"Ġcalcu":5847,"Ġcalzado":5848,"Ġhacerla":5849,"Ġpresun":5850,"Ġcorto":5851,"Ġentregar":5852,"Ġmedi":5853,"Ġdejaron":5854,"Ġhaberme":5855,"Ġrobados":5856,"Ġrespira":5857,"ĠpodrÃ©":5858,"ĠpodrÃŃan":5859,"Ġmalos":5860,"Ġembro":5861,"Ġestuve":5862,"Ġlibros":5863,"Ġnuevamente":5864,"Ġfig":5865,"Ġfijo":5866,"Ġjuro":5867,"Escuche":5868,"Ġdemonio":5869,"Ġesperaban":5870,"Ġesperanzas":5871,"ĠcolÃ©ri":5872,"Ġforzoso":5873,"trase":5874,"ĠUno":5875,"Ġvisitar":5876,"yeron":5877,"ĠresurrecciÃ³n":5878,"Ġllevarle":5879,"Ġindisp":5880,"Ġindign":5881,"ĠNos":5882,"Ġescalones":5883,"Ġllamas":5884,"Ġtemblaban":5885,"ĠencontrÃ©":5886,"case":5887,"Ġdecor":5888,"ĠdecÃŃr":5889,"Ġconsist":5890,"Ġincen":5891,"Ġinstin":5892,"Ġderechamente":5893,"Ġocurri":5894,"Ġtrans":5895,"Ġinflam":5896,"Ġinfame":5897,"Ġcansado":5898,"ĠriÃ©ndose":5899,"gritaba":5900,"Ġasesinar":5901,"Ġfaltaba":5902,"Ġbuscaba":5903,"Ġdistrito":5904,"Ġaparte":5905,"ĠapareciÃ³":5906,"Ġapariencia":5907,"Ġsome":5908,"ĠmorirÃ¡":5909,"Ġmortifi":5910,"Ġmorib":5911,"Ġburlas":5912,"Ġdiscre":5913,"ĠdisponÃŃa":5914,"Ġasombra":5915,"Ġgracia":5916,"Ġgraves":5917,"Ġbajeza":5918,"ĠBus":5919,"Ġvuelvo":5920,"Ġsaberlo":5921,"Ġcontenta":5922,"Ġconducido":5923,"Ġconducir":5924,"Ġcontinuar":5925,"imentaba":5926,"sabe":5927,"Ġpriva":5928,"ĠdeteniÃ©ndose":5929,"Ġtranquilidad":5930,"ĠlÃ¡sti":5931,"quieres":5932,"ĠdesafÃŃo":5933,"Ġcriado":5934,"Ġgenio":5935,"Ġgruesas":5936,"ĠcomprenderÃ¡":5937,"Ġsacado":5938,"Ġfranca":5939,"manas":5940,"ĠvÃŃsperas":5941,"Ġinsensa":5942,"Ġpapeles":5943,"Ġreflexiones":5944,"Ġpermite":5945,"Ġespecial":5946,"Ġlugares":5947,"murmuraba":5948,"ganta":5949,"Ġmill":5950,"Ġregla":5951,"Ġsituada":5952,"Ġarrodil":5953,"entaban":5954,"Ġinteligentes":5955,"ĠmÃ©rito":5956,"Ġpasearse":5957,"ĠmonomanÃŃa":5958,"Ġconsuelo":5959,"ĠposesiÃ³n":5960,"Ġseparado":5961,"Ġcreerlo":5962,"Ġdomin":5963,"Ġcomerci":5964,"Ġobservaba":5965,"Ġobservado":5966,"ĠreÃŃrse":5967,"Ġprocedimiento":5968,"Ġformu":5969,"Ġformaba":5970,"Ġformado":5971,"Ġformada":5972,"Ġpiensas":5973,"Ġprodujo":5974,"Ġblancos":5975,"Ġcausas":5976,"Ġagujero":5977,"ĠimbÃ©ciles":5978,"Ġcuerda":5979,"Ġencargado":5980,"Ġconsejo":5981,"Ġconsejero":5982,"Ġpreparado":5983,"Ġasustado":5984,"Ġdestru":5985,"Ġpronunciado":5986,"Ġtrabajando":5987,"Ġocasiones":5988,"ĠProvidencia":5989,"Ġdesesperado":5990,"perimentaba":5991,"Ġsucedido":5992,"Ġexplicaba":5993,"ĠÃ¡ngu":5994,"ĠÃ¡ngel":5995,"ĠagitÃ³":5996,"Ġobscura":5997,"Ġobscuro":5998,"Ġelegancia":5999,"Ġintereses":6000,"Ġcolocar":6001,"ĠacompaÃ±aba":6002,"Ġapresura":6003,"cionado":6004,"Ġgabinete":6005,"Ġcolocado":6006,"Ġolvidaba":6007,"ĠextendiÃ³":6008,"Ã¡neo":6009,"ĠBakal":6010,"ĠestÃºpi":6011,"ĠpreocupaciÃ³n":6012,"Ġdesesperada":6013,"Ġsumido":6014,"Ġlogrado":6015,"Ġignoraba":6016,"ĠLlevaba":6017,"Ġrecobrar":6018,"Ġarrojar":6019,"ĠimpedÃŃa":6020,"Ġrodeaban":6021,"Ġfatiga":6022,"Estoy":6023,"Ġaverigu":6024,"Ġhojas":6025,"Ġalemana":6026,"hili":6027,"Ġganas":6028,"Ġrepentino":6029,"ĠpsicologÃŃa":6030,"Ġataque":6031,"Ġconservado":6032,"sup":6033,"Ġangustia":6034,"Ġamenaza":6035,"Ġalejarse":6036,"Ġorganill":6037,"ĠSupongamos":6038,"Ġchiquilla":6039,"Ante":6040,"Ġdurm":6041,"Ġdepende":6042,"Ġencam":6043,"Ġoyendo":6044,"Ġlimpia":6045,"ĠesforzÃ¡ndose":6046,"Ġescapado":6047,"Ġpecado":6048,"Ġpecuni":6049,"Ġmisterio":6050,"Ġcorriente":6051,"Ġcochero":6052,"Ġindiferencia":6053,"Cree":6054,"Crees":6055,"Muy":6056,"Ġavidez":6057,"Ġprendas":6058,"Ġbella":6059,"ĠretorcÃŃa":6060,"Ġcuantos":6061,"Ġpusieron":6062,"ĠobstÃ¡culo":6063,"Ġdetalle":6064,"Ġdetalles":6065,"Ġvecinos":6066,"ĠlegÃŃti":6067,"ĠaquÃ©l":6068,"ĠaquÃ©lla":6069,"Ġprecauciones":6070,"Ġcontrariedad":6071,"Ġinterrogatorio":6072,"Ġdisimuladamente":6073,"Rodia":6074,"RodiÃ³n":6075,"crip":6076,"ĠaÃ±adir":6077,"Ġflores":6078,"Ġinconven":6079,"ĠAcab":6080,"Ġfurioso":6081,"Ġmostrando":6082,"ĠejecuciÃ³n":6083,"Debe":6084,"Ġbosque":6085,"Ġdignidad":6086,"Ġdesnud":6087,"Ġgarganta":6088,"Ġperseguido":6089,"ĠprÃ¡ctica":6090,"Ġcalumnia":6091,"Ġfranquear":6092,"Ġdeshonor":6093,"Ġsujeto":6094,"Ġalivio":6095,"ĠilusiÃ³n":6096,"ĠNaturaleza":6097,"ĠlÃŃneas":6098,"Ġalrededor":6099,"Ġinvestiga":6100,"Ġcurso":6101,"Quiero":6102,"ĠridÃŃculo":6103,"ĠtÃŃtulo":6104,"Ġimaginarte":6105,"Ġespantosa":6106,"ĠcategorÃŃa":6107,"Ġensayo":6108,"ĠDesgraciadamente":6109,"Ġmagistrado":6110,"Ġimproviso":6111,"Ġmaliciosa":6112,"Ġinmenso":6113,"Ġintelectual":6114,"Ġproyectos":6115,"Ġensangrentado":6116,"Ġfrases":6117,"ĠÃ©xito":6118,"Ġprotestar":6119,"Ġcastigo":6120,"Ġpensionado":6121,"Ġentrecortada":6122,"Ġdemasiada":6123,"Ġpreparativos":6124,"Ġdefender":6125,"Ġprovincia":6126,"Ġentusias":6127,"ĠfenÃ³meno":6128,"Ġpupilo":6129,"ĠjurÃŃ":6130,"Ġaplastado":6131,"ĠescÃ¡ndalo":6132,"Ġpronunciadas":6133,"Ġbrillantes":6134,"ĠespectÃ¡culo":6135,"Ġdepartamento":6136,"Ġonce":6137,"Ġlluvia":6138,"ÃŃtanme":6139,"Ġvulgar":6140,"Ã¡zaro":6141,"ĠrelÃ¡mpa":6142,"Ġrellano":6143,"Ġiglesia":6144,"ĠlÃ¡stima":6145,"!Â»,":6146,"AR":6147,"Ac":6148,"Aun":6149,"Bu":6150,"Espera":6151,"Gracias":6152,"Hubo":6153,"IV":6154,"Lebeziatnikoff":6155,"Mi":6156,"Mientras":6157,"Pien":6158,"Perdo":6159,"Puedo":6160,"Sen":6161,"TE":6162,"VI":6163,"aje":6164,"afirm":6165,"bas":6166,"base":6167,"cÃº":6168,"cÃ©s":6169,"crib":6170,"dese":6171,"eado":6172,"equi":6173,"falle":6174,"gencia":6175,"ie":6176,"ieza":6177,"iedad":6178,"ktir":6179,"lon":6180,"mamente":6181,"nada":6182,"oce":6183,"paba":6184,"puesto":6185,"plico":6186,"rosa":6187,"ses":6188,"smo":6189,"tÃŃn":6190,"tables":6191,"use":6192,"uradamente":6193,"Ġ2":6194,"ĠW":6195,"Ġur":6196,"Ġefec":6197,"ĠequÃŃ":6198,"Ġdocu":6199,"Ġase":6200,"Ġazar":6201,"Ġsamo":6202,"Ġdete":6203,"Ġdevor":6204,"Ġdetest":6205,"Ġllo":6206,"Ġluna":6207,"Ġple":6208,"Ġpia":6209,"ĠpÃ¡r":6210,"ĠcÃ³":6211,"ĠcÃ¡":6212,"Ġcel":6213,"Ġclas":6214,"erra":6215,"ense":6216,"ariamente":6217,"dores":6218,"one":6219,"Ã³gic":6220,"ÃŃjese":6221,"ÃŃstica":6222,"Ġtini":6223,"Ġtesor":6224,"unta":6225,"inada":6226,"insistiÃ³":6227,"Ġentr":6228,"ĠenviÃ³":6229,"Ġenju":6230,"ĠenvolviÃ³":6231,"Ġlavado":6232,"Ġyendo":6233,"telo":6234,"tesis":6235,"Ã©rase":6236,"Ġsean":6237,"Ġsedu":6238,"Ġsemanas":6239,"Ġvuest":6240,"Ġvini":6241,"daÃ±os":6242,"Ã¡mel":6243,"Ġcond":6244,"Ġconce":6245,"Ġconfer":6246,"omi":6247,"ompa":6248,"Ġsucia":6249,"Ġsufi":6250,"Ġsucio":6251,"Ġsuici":6252,"Ġsucesi":6253,"Ġnotable":6254,"tamos":6255,"chin":6256,"cheb":6257,"roch":6258,"rores":6259,"rope":6260,"Ġestando":6261,"Ġestancia":6262,"Ġestima":6263,"Ġestrope":6264,"dioso":6265,"ĠhaciÃ©ndo":6266,"Ġbesar":6267,"Ġbendi":6268,"Ġrech":6269,"Ġretro":6270,"Ġretras":6271,"Ġrealmente":6272,"Ġrelig":6273,"Ġregular":6274,"ĠmisiÃ³n":6275,"Ġmilag":6276,"Ġletras":6277,"Ġlegado":6278,"Ġaliento":6279,"tizo":6280,"ticamente":6281,"Ġinci":6282,"Ġinces":6283,"Ġinvol":6284,"Ġlocal":6285,"Ġcub":6286,"ella":6287,"Ã±ada":6288,"Ġdij":6289,"Ġdiv":6290,"Ġdiri":6291,"Ġdigno":6292,"ĠPens":6293,"ĠPÃ³lvora":6294,"Ġdesal":6295,"Ġdespo":6296,"Ġdesmes":6297,"Ġdesfalle":6298,"cua":6299,"Ġsistem":6300,"ĠEvidentemente":6301,"rese":6302,"Ġmue":6303,"Ġmuda":6304,"Ġmuri":6305,"Ġmutismo":6306,"guen":6307,"biera":6308,"ecciÃ³n":6309,"ecÃŃan":6310,"Ġtoca":6311,"ĠApar":6312,"Ġvil":6313,"Ġvibr":6314,"Ġvieron":6315,"Ġvigor":6316,"Ġpude":6317,"eraciones":6318,"Ġdelgado":6319,"Ġexequi":6320,"sicos":6321,"Ġgarro":6322,"Ġgestos":6323,"adado":6324,"ezco":6325,"ruci":6326,"ĠDÃŃgame":6327,"ĠLÃ¡zaro":6328,"Ġtenta":6329,"Ġpocas":6330,"Ġpocos":6331,"uras":6332,"Ġaccidente":6333,"terÃŃa":6334,"irma":6335,"taria":6336,"Ġperci":6337,"ĠperdiÃ³":6338,"Ġperple":6339,"Ġpresta":6340,"Ġprefer":6341,"Ġprolon":6342,"Ġmismas":6343,"Ġsop":6344,"fico":6345,"stad":6346,"Ġandu":6347,"Ġanillo":6348,"Ġverifi":6349,"gate":6350,"gaciÃ³n":6351,"ĠCada":6352,"larÃ³":6353,"Ġmata":6354,"ieres":6355,"Ġcompar":6356,"ĠMis":6357,"Ġapren":6358,"Ġdespierta":6359,"dase":6360,"ĠvendrÃ©":6361,"ĠIzler":6362,"Ġcapi":6363,"Ġhura":6364,"Ġhuellas":6365,"Ġmodos":6366,"Ġpadres":6367,"Ġsalto":6368,"Ġllegue":6369,"Ġllegase":6370,"Ġimpide":6371,"Ġsentar":6372,"Ġsensaciones":6373,"Ġcartas":6374,"Ġcargos":6375,"Ġcarece":6376,"ĠTan":6377,"ĠTom":6378,"Ġmanch":6379,"Ġhilo":6380,"iosas":6381,"Ġsabios":6382,"ĠsabrÃ¡":6383,"Ġpalidez":6384,"Ġtraktir":6385,"Ġrepos":6386,"Ġtiende":6387,"Ġsegura":6388,"lamos":6389,"ĠPorque":6390,"mbos":6391,"Ġbienhe":6392,"Ġescas":6393,"Ġhubieses":6394,"Ġarti":6395,"Ġargu":6396,"Ġsonaba":6397,"Ġmiraban":6398,"ĠPetrovsky":6399,"baciÃ³n":6400,"paÃ±a":6401,"Ã±ados":6402,"Ġabur":6403,"pete":6404,"udablemente":6405,"Ġteme":6406,"Ġtemo":6407,"Ġcorta":6408,"Ġcreciente":6409,"Ġentregado":6410,"Ġherman":6411,"Ġvolviendo":6412,"dremos":6413,"vete":6414,"acto":6415,"Ġdejan":6416,"ĠDunetshka":6417,"eblas":6418,"Ġcerem":6419,"Ġroto":6420,"Ġroja":6421,"Ġrojas":6422,"ĠpodrÃ¡s":6423,"Ġpregunto":6424,"Ã±osamente":6425,"Ġfiel":6426,"ĠcampaÃ±a":6427,"Ġjurado":6428,"Ġempap":6429,"Ġradi":6430,"ĠratÃ³n":6431,"Ġdirigirse":6432,"ĠseÃ±oritas":6433,"Escucha":6434,"Ġquerida":6435,"Ġlevanta":6436,"ĠZa":6437,"Ġdebes":6438,"Ġamist":6439,"Ġamistad":6440,"Ġforro":6441,"Ġfortal":6442,"Ġforzada":6443,"Ġacabe":6444,"Ġacabo":6445,"Quer":6446,"QuizÃ¡":6447,"Quieres":6448,"gador":6449,"Ġvisitas":6450,"SegÃºn":6451,"Ġprecipi":6452,"ĠdarÃ¡":6453,"Deja":6454,"Ġluto":6455,"ĠsuposiciÃ³n":6456,"Ġproposiciones":6457,"Ġminuciosamente":6458,"Ġexpresaban":6459,"Ġquedarse":6460,"Ġinstal":6461,"ĠdesearÃŃa":6462,"Ġnecia":6463,"Ġnega":6464,"Ġinfeliz":6465,"Ġinquiete":6466,"Ġinquietaba":6467,"Ġinquietarse":6468,"ĠacusaciÃ³n":6469,"Ġrecientemente":6470,"ĠrecibiÃ³":6471,"Ġcanciones":6472,"Ġcandidez":6473,"Ġconforme":6474,"llate":6475,"ocupado":6476,"Ġantemano":6477,"Ġquieras":6478,"gica":6479,"ĠMarta":6480,"ĠEstu":6481,"Ġdispar":6482,"Ġfijado":6483,"Ġhumilla":6484,"Ġasombrada":6485,"Ġbajaba":6486,"ĠBanco":6487,"rosas":6488,"Ġopri":6489,"Ġcontenido":6490,"Ġinmensa":6491,"ĠvalÃŃa":6492,"Ġlabio":6493,"Ġprudencia":6494,"Ġprivado":6495,"ĠdetenÃŃa":6496,"Ġdetenerse":6497,"Ġdetenidamente":6498,"Ġbrusco":6499,"Ġbrusca":6500,"Ġguardaba":6501,"ĠdaÃ±o":6502,"ĠgustarÃŃa":6503,"Ġpresentaba":6504,"Ġpresentimiento":6505,"ĠAnte":6506,"ĠoÃŃrse":6507,"ĠadvertÃŃa":6508,"Ġcruzados":6509,"Ġsuele":6510,"ĠfrancÃ©s":6511,"ĠAquello":6512,"ĠpermitÃŃa":6513,"Ġmostrar":6514,"Ġimaginarse":6515,"Ġconocida":6516,"Ġrecog":6517,"ĠdÃ©j":6518,"Ġencuentran":6519,"Ġaproximarse":6520,"Ġescapa":6521,"Ġprofesor":6522,"Ġbarrio":6523,"Ġofrece":6524,"Ġmonedas":6525,"Ġocuparse":6526,"dencias":6527,"Ġantigua":6528,"ĠseparaciÃ³n":6529,"ĠdeclarÃ³":6530,"CuÃ¡n":6531,"Ġatraer":6532,"Ġmolesta":6533,"Ġmovimientos":6534,"Ġprocede":6535,"Ġinterrumpido":6536,"Ġreflexionado":6537,"Ġinterrogar":6538,"Ġconfesado":6539,"estad":6540,"Ġmarchado":6541,"Ġkopek":6542,"Ġafable":6543,"Ġaflig":6544,"Ġagujer":6545,"Ġtestamento":6546,"Ġempezaba":6547,"Ġamarillo":6548,"Ġamarill":6549,"Ġponerme":6550,"Ġdisgustos":6551,"Ġconsiderar":6552,"ĠpeldaÃ±os":6553,"Ġpreparar":6554,"Ġpreparaba":6555,"Ġdistinta":6556,"Ġdistintamente":6557,"Ġciudadano":6558,"ĠOtra":6559,"Ġbrillar":6560,"Ġparedes":6561,"genes":6562,"Ġdefensa":6563,"ĠcesÃ³":6564,"Ġmolestar":6565,"Ġmolestado":6566,"ĠsaludÃ³":6567,"Ġantiguos":6568,"Ġantiguas":6569,"ĠcompaÃ±ÃŃa":6570,"ĠcontarÃ©":6571,"Ġsucede":6572,"HabÃŃa":6573,"menes":6574,"Ġtapete":6575,"ĠrÃ¡pido":6576,"Ġsorprendida":6577,"Ġexactamente":6578,"Ġinteresante":6579,"Ġarreglado":6580,"Ġquinientos":6581,"Ġestablecer":6582,"Ġpertenece":6583,"Ã©ndole":6584,"Ġapretando":6585,"Ġrespetu":6586,"Ġapresurado":6587,"ĠvÃŃctimas":6588,"ĠsÃºbito":6589,"Ġmanifestado":6590,"ĠposeÃŃa":6591,"Ġnobleza":6592,"Ġpenetr":6593,"Ġolvidar":6594,"Ġizquierdo":6595,"Ġreparado":6596,"Ġnegro":6597,"Ġperdone":6598,"Ġperdonado":6599,"Ġasombraba":6600,"Ġnaturalmente":6601,"Ġdemostrado":6602,"Ġentien":6603,"Ġbebo":6604,"ĠPerdÃ³neme":6605,"ĠLlegado":6606,"ĠprometiÃ³":6607,"ĠrecobrÃ³":6608,"Ġarrojarse":6609,"ĠhabrÃ¡n":6610,"Ġespantada":6611,"Ġsufrimientos":6612,"Ġavergon":6613,"Ġhoja":6614,"Ġhotel":6615,"Ã¡rsela":6616,"Ġtranquilizar":6617,"III":6618,"Ġganar":6619,"Ġrepentina":6620,"Ġcampesina":6621,"Comprendes":6622,"Ġleyes":6623,"Ġfrunciendo":6624,"tinÃº":6625,"Ġangustias":6626,"Ġvacilado":6627,"Ġvacilante":6628,"ubiera":6629,"ĠenseÃ±":6630,"Ġdesmay":6631,"Ġdesmayo":6632,"Ġapoyado":6633,"Ġ15":6634,"Ġevitar":6635,"ĠavanzÃ³":6636,"Ġpunta":6637,"Ġindul":6638,"Ġcuidadosamente":6639,"Ġaconse":6640,"Ġdeberes":6641,"Ġfingida":6642,"ĠfingiÃ³":6643,"ĠapoderÃ³":6644,"Ġesforzaba":6645,"ĠpÃºblica":6646,"Pobre":6647,"Ġdeterminado":6648,"ĠdeterminaciÃ³n":6649,"ĠcrÃ¡neo":6650,"Ġclave":6651,"Ġclavado":6652,"Ġconclusiones":6653,"Ġfresca":6654,"ĠalargÃ³":6655,"ĠSenado":6656,"Ġdesenlace":6657,"Ġexcus":6658,"Ġgrosero":6659,"Ġprotesta":6660,"Ġcorriendo":6661,"Ġcedido":6662,"Ġrealiz":6663,"Ġcumplir":6664,"Ġdificultad":6665,"Ġdesgarrado":6666,"Ġprecedente":6667,"Ġprecedentes":6668,"ĠcariÃ±":6669,"Ġtriunfo":6670,"ĠinclinÃ¡ndose":6671,"Ġrepugnante":6672,"Ġrepugnancia":6673,"Ġlegal":6674,"Ġhabitu":6675,"Ġexige":6676,"Ġprocurado":6677,"ĠMaÃ±ana":6678,"ĠVengo":6679,"Ġcontrariado":6680,"Ġsacrificio":6681,"Ġjustifica":6682,"ĠturbÃ³":6683,"Ġdisimular":6684,"Ġaventura":6685,"Ġenigma":6686,"Ġingenio":6687,"Ġdiferentes":6688,"Ġexcesivamente":6689,"Ġhicieron":6690,"Ġcoronel":6691,"Ġcoronilla":6692,"Ġeterna":6693,"Ġnumerosos":6694,"Ġboste":6695,"ĠfÃ¡cilmente":6696,"Ġsuplicio":6697,"Ġinsolente":6698,"Ġdespreciativo":6699,"Advocia":6700,"Ġlinda":6701,"Ġdesvanecido":6702,"ĠMuchas":6703,"ĠHubiera":6704,"Ġdisculp":6705,"Ġcomenzaron":6706,"Ġmateriales":6707,"Ġenamorado":6708,"Ġausencia":6709,"Ġquebrantado":6710,"ĠbribÃ³n":6711,"Ġfilos":6712,"Ġparroquianos":6713,"Ġsinceramente":6714,"Ġadquirido":6715,"Ġtempestad":6716,"Ġfuror":6717,"Ġinexplic":6718,"Ġmodales":6719,"Ġmoverse":6720,"Ġcreyendo":6721,"Ġmaldita":6722,"ĠAlgunas":6723,"Ġtropez":6724,"ĠprÃ³xima":6725,"Ġmurmuraba":6726,"DÃ©jame":6727,"Ġzum":6728,"Ġbreve":6729,"Ġinocencia":6730,"ĠRecon":6731,"Ġsincero":6732,"Ġsuspiro":6733,"Ġanciana":6734,"Ġespejo":6735,"Ġapetito":6736,"Ġprecipita":6737,"Ġtartamu":6738,"Ġsortijas":6739,"ĠConfieso":6740,"Ġabsorto":6741,"ĠpsicolÃ³gico":6742,"Ġorgulloso":6743,"Ġazules":6744,"flexion":6745,"Ġedificio":6746,"Ġdevolver":6747,"Ġreanud":6748,"Ġmiembros":6749,"Ġinferior":6750,"ĠSolamente":6751,"Ġexclusivamente":6752,"Ġcarreta":6753,"Ġcortedad":6754,"Ġjuventud":6755,"Ġambiente":6756,"Ġnecesitaba":6757,"Ġtranseuntes":6758,"Ġfunerales":6759,"ĠfantÃ¡stico":6760,"ĠlÃŃmites":6761,"Ġzapatos":6762,"Ġbenefi":6763,"Ġoportuno":6764,"Aquel":6765,"crÃ¡tica":6766,"Ġbestia":6767,"ĠPalabra":6768,"Ġvirtud":6769,"Ġcomprobar":6770,"Ġtimidez":6771,"ĠrespiraciÃ³n":6772,"ĠcolÃ©rico":6773,"Ġincendio":6774,"ĠÃ¡ngulo":6775,"Ġapresuramiento":6776,"Ġdurmiendo":6777,"afirmÃ³":6778,"Ġurgente":6779,"Ġdocumento":6780,"Ġsamovar":6781,"Ġtinieblas":6782,"Ġinvolun":6783,"Ġdesmesuradamente":6784,"Ġexequias":6785,"Ġgarrote":6786,"Ġamarillento":6787,"Bus":6788,"Cer":6789,"Eres":6790,"Eran":6791,"Esa":6792,"Herm":6793,"Isabel":6794,"Lle":6795,"Lud":6796,"Mas":6797,"Ob":6798,"Oiga":6799,"Pas":6800,"PermÃŃtame":6801,"So":6802,"Sus":6803,"SofÃŃa":6804,"Tienes":6805,"Val":6806,"Vol":6807,"Voy":6808,"aco":6809,"bos":6810,"bern":6811,"cro":6812,"cosa":6813,"cÃ¡ndose":6814,"cantes":6815,"cinaciÃ³n":6816,"dan":6817,"dle":6818,"del":6819,"dÃ©n":6820,"dÃŃsima":6821,"eo":6822,"fr":6823,"forme":6824,"gs":6825,"hom":6826,"hem":6827,"iado":6828,"itario":6829,"kh":6830,"land":6831,"mada":6832,"mido":6833,"mese":6834,"minu":6835,"nura":6836,"pÃ³":6837,"pres":6838,"prÃ©":6839,"rab":6840,"rÃº":6841,"rÃ¡n":6842,"raban":6843,"rÃŃas":6844,"rarÃŃa":6845,"sia":6846,"seme":6847,"tones":6848,"tina":6849,"tÃŃas":6850,"tÃ¡rselo":6851,"ut":6852,"uci":6853,"vÃ³":6854,"vnas":6855,"xi":6856,"yera":6857,"yase":6858,"Ġec":6859,"Ġeras":6860,"Ġdor":6861,"ĠdarÃŃa":6862,"Ġduelo":6863,"Ġduerme":6864,"Ġabre":6865,"Ġamp":6866,"Ġatar":6867,"Ġafi":6868,"Ġafer":6869,"Ġagri":6870,"Ġadon":6871,"Ġsanto":6872,"Ġdedu":6873,"Ġdetien":6874,"Ġdeudas":6875,"Ġlimos":6876,"ĠcÃŃr":6877,"Ġcelo":6878,"ĠcÃŃn":6879,"erÃŃas":6880,"eremos":6881,"entro":6882,"encial":6883,"ques":6884,"Ġmante":6885,"ĠmÃ³vil":6886,"Ġmintiendo":6887,"ares":6888,"aroff":6889,"aremos":6890,"asen":6891,"anes":6892,"antÃ¡neamente":6893,"Ã³li":6894,"Ã³ma":6895,"ÃŃbu":6896,"recido":6897,"Ġhun":6898,"Ġtap":6899,"und":6900,"Ġquema":6901,"intiÃ³":6902,"Ġenv":6903,"Ġengan":6904,"cior":6905,"cieron":6906,"cisamente":6907,"citur":6908,"temos":6909,"Ġnu":6910,"Ã©p":6911,"Ã©me":6912,"Ã©vol":6913,"Ġsed":6914,"Ġseque":6915,"Ġsemi":6916,"Ġsever":6917,"Ġsepul":6918,"raciÃ³n":6919,"radas":6920,"ramos":6921,"ramento":6922,"Ã¡lo":6923,"Ã¡llate":6924,"Ġconcer":6925,"Ġconstitu":6926,"Ġsupre":6927,"Ġsubido":6928,"Ġsuceso":6929,"Ġesencial":6930,"Ġnota":6931,"rios":6932,"chera":6933,"ola":6934,"leta":6935,"Ġoj":6936,"Ġopon":6937,"Ġoiga":6938,"amista":6939,"usto":6940,"Ġbl":6941,"Ġban":6942,"Ġbul":6943,"Ġbord":6944,"Ġbeso":6945,"Ġfle":6946,"Ġfla":6947,"Ġreserv":6948,"Ġremor":6949,"Ġalde":6950,"Ġalbor":6951,"tiri":6952,"ticas":6953,"Ġhabido":6954,"Ġhabiendo":6955,"Ġhabilidad":6956,"Ġhablamos":6957,"Ġinun":6958,"iense":6959,"vida":6960,"vidad":6961,"Ġcui":6962,"Ġcuyos":6963,"ĠcuÃ¡les":6964,"Ġparientes":6965,"ĠSo":6966,"Ã±e":6967,"Ã±al":6968,"Ġdibu":6969,"Ġdicen":6970,"ĠResp":6971,"ĠPala":6972,"ĠPuedo":6973,"ĠPAR":6974,"cuciÃ³n":6975,"Ġsil":6976,"ladas":6977,"laciones":6978,"ĠEspera":6979,"ĠmetÃ¡":6980,"ĠimÃ¡":6981,"Ġiremos":6982,"Ġmuelle":6983,"guas":6984,"secuciÃ³n":6985,"bitro":6986,"ĠAnastas":6987,"Ġvid":6988,"Ġpuse":6989,"Ġpudiendo":6990,"Ġexag":6991,"siva":6992,"mores":6993,"Ġgal":6994,"Ġgraba":6995,"Ãºd":6996,"ezca":6997,"licaciÃ³n":6998,"ĠDeci":6999,"Ġtender":7000,"venciÃ³n":7001,"traciÃ³n":7002,"Ġacor":7003,"tern":7004,"tarios":7005,"tariamente":7006,"Ġperro":7007,"Ġperdida":7008,"ĠpersecuciÃ³n":7009,"tucho":7010,"Ġprobar":7011,"fica":7012,"illos":7013,"Ġancho":7014,"Ġandado":7015,"ĠverÃŃa":7016,"ĠverÃ¡s":7017,"Ġverlo":7018,"Ġverstas":7019,"Ġvergon":7020,"mac":7021,"ĠCinco":7022,"ĠCrist":7023,"lares":7024,"ĠmatÃ³":7025,"Ġmayo":7026,"tchin":7027,"Ġcomprado":7028,"Ġcompara":7029,"Â»?":7030,"Ġserle":7031,"Ġserlo":7032,"ĠserÃ¡n":7033,"Ġdesple":7034,"Ġdespist":7035,"tadores":7036,"Ġobtuvo":7037,"Ġtipo":7038,"Ġtirado":7039,"versa":7040,"ĠvendrÃ¡n":7041,"Ġcasta":7042,"Ġcapo":7043,"Ġcaja":7044,"Ġcafe":7045,"ĠcaÃŃda":7046,"Ġmoviendo":7047,"ĠpagÃ³":7048,"Ġpatillas":7049,"Ġsali":7050,"ĠsalÃŃan":7051,"Ġsaluda":7052,"Ġsaliendo":7053,"Ġsalvar":7054,"Ġsalieron":7055,"jate":7056,"Ġllevo":7057,"Ġimposi":7058,"ĠsentÃ¡ndose":7059,"Ġsentirse":7060,"Ġcarru":7061,"ĠTampoco":7062,"ĠTienes":7063,"ĠTcheb":7064,"Ġexpan":7065,"Ġmane":7066,"Ġmanten":7067,"ĠhipÃ³":7068,"iosos":7069,"ĠsabÃŃan":7070,"Ġpalos":7071,"ĠestaciÃ³n":7072,"ĠtraÃŃa":7073,"Ġtramp":7074,"tales":7075,"Ġfuente":7076,"Ġnivel":7077,"Ġtienda":7078,"Ġtiendas":7079,"ĠHemos":7080,"ĠHubo":7081,"ĠseÃ±ores":7082,"garÃŃa":7083,"Ġsobreman":7084,"Ġsobretodo":7085,"Ġescar":7086,"Ġescla":7087,"ĠescrÃº":7088,"erman":7089,"ullo":7090,"Ġtomo":7091,"ĠtomÃ©":7092,"Ġsonaron":7093,"Ġsonidos":7094,"Ġquise":7095,"Ġquitaba":7096,"Ġquitarse":7097,"Ġsolos":7098,"Ġsolas":7099,"Ġsoltar":7100,"ĠsoltÃ³":7101,"Ġsoledad":7102,"Ġsolitario":7103,"Ġmirarme":7104,"Ġpiezas":7105,"uestas":7106,"Ġmentido":7107,"Ġabus":7108,"Ġrusos":7109,"Ġrumores":7110,"carÃŃa":7111,"Ġcalur":7112,"imenta":7113,"Ġcortada":7114,"Ġtuya":7115,"Ġparecen":7116,"Ġvolvieron":7117,"pidez":7118,"Ġmedidas":7119,"acos":7120,"acÃ³":7121,"ĠdejarÃ©":7122,"ecida":7123,"Ġhaberlo":7124,"Ġcerrados":7125,"Ġcertifi":7126,"Ġcercior":7127,"Ġroj":7128,"Ġrespirar":7129,"Ġpodemos":7130,"Ġmalestar":7131,"porte":7132,"Ġciertamente":7133,"Ġestuches":7134,"Ġliter":7135,"Ġnuevos":7136,"Ġpegaba":7137,"Ġcualidades":7138,"Ġjueces":7139,"Ġjuramento":7140,"ĠdirigÃŃan":7141,"Ġcostado":7142,"Ġqueriendo":7143,"Ġvater":7144,"icor":7145,"Ġtontos":7146,"Ġamado":7147,"Ġechaba":7148,"Ġecharse":7149,"Ġdemanda":7150,"Ġmesita":7151,"ĠveÃŃan":7152,"Ġcobrar":7153,"Ġviejos":7154,"Ġviejas":7155,"Ġforzado":7156,"ĠacabarÃ¡":7157,"Entre":7158,"QuerÃŃa":7159,"ĠdesdeÃ±osamente":7160,"Ġgrana":7161,"ĠhablÃ©":7162,"gradaba":7163,"ĠvisiÃ³n":7164,"Ġvisitantes":7165,"Ġfinalmente":7166,"Ġdarme":7167,"Ġponte":7168,"Ġpongo":7169,"Ġresumen":7170,"ĠllevÃ¡ndose":7171,"AhÃŃ":7172,"Ġindicado":7173,"Ġindigno":7174,"ĠSiempre":7175,"Ġhablarte":7176,"ĠNoso":7177,"Ġluchar":7178,"Ġsuposiciones":7179,"Ġguantes":7180,"Ġguerra":7181,"Ġmaravi":7182,"Ġmartiri":7183,"Ġnecesaria":7184,"Ġtarea":7185,"Ġllamo":7186,"Ġllaman":7187,"igÃºrate":7188,"Ġconsigo":7189,"Ġincendi":7190,"Ġexpresar":7191,"ĠexpresÃ³":7192,"Ġexpresado":7193,"Ġatender":7194,"Ġquedan":7195,"ĠquedarÃ©":7196,"Ġpolaco":7197,"ĠinstantÃ¡neamente":7198,"Ġdesechar":7199,"Ġderechos":7200,"Ġacertaba":7201,"ĠacercÃ¡ndose":7202,"Ġocurra":7203,"ĠocurrÃŃa":7204,"Ġterribles":7205,"Ġternura":7206,"Ġtransi":7207,"Ġinform":7208,"Ġrecibo":7209,"Ġcantante":7210,"ĠsostÃ©n":7211,"Ġcho":7212,"Ġchocado":7213,"Ġconfus":7214,"Ġconfusa":7215,"Ġsilenciosa":7216,"Ġasesinado":7217,"Ġbruja":7218,"Ġquieren":7219,"Ġorilla":7220,"Ġaparecer":7221,"quilado":7222,"Ġfavo":7223,"Ġfacili":7224,"ĠciprÃ©":7225,"currido":7226,"Ġburlarse":7227,"Ġgrivnas":7228,"Ġdispara":7229,"Ġfijando":7230,"Ġfijarse":7231,"Ġplazo":7232,"Ġrespondido":7233,"Ġrespondiendo":7234,"Ġclaras":7235,"Ġrecal":7236,"Ġvuelve":7237,"Ġrefu":7238,"Ġpreocupar":7239,"ĠFu":7240,"Ġlloran":7241,"Ġcontener":7242,"Ġcuestiones":7243,"ĠsonriÃ©ndose":7244,"Ġvalen":7245,"ĠvestÃŃbu":7246,"Ġcondujo":7247,"ĠMejor":7248,"Ġcontinuo":7249,"Ġcontinuas":7250,"Ġcontinuamente":7251,"Ġencontrarla":7252,"Ġprima":7253,"ĠocultÃ³":7254,"Ġlanz":7255,"ĠTenga":7256,"Ġguard":7257,"Ġguardado":7258,"Ġguardar":7259,"Ġgustaba":7260,"Ġsentidos":7261,"Ġsentimen":7262,"aieff":7263,"ĠsufrÃŃa":7264,"Ġpresentarse":7265,"Ġdesagradaba":7266,"Ġcrisis":7267,"ĠconocÃŃan":7268,"ĠoÃŃrle":7269,"Ġcurioso":7270,"Ġgeneraciones":7271,"ĠTodas":7272,"Ġcruces":7273,"Ġdenuncia":7274,"Ġinsinu":7275,"Ġirritar":7276,"ĠengaÃ±as":7277,"ĠConozco":7278,"ĠMira":7279,"Ġescritas":7280,"Ġescritorio":7281,"Ã©rsele":7282,"Ġinvierno":7283,"Ġagente":7284,"Ġatrevi":7285,"Ġatrevo":7286,"Ġatreve":7287,"ĠatreviÃ³":7288,"Ġmillares":7289,"Ġprimeras":7290,"Ġregres":7291,"Ġarroja":7292,"Ġarroyo":7293,"ĠarrojÃ³":7294,"ĠpropÃ³sitos":7295,"ĠmÃ©todo":7296,"Ġconfiese":7297,"Ġimpresiones":7298,"Ġabiertas":7299,"Ġbarin":7300,"Ġbarra":7301,"Ġbarullo":7302,"Ġpaseo":7303,"Ġpaseantes":7304,"ĠresolviÃ³":7305,"Ġmonol":7306,"Ġexistir":7307,"ĠexistÃŃan":7308,"erne":7309,"Ġexaminando":7310,"Ġprestamista":7311,"Ġelevada":7312,"ĠsignificaciÃ³n":7313,"CuÃ¡les":7314,"celencia":7315,"omenzaba":7316,"Ġempleados":7317,"Ġtemblorosos":7318,"Ġolvida":7319,"Ġolvide":7320,"Ġsube":7321,"Ġsubstra":7322,"Ġderra":7323,"Ġtiras":7324,"ĠprocedÃŃa":7325,"Ġprocedido":7326,"Ġformando":7327,"empezÃ³":7328,"Ġproduce":7329,"Ġconfesaba":7330,"Ġpasaje":7331,"Ġcausar":7332,"Ġcausaba":7333,"Ġextraordinarios":7334,"Ġamarilla":7335,"Ġenfermedades":7336,"Ġresponderle":7337,"Ġtorp":7338,"Ġreconocimiento":7339,"ĠOstroff":7340,"Ġrevuel":7341,"ĠdÃ©bilmente":7342,"Ġmolestarle":7343,"Ġocasion":7344,"Ġenterado":7345,"Ġsuceder":7346,"ĠsucederÃ¡":7347,"HabrÃ¡":7348,"TodavÃŃa":7349,"ĠÃ¡nimos":7350,"Ġtacitur":7351,"Ġcadenas":7352,"Ġligera":7353,"ĠdescubriÃ³":7354,"Ġelegido":7355,"mula":7356,"Ġconvidados":7357,"ĠsimpatÃŃa":7358,"Ġcolores":7359,"Ġdesharra":7360,"Ã©ndome":7361,"Ġanimado":7362,"Ġapreci":7363,"ĠapretÃ³":7364,"Ġsostenerse":7365,"Ġmanifestaba":7366,"Ġrecordaba":7367,"Ġprocurarse":7368,"Ġliber":7369,"Ġcolocada":7370,"Ġpeligros":7371,"Ġterminar":7372,"Ġpudieron":7373,"ĠextensiÃ³n":7374,"ceptible":7375,"Ġneglig":7376,"ĠBajo":7377,"Ġayudar":7378,"Ġgota":7379,"Ġgobern":7380,"ĠllenÃ³":7381,"Ġllenado":7382,"Ġfecha":7383,"Ġdiablos":7384,"Ġasombroso":7385,"Ġentiendo":7386,"Ġprometida":7387,"Ġrecobraba":7388,"ĠabandonÃ³":7389,"Ġcocin":7390,"Ġtrozo":7391,"Ġvasos":7392,"Ġimpedido":7393,"ĠvacilaciÃ³n":7394,"ĠKozel":7395,"Ġobstinadamente":7396,"Ġexaminarla":7397,"Ġexaminarlo":7398,"Ġaumento":7399,"Ġalterado":7400,"Ġsirve":7401,"Ġgast":7402,"Ġpropongo":7403,"ĠpsicolÃ³gic":7404,"Comprendo":7405,"Ġeducado":7406,"Ġeducada":7407,"Ġagarr":7408,"Ġrehusa":7409,"Ġinspiraba":7410,"Ġinsoportables":7411,"ĠexclamaciÃ³n":7412,"Ġequivo":7413,"ĠDisp":7414,"Ġarmario":7415,"ĠarmonÃŃa":7416,"Ġorganillo":7417,"Ġahogaba":7418,"Ġahogada":7419,"Ġordinarios":7420,"Ġpuntillas":7421,"Ġencanto":7422,"Ġencruci":7423,"Ġcontigua":7424,"Ġoye":7425,"Ġrefiere":7426,"Ġindemn":7427,"Ġfigura":7428,"Ġapoderado":7429,"Poco":7430,"Ġconseguido":7431,"Ġfresco":7432,"ĠrechazÃ³":7433,"Ġalcance":7434,"Ġproteg":7435,"Ġdesaparecer":7436,"Ġdesaparecido":7437,"ĠcadÃ¡veres":7438,"Ġrazonable":7439,"Ġbelleza":7440,"ĠretorciÃ©ndose":7441,"Ġilust":7442,"Ġjuntas":7443,"ĠcariÃ±o":7444,"Ġarrancarle":7445,"Ġbotellas":7446,"Ġaprovecharse":7447,"ĠengaÃ±aba":7448,"Ġregistro":7449,"Ġregistrar":7450,"Ġresolverse":7451,"Ġabsoluto":7452,"Ġsimplemente":7453,"Ġrepresentaba":7454,"ĠÃ¡rbitro":7455,"Ġhabitaba":7456,"Ġprovinci":7457,"ĠCualquiera":7458,"Ġrepetido":7459,"Ġsolicitar":7460,"Ġsolicitud":7461,"Ġtuviera":7462,"Ġsuplicaba":7463,"Ġsuplicado":7464,"Ġconvulsivo":7465,"Ġconvulsivamente":7466,"Ġavenida":7467,"Ġsevero":7468,"Ġdelicada":7469,"Ġexcesiva":7470,"Ġprogreso":7471,"Ġprogresos":7472,"Ġventajos":7473,"Ġvendedora":7474,"Ġimprevi":7475,"Ġreproches":7476,"iÃ©ndole":7477,"iÃ©ndola":7478,"Ġtercero":7479,"Ġpropietaria":7480,"Ġaumentado":7481,"declarÃ³":7482,"ĠoraciÃ³n":7483,"ĠdoblÃ³":7484,"Ġsarcas":7485,"Ġnumerosa":7486,"ĠcuÃ¡ntos":7487,"Ġcapacidad":7488,"Ġesclarecer":7489,"Ġcorrespondiente":7490,"Ġinsolencia":7491,"Ġdistinguido":7492,"Ġcomprometer":7493,"Ġdesignio":7494,"ĠpuÃ±etazos":7495,"pulos":7496,"Ġsesenta":7497,"Ġilusiones":7498,"Ġactualmente":7499,"Ġansiosamente":7500,"Ġmentalmente":7501,"ĠNaturalmente":7502,"Ġtranquilamente":7503,"Ġinfamia":7504,"Ġcigarrillo":7505,"Ġconvencerme":7506,"Ġatormentaba":7507,"Ġamenazas":7508,"Ġmaterial":7509,"Ġmujiks":7510,"Ġdoble":7511,"Ġparroquiano":7512,"Ġgalopar":7513,"Ġdespedirse":7514,"Ġronca":7515,"Ġoprimido":7516,"Ġcomunicar":7517,"Ġcomunicaba":7518,"ĠdesempeÃ±ar":7519,"Ġ30":7520,"ĠladrÃ³n":7521,"Ġladrona":7522,"Ġreclama":7523,"Ġcubierta":7524,"Ġanoche":7525,"Ġestupefacto":7526,"Ġempuj":7527,"ĠdiscusiÃ³n":7528,"ĠlÃ¡tigo":7529,"ĠlÃ¡tigos":7530,"Ġfamiliaridad":7531,"Ġacometido":7532,"Ġcaracteres":7533,"Ġultra":7534,"ĠhÃ¡bil":7535,"ĠenÃ©rgica":7536,"Ġinesperada":7537,"ĠespontÃ¡neamente":7538,"Ġexponer":7539,"Ġencontramos":7540,"Ġcolegio":7541,"Ġagitada":7542,"Ġatormenta":7543,"MaÃ±ana":7544,"Ġconcierne":7545,"Ġreojo":7546,"Ġexhal":7547,"Ġperjudi":7548,"ĠmagnÃ¡n":7549,"ĠjudÃŃos":7550,"Ġcriminales":7551,"Ġhonradez":7552,"ĠcrÃŃmenes":7553,"ĠhÃºmeda":7554,"ĠaristocrÃ¡tica":7555,"ĠlÃ³gica":7556,"Ġsitios":7557,"Ġisla":7558,"ĠperdiciÃ³n":7559,"Ġpretexto":7560,"Ġprovecho":7561,"ĠpalideciÃ³":7562,"Ġadminist":7563,"Ġinstinto":7564,"Ġmoribundo":7565,"Ġcomerciante":7566,"ĠBakalaieff":7567,"Ġaveriguar":7568,"Ġinconveniente":7569,"Ġentusiasmo":7570,"Perdone":7571,"ĠequÃŃvoca":7572,"ĠpÃ¡rpados":7573,"Ġtesoro":7574,"Ġcondena":7575,"Ġsuficiente":7576,"Ġsuicidio":7577,"ĠbendiciÃ³n":7578,"Ġmilagro":7579,"Ġincesante":7580,"Ġdivina":7581,"Ġdesalquilado":7582,"Ġvibrante":7583,"ĠcapitÃ¡n":7584,"Ġfortaleza":7585,"ĠprecipitÃ³":7586,"ĠhumillaciÃ³n":7587,"Ġpenetrante":7588,"Ġinexplicable":7589,"Ġprecipitadamente":7590,"Busca":7591,"Hermano":7592,"Ludjin":7593,"Ġadonde":7594,"Ġlimosna":7595,"ĠcÃŃrculos":7596,"Ġsequedad":7597,"Ġalboro":7598,"ĠPalacio":7599,"ĠPARTE":7600,"ĠimÃ¡genes":7601,"ĠAnastasio":7602,"ĠCristal":7603,"Ġmayores":7604,"ĠTchebaroff":7605,"ĠhipÃ³tesis":7606,"Ġsobremanera":7607,"Ġincendios":7608,"ĠciprÃ©s":7609,"ĠvestÃŃbulo":7610,"Ġsubstraerse":7611,"Ġgobernador":7612,"Ar":7613,"Ambos":7614,"Car":7615,"CÃ¡l":7616,"Cierto":7617,"Calle":7618,"Claro":7619,"CÃ¡llate":7620,"Dem":7621,"DÃŃgame":7622,"HacÃŃa":7623,"Llam":7624,"Mis":7625,"Ni":7626,"Nadie":7627,"Ostroff":7628,"Pe":7629,"Pro":7630,"Pol":7631,"Puesto":7632,"Pron":7633,"SÃ©":7634,"SiÃ©ntese":7635,"Tra":7636,"Tampoco":7637,"Ves":7638,"Verdad":7639,"Zametoff":7640,"].":7641,"atia":7642,"atÃŃas":7643,"bada":7644,"cin":7645,"cablemente":7646,"ctores":7647,"dru":7648,"dver":7649,"darÃ¡":7650,"dumbre":7651,"duras":7652,"dudablemente":7653,"eada":7654,"fen":7655,"fra":7656,"gal":7657,"gante":7658,"gÃ¡ndole":7659,"gicamente":7660,"hogar":7661,"hubiera":7662,"ite":7663,"iÃ¡":7664,"ile":7665,"ime":7666,"itu":7667,"itos":7668,"iosa":7669,"ipe":7670,"ieff":7671,"kru":7672,"lÃ©":7673,"lese":7674,"lÃ©s":7675,"lÃ©ri":7676,"mar":7677,"mun":7678,"ofr":7679,"pil":7680,"pued":7681,"pulo":7682,"rÃŃ":7683,"rano":7684,"raron":7685,"sar":7686,"son":7687,"sul":7688,"sciente":7689,"tente":7690,"tzo":7691,"tanto":7692,"tÃ¡ndole":7693,"tÃ¡ndola":7694,"udi":7695,"uera":7696,"udos":7697,"vera":7698,"ye":7699,"zca":7700,"zase":7701,"zarle":7702,"Ġk":7703,"Ġzar":7704,"ĠÃ³r":7705,"Ġeh":7706,"Ġdada":7707,"Ġdame":7708,"Ġado":7709,"Ġaci":7710,"Ġaren":7711,"Ġazo":7712,"Ġafecto":7713,"Ġampli":7714,"ĠsÃ³li":7715,"Ġdele":7716,"Ġdefecto":7717,"ĠdebiÃ³":7718,"Ġdebida":7719,"Ġdemac":7720,"Ġlenta":7721,"Ġpom":7722,"Ġpones":7723,"Ġplen":7724,"ĠpÃ©r":7725,"Ġplena":7726,"Ġpillo":7727,"Ġcera":7728,"ĠcitaciÃ³n":7729,"ĠclÃ©ri":7730,"ertura":7731,"entien":7732,"Ġmona":7733,"ardo":7734,"araz":7735,"arias":7736,"sten":7737,"sticamente":7738,"onado":7739,"onaban":7740,"onios":7741,"onadado":7742,"anas":7743,"ande":7744,"Ã³mal":7745,"ÃŃc":7746,"ÃŃte":7747,"ÃŃpro":7748,"ÃŃfico":7749,"Ġhol":7750,"Ġhur":7751,"Ġheno":7752,"Ġhendi":7753,"Ġtaba":7754,"Ġtez":7755,"Ġtum":7756,"ĠtrÃ¡":7757,"untÃ³":7758,"orado":7759,"inente":7760,"inaban":7761,"Ġena":7762,"ĠenvÃŃa":7763,"Ġenorm":7764,"Ġencol":7765,"Ġencog":7766,"Ġenlace":7767,"Ġenvuelto":7768,"cialmente":7769,"cilidad":7770,"Ġlati":7771,"Ġlazos":7772,"Ġlavar":7773,"ĠnÃ¡":7774,"Ġnacer":7775,"Ã©st":7776,"Ã©tera":7777,"Ã©ramos":7778,"Ġsello":7779,"Ġsepas":7780,"Ġvemos":7781,"Ġvuestra":7782,"ĠuniÃ³n":7783,"Ġunif":7784,"Ġuniver":7785,"daga":7786,"Ġelocu":7787,"Ã¡monos":7788,"Ġconj":7789,"Ġconst":7790,"Ġconta":7791,"Ġconsa":7792,"Ġconcurso":7793,"Ġconcepto":7794,"ĠcontinÃº":7795,"alto":7796,"Ġsupe":7797,"Ġsuyos":7798,"edaba":7799,"Ġnova":7800,"Ġnovel":7801,"taca":7802,"taciones":7803,"chor":7804,"chaba":7805,"chada":7806,"roje":7807,"Ġestal":7808,"ĠestarÃ¡":7809,"Ġestimo":7810,"ĠestÃ³ma":7811,"lejo":7812,"ĠoÃŃan":7813,"Ġoyeron":7814,"didad":7815,"dicas":7816,"amba":7817,"aminaba":7818,"ustico":7819,"Ġhagan":7820,"Ġbara":7821,"Ġbigo":7822,"Ġbocado":7823,"Ġfero":7824,"Ġfru":7825,"Ġfum":7826,"ĠreÃ±":7827,"Ġrego":7828,"Ġresta":7829,"ĠreÃŃan":7830,"Ġrelam":7831,"Ġrelu":7832,"Ġresist":7833,"Ġreferir":7834,"Ġresistencia":7835,"Ġmire":7836,"Ġmiento":7837,"Ġlevi":7838,"ĠleyÃ³":7839,"Ġaltas":7840,"ticiÃ³n":7841,"titos":7842,"tividad":7843,"Ġhablas":7844,"Ġint":7845,"Ġinco":7846,"Ġindes":7847,"ĠinsistiÃ³":7848,"Ġindaga":7849,"ienda":7850,"viar":7851,"vial":7852,"Ġcump":7853,"Ġcuellos":7854,"ĠSiendo":7855,"ĠSiÃ©ntese":7856,"Ã±ando":7857,"Ã±ora":7858,"Ġdiva":7859,"Ġdistante":7860,"Ġdimen":7861,"Ġdigna":7862,"Ġdijeron":7863,"Ġdiminu":7864,"ĠRa":7865,"Ġcomb":7866,"Ġcomi":7867,"Ġcommun":7868,"ĠPres":7869,"ĠPase":7870,"ĠPhili":7871,"ĠPiense":7872,"jores":7873,"Ġdesab":7874,"Ġdesver":7875,"Ġdesqui":7876,"Ġdescri":7877,"Ġdesierta":7878,"Ġdescrib":7879,"Ġdesocupado":7880,"ĠdesdÃ©n":7881,"cula":7882,"culaciÃ³n":7883,"Ġsign":7884,"lataba":7885,"...?--":7886,"gotable":7887,"ĠEstas":7888,"Ġmejores":7889,"Ġimi":7890,"Ġiras":7891,"Ġigno":7892,"Ġmud":7893,"Ġmuec":7894,"gues":7895,"guramente":7896,"bid":7897,"bios":7898,"bidos":7899,"ecera":7900,"Ġtocar":7901,"Ġtocado":7902,"ĠAf":7903,"ĠAcu":7904,"ĠAcaso":7905,"Ġviese":7906,"Ġvigi":7907,"Ġviviendo":7908,"Ġvicioso":7909,"Ġpuro":7910,"Ġpudor":7911,"lovna":7912,"dedora":7913,"ĠexclamÃ³":7914,"Ġexcep":7915,"sima":7916,"sidera":7917,"Ġgrano":7918,"Ãºl":7919,"Ãºbi":7920,"uÃ©l":7921,"rup":7922,"este":7923,"estan":7924,"Ġhechas":7925,"caciones":7926,"liza":7927,"litud":7928,"lizar":7929,"ĠLes":7930,"ĠLida":7931,"ĠtenÃ©is":7932,"Ġcasarme":7933,"trador":7934,"Ġacre":7935,"ĠacÃ¡":7936,"Ġacero":7937,"Ġaclar":7938,"Ġacced":7939,"ume":7940,"idotshka":7941,"tarra":7942,"tarlo":7943,"Ġperf":7944,"Ġpersi":7945,"Ġpreven":7946,"Ġprecio":7947,"Ġcomodidad":7948,"Ã¡ndos":7949,"ĠquÃ©date":7950,"Ġprodi":7951,"Ġpropen":7952,"Ġproceda":7953,"Ġsobres":7954,"ĠsoÃ±ado":7955,"ĠsoÃ±ar":7956,"ĠsoÃ±aba":7957,"iores":7958,"Ġanonadado":7959,"Ġverlas":7960,"gazos":7961,"ĠCasi":7962,"ĠCiertamente":7963,"larme":7964,"Ġmaja":7965,"ĠcompÃ¡s":7966,"Ġcompasi":7967,"Ġcompuesto":7968,"rantzo":7969,"mita":7970,"micas":7971,"militud":7972,"Â»;":7973,"Â»Â¡":7974,"reno":7975,"renta":7976,"ĠMos":7977,"ĠMÃŃ":7978,"ĠMarÃŃa":7979,"Ġaplic":7980,"Ġapasi":7981,"Ġapete":7982,"ĠapatÃŃa":7983,"sposiciÃ³n":7984,"Ġdesprovi":7985,"Ġobras":7986,"Ġobrado":7987,"Ġvendido":7988,"ĠpasiÃ³n":7989,"ĠpasarÃ©":7990,"ĠIba":7991,"Ġbail":7992,"Ġbatal":7993,"ĠbaÃºl":7994,"Ġcae":7995,"Ġcator":7996,"ĠcatÃ¡":7997,"Ġmode":7998,"ĠmovÃŃa":7999,"Ġpenosos":8000,"Ġpenosamente":8001,"Ġpast":8002,"Ġpaja":8003,"Ġentrist":8004,"osimilitud":8005,"Ġdecidi":8006,"Ġsalv":8007,"ĠsalÃŃ":8008,"ĠlleguÃ©":8009,"Ġllegaban":8010,"Ġimpo":8011,"Ġimpon":8012,"ĠimpidiÃ³":8013,"Ġsensi":8014,"Ġsentir":8015,"Ġsentase":8016,"rimen":8017,"rimir":8018,"ueb":8019,"ĠcarecÃŃa":8020,"Ġexpuesto":8021,"Ġmango":8022,"Ġmanio":8023,"Ġmancha":8024,"Ġmandado":8025,"Ġhito":8026,"ĠEntrÃ³":8027,"Ġsabio":8028,"Ġsabemos":8029,"ĠPeti":8030,"derÃ¡":8031,"derle":8032,"Ġtrajo":8033,"Ġtratas":8034,"Ġtrajes":8035,"Ġfuiste":8036,"Ġpror":8037,"zadas":8038,"Ġcabecera":8039,"iÃ³dica":8040,"ĠHacÃŃa":8041,"ĠseÃ±ales":8042,"uska":8043,"ĠescÃ©p":8044,"ĠyacÃŃa":8045,"Ġarch":8046,"Ġtomaban":8047,"Ġtomaron":8048,"Ġsonar":8049,"ĠrÃŃ":8050,"Ġquim":8051,"Ġadvi":8052,"ĠsoluciÃ³n":8053,"Ġsolemn":8054,"Ġmiraron":8055,"ĠmirÃ¡ndola":8056,"Ġpica":8057,"ĠtenÃŃamos":8058,"pague":8059,"ĠEllos":8060,"Ġmendi":8061,"Ġmentir":8062,"Ġabo":8063,"Ġabstra":8064,"Ġabund":8065,"ĠintervenciÃ³n":8066,"Ġruso":8067,"Ġrumb":8068,"Ġrubio":8069,"Ġencontrase":8070,"Ġcallaba":8071,"imnas":8072,"Ġtema":8073,"Ġtemiendo":8074,"Ġtemiese":8075,"Ġpresos":8076,"Ġcortar":8077,"Ġcreen":8078,"Ġcrees":8079,"Ġentregarme":8080,"ĠpensÃ©":8081,"ĠpensarÃŃa":8082,"vantÃ³":8083,"vangel":8084,"pitos":8085,"ĠSea":8086,"ĠSepa":8087,"ĠdejarÃŃa":8088,"Ġdejase":8089,"ecimiento":8090,"Ġhaberte":8091,"Ġrota":8092,"Ġresplando":8093,"ĠrespirÃ³":8094,"Ġrespuestas":8095,"Ġmalicia":8096,"Ġtalento":8097,"Ġtaller":8098,"Ġembaraz":8099,"ĠVest":8100,"ĠsÃŃlaba":8101,"ĠpegÃ³":8102,"Ġpechera":8103,"ordÃ³":8104,"ciliaciÃ³n":8105,"Ġcamar":8106,"Ġcaminaba":8107,"Ġempa":8108,"rÃ©du":8109,"ĠextraÃ±":8110,"ĠextraÃ±os":8111,"torios":8112,"Ġrapidez":8113,"ĠcostÃ³":8114,"Ġcostaba":8115,"Ġcostase":8116,"ĠquerÃŃan":8117,"ĠquerÃŃas":8118,"Ġquerella":8119,"Ġvago":8120,"Ġvagando":8121,"Ġvayan":8122,"Ġlevantaba":8123,"Ġlevantada":8124,"Ġcuartito":8125,"Ġcuartucho":8126,"ick":8127,"lesiÃ¡":8128,"ĠÃºtiles":8129,"Ġaman":8130,"Ġamante":8131,"Ġamueb":8132,"ĠechÃ©":8133,"Ġdemuestra":8134,"Ġvehem":8135,"Ella":8136,"licas":8137,"Ġesperas":8138,"Ġcodo":8139,"Ġcopa":8140,"Ġcoinci":8141,"Ġcober":8142,"Ġcolgado":8143,"Ġforrado":8144,"Ġforzados":8145,"ĠacabarÃŃa":8146,"ĠbujÃŃa":8147,"ĠEsos":8148,"cerse":8149,"unciÃ³":8150,"ÃŃrsele":8151,"Ġprecioso":8152,"ĠprecisiÃ³n":8153,"ĠAdvierto":8154,"ĠpondrÃ©":8155,"Ġllevarla":8156,"izon":8157,"izÃ¡s":8158,"izada":8159,"cede":8160,"ĠNa":8161,"ĠNuest":8162,"Ġescaleras":8163,"Ġescalofr":8164,"Ġmarchas":8165,"Ġnecesariamente":8166,"ĠDej":8167,"preguntÃ³le":8168,"Ġllamada":8169,"ĠtemblÃ³":8170,"ĠdecÃŃan":8171,"Ġconsiente":8172,"Ġconsiste":8173,"ĠconsiguiÃ³":8174,"Ġconsidero":8175,"ĠincrÃ©du":8176,"Ġexpresarme":8177,"Ġquedaban":8178,"ĠquedÃ¡ndose":8179,"ĠpolÃŃ":8180,"Ġpolacos":8181,"Ġinstitu":8182,"Ġdeseoso":8183,"Ġacercaba":8184,"Ġacercarse":8185,"Ġtrescientos":8186,"Ġnegra":8187,"Ġinfancia":8188,"Ġinfortun":8189,"Ġinquietar":8190,"Ġacus":8191,"ĠacudiÃ³":8192,"Ġcantaban":8193,"Ã¡ndote":8194,"Ã¡ndolas":8195,"Ġchor":8196,"Ġchimen":8197,"gritan":8198,"rirse":8199,"Ġpersonalmente":8200,"Ġfalse":8201,"Ġbruto":8202,"Ġcallejeros":8203,"gible":8204,"gimiÃ³":8205,"ĠapariciÃ³n":8206,"!...--":8207,"asilio":8208,"Ġtrabajos":8209,"Ġfacilidad":8210,"ĠSuplico":8211,"Ġboda":8212,"Ġcielo":8213,"iremos":8214,"Sigue":8215,"Ġmorales":8216,"Ġburlo":8217,"Ġgritaba":8218,"Ġdiscur":8219,"Ġdiscurso":8220,"Ġtenerse":8221,"Ġplato":8222,"Ġhumill":8223,"Ã¡rsele":8224,"Ġconvencimiento":8225,"Ġconveniencias":8226,"Ġclaros":8227,"Ġsastre":8228,"Ġrecl":8229,"Ġrecom":8230,"ĠrecÃŃpro":8231,"ĠBien":8232,"ĠBasilio":8233,"ĠKhar":8234,"ĠKatia":8235,"Ġreform":8236,"ĠreconciliaciÃ³n":8237,"ĠvolverÃŃa":8238,"ĠFerme":8239,"ĠFÃŃjese":8240,"ĠFrantzo":8241,"Ġcuesta":8242,"Ġpartici":8243,"Ġvestir":8244,"Ġconduci":8245,"Ġlabor":8246,"ĠcirculaciÃ³n":8247,"Ġencontrarle":8248,"Ġencontraremos":8249,"Ġocultos":8250,"Ġdetenerme":8251,"Ġlanzado":8252,"melas":8253,"Ġentraron":8254,"Ġestrepitos":8255,"Ġdesconf":8256,"Ġdados":8257,"Ġrelacionado":8258,"Ġgustan":8259,"Ġhormi":8260,"ĠpequeÃ±as":8261,"Ġcultura":8262,"Ġpresentan":8263,"ĠUnicamente":8264,"Ġsospecho":8265,"Ġdesagrad":8266,"Ġdesahogar":8267,"ĠAndaba":8268,"Ġescuchando":8269,"ĠpÃ¡g":8270,"Ġconocerte":8271,"ĠoÃŃrlo":8272,"Ġgruesa":8273,"ĠToda":8274,"ĠTodavÃŃa":8275,"ĠcomprenderÃ¡s":8276,"ĠQuiere":8277,"Ġapople":8278,"Ġsacando":8279,"ĠcruzÃ³":8280,"Ġfrances":8281,"Ġviolentos":8282,"Ġtabla":8283,"Ġinsen":8284,"ĠtÃŃmido":8285,"ĠcometiÃ³":8286,"Ġpermiso":8287,"ĠpermitiÃ³":8288,"Ġmostrador":8289,"rillos":8290,"ĠescribiÃ³":8291,"Ã©rdate":8292,"ĠinvitÃ³":8293,"Ġexperimentando":8294,"Ġagres":8295,"Ġnegoci":8296,"Ġconociese":8297,"Ġrecoger":8298,"Ġsituado":8299,"Ġhonrada":8300,"Ġencuentras":8301,"Ġdejarlo":8302,"Ġaproximaba":8303,"Ġconfidencias":8304,"Ġprofeso":8305,"Ġparticularidad":8306,"ĠofreciÃ³":8307,"Ġasegura":8308,"Ġcuader":8309,"apÃ¡":8310,"Ġocupaban":8311,"Ġcontemplando":8312,"Ġexaminado":8313,"ĠHabiendo":8314,"dezco":8315,"Ġposada":8316,"ĠseparÃ³":8317,"Ġseparaba":8318,"Ġeleva":8319,"Ġsignifican":8320,"ĠcreerÃ¡":8321,"Ġdeclaro":8322,"Ġdeclarar":8323,"Ġdeclarado":8324,"Cualquiera":8325,"Ġatrajo":8326,"Ġmolesto":8327,"ĠobservÃ³":8328,"Ġemplear":8329,"Ġbuscarme":8330,"Ġalegro":8331,"Ġgeneroso":8332,"Ġdifunta":8333,"Ġdelib":8334,"Ġdeliro":8335,"Ġdelica":8336,"ĠinterrumpiÃ©ndose":8337,"Ġinclinado":8338,"Ġreflexionaba":8339,"Ġpiense":8340,"ĠproducÃŃa":8341,"Ġproducir":8342,"Ġprodujeron":8343,"Ġinterrogaba":8344,"Ġinterrogarme":8345,"ĠinterrogÃ¡ndole":8346,"Ġreno":8347,"Ġbillar":8348,"Ġfundado":8349,"Ġfunesta":8350,"Ġmiramientos":8351,"Ġextraordinarias":8352,"Ġasesinatos":8353,"Ġafron":8354,"Ġafrenta":8355,"Ġagudo":8356,"Ġagudeza":8357,"Ġaceite":8358,"Ġservido":8359,"ĠservirÃŃa":8360,"ĠservirÃ¡":8361,"Ġempezar":8362,"ĠseÃ±alÃ³":8363,"Ġconsidere":8364,"Ġpreocupada":8365,"Ġpreocuparse":8366,"Ġgolpea":8367,"Ġpintura":8368,"Ġpintada":8369,"ĠcientÃŃ":8370,"Ġinmediato":8371,"ĠentendÃŃa":8372,"ĠencarÃ¡ndose":8373,"Ġprobado":8374,"Ġprobabilidad":8375,"Ġreconociendo":8376,"Ġbilletito":8377,"Ġbrillante":8378,"Ġrevela":8379,"Ġdestro":8380,"ĠacostÃ³":8381,"Ġacostarse":8382,"ĠpronunciÃ³":8383,"Ġpronunciada":8384,"Ġfuertemente":8385,"Ġterriblemente":8386,"Ġaceptaba":8387,"ĠJu":8388,"Ġpleno":8389,"ĠestÃ©tica":8390,"Ġsaludar":8391,"Ġadvirtiendo":8392,"hay":8393,"Ġaudi":8394,"Ġenteros":8395,"Ġsupone":8396,"ĠsucediÃ³":8397,"bale":8398,"Ġtapa":8399,"Ġligeros":8400,"Ġdescubrim":8401,"ĠdescubrÃŃa":8402,"Ġelegir":8403,"Ġosten":8404,"Ġevidencia":8405,"Ġconvicciones":8406,"Ġdirectamente":8407,"ĠsimpatÃŃas":8408,"Ġexacto":8409,"ĠobligÃ³":8410,"Ġinteresan":8411,"Ġcolocados":8412,"Ġadvertirlo":8413,"Ġarreglando":8414,"ĠacompaÃ±Ã³":8415,"ĠacompaÃ±amiento":8416,"Ġdeshacer":8417,"Ġpertenecen":8418,"Ġaprecia":8419,"Ġapretaba":8420,"Ġexplicarle":8421,"ĠetcÃ©tera":8422,"Ġsecretario":8423,"Ġcomunes":8424,"Ġmanifestar":8425,"Ġjuzgaba":8426,"Ġsignificativo":8427,"Ġrecurrir":8428,"Ġprocurar":8429,"Ġcolocarse":8430,"ĠolvidÃ³":8431,"Ġestrecharon":8432,"Ġpeligrosa":8433,"Ġdolorosamente":8434,"Ġdudas":8435,"Ġreunidas":8436,"ĠreparÃ³":8437,"Ġresuelta":8438,"Ġresueltamente":8439,"Ġgozoso":8440,"Ġllenaba":8441,"Ġlimito":8442,"ĠlimitÃ³":8443,"ĠlimitÃ©":8444,"Ġresultaba":8445,"ĠdistraÃŃda":8446,"ĠburlÃ¡ndose":8447,"Ġasombrosa":8448,"Ġusada":8449,"Ġtrasla":8450,"ĠPeriÃ³dica":8451,"Ġignoro":8452,"Ġmisericor":8453,"ĠempeÃ±o":8454,"ĠempeÃ±ados":8455,"ĠhabrÃŃas":8456,"Ġrodea":8457,"Ġrodeaba":8458,"ĠpreguntarÃ¡":8459,"Ġdesconocida":8460,"Ġhonorarios":8461,"Ġebria":8462,"ĠavergÃ¼enza":8463,"Ġpesadamente":8464,"Ġodiosa":8465,"Ġdisipa":8466,"Ġvivacidad":8467,"Ġexcelentes":8468,"Ġincomode":8469,"Ġtranquilizado":8470,"Ġinsultos":8471,"Ġinsultado":8472,"Ġabsurda":8473,"mÃ¡tica":8474,"Ġerrores":8475,"Ġalterna":8476,"Ġaltercado":8477,"ĠsirviÃ³":8478,"Ġpropone":8479,"Ġimpaciente":8480,"Ġabriendo":8481,"Ġcampesinos":8482,"Ġfavorable":8483,"Ġdesconfiado":8484,"ĠataÃºd":8485,"Ġlargos":8486,"sterio":8487,"Ġcondenada":8488,"Ġleyendo":8489,"Ġexcitado":8490,"ĠexcitaciÃ³n":8491,"Ġexcitados":8492,"ĠpaÃ±ol":8493,"Ġdenunciaba":8494,"Ġincorporarse":8495,"tinas":8496,"Ġdulc":8497,"Ġasilo":8498,"ĠagarrÃ³":8499,"Ġindeci":8500,"Ġindecible":8501,"Ġinspir":8502,"ĠvacilÃ³":8503,"Ġcobardes":8504,"Ġorigen":8505,"Ġocultarlo":8506,"Ġautoridad":8507,"ĠautorizaciÃ³n":8508,"ĠenseÃ±ado":8509,"Ġfango":8510,"ĠRevista":8511,"ĠReflexion":8512,"ĠDice":8513,"ĠperdÃ³neme":8514,"Ġalejado":8515,"ĠalejÃ¡ndose":8516,"Ġtristes":8517,"Ġtristemente":8518,"Ġapoyada":8519,"Antes":8520,"AndrÃ©s":8521,"Ġevitaba":8522,"Ġevitando":8523,"Ġtoser":8524,"Ġsueldos":8525,"ĠfrÃŃamente":8526,"Ġrefiero":8527,"ĠPasÃ³":8528,"ĠExperimentaba":8529,"Ġacongo":8530,"Ġsociales":8531,"ĠprÃ³j":8532,"Ġfiguraba":8533,"ĠguiÃ±Ã³":8534,"Ġapoderarse":8535,"Ġfrescura":8536,"Ġfirmar":8537,"Ġrechazar":8538,"Ġmisterioso":8539,"Ġmisteriosas":8540,"ĠalcanzÃ³":8541,"Ġgroseramente":8542,"ĠobedeciÃ³":8543,"ĠVakru":8544,"ĠreconocÃŃa":8545,"ĠdesapareciÃ³":8546,"Ġrazonar":8547,"ĠtÃ©rmino":8548,"Muchas":8549,"Ġprenda":8550,"Ġcentro":8551,"Ġcediendo":8552,"ensaba":8553,"strofe":8554,"Ġconmovido":8555,"ĠrealizaciÃ³n":8556,"Ġdesgarrada":8557,"Ġrecibimiento":8558,"Ġtriunfar":8559,"Ġsofocado":8560,"ĠengaÃ±arme":8561,"Ġinclinarse":8562,"Ġrepresentar":8563,"Ġinsignificantes":8564,"ParecÃŃa":8565,"ĠdueÃ±a":8566,"ĠcÃ¡lculos":8567,"ĠalucinaciÃ³n":8568,"ĠpermÃŃtanme":8569,"Ġpretende":8570,"Ġrepetir":8571,"Ġademanes":8572,"Ġpresidi":8573,"Ġtuvimos":8574,"Ġlibrarse":8575,"Ġinterrogatorios":8576,"Ġaterrada":8577,"Ġaterrado":8578,"ĠcontribuÃŃdo":8579,"ĠcontribuyÃ³":8580,"Ġflore":8581,"Ġretirado":8582,"Ġingenioso":8583,"Ġdiferencia":8584,"ĠPrecisamente":8585,"Ġexasp":8586,"Ġventajas":8587,"Ġvendedor":8588,"Ġhiciese":8589,"Ġreprodu":8590,"ĠVivo":8591,"ĠVivÃŃa":8592,"Ġapresurar":8593,"Ġmostrarse":8594,"Ġeterno":8595,"Ġinadver":8596,"Ġinagotable":8597,"ĠcuÃ¡ntas":8598,"Ġdesnudos":8599,"Ġgaran":8600,"teriores":8601,"Ġobtenido":8602,"Ġcapaces":8603,"Ġimpertin":8604,"ĠprÃ¡ctico":8605,"ĠocupaciÃ³n":8606,"Ġocupaciones":8607,"Ġsospechaba":8608,"Ġsospechoso":8609,"ĠQuiso":8610,"ĠfranqueÃ³":8611,"Ġcomprometido":8612,"Ġdesignios":8613,"PerdÃ³neme":8614,"puf":8615,"triz":8616,"ĠuÃ±as":8617,"Ġdudaba":8618,"Ġsesos":8619,"Ġvosotras":8620,"ĠbenÃ©vol":8621,"Ġborde":8622,"Ġborrar":8623,"Ġactualidad":8624,"Ġprovocado":8625,"Ġansiedad":8626,"Ġimprudente":8627,"Ġimprudencia":8628,"Ġmentales":8629,"ĠVeÃŃa":8630,"Ġenfermiza":8631,"Ġenfermizo":8632,"Ġenfermizos":8633,"Ġinfamias":8634,"Ġofender":8635,"Ġofendido":8636,"Ġacostumbrada":8637,"idan":8638,"Ġdoce":8639,"Ġacogida":8640,"ĠlÃŃnea":8641,"ĠmÃºsicos":8642,"ĠfÃŃsico":8643,"Ġresign":8644,"Ġalrededores":8645,"Ġinvesti":8646,"Ġsiguiendo":8647,"Ġmeterme":8648,"Ġgalope":8649,"Ġsinceridad":8650,"Ġprevisto":8651,"ĠprevisiÃ³n":8652,"Ġdespedida":8653,"ĠvenderÃŃa":8654,"Ġpromesa":8655,"Ġpromesas":8656,"ĠruborizÃ³":8657,"ĠtÃŃtulos":8658,"Ġcuadro":8659,"ĠcomunicaciÃ³n":8660,"ĠcategorÃŃas":8661,"Ġrestablecer":8662,"Ġafei":8663,"Ġafeitado":8664,"Ġcubiertos":8665,"ĠCreyÃ³":8666,"Ġasaltado":8667,"Ġcallaron":8668,"Ġestuviera":8669,"ĠcharlatÃ¡n":8670,"Ġmorboso":8671,"ĠdisponÃŃan":8672,"Ġcontestar":8673,"ĠcontestÃ³":8674,"ĠatreverÃŃa":8675,"Ġindependiente":8676,"ĠprÃ³ximo":8677,"ĠÃŃntimas":8678,"ĠdepositÃ³":8679,"Ġnecedades":8680,"VÃ¡monos":8681,"VÃ¡yase":8682,"Ġagradaba":8683,"Ġinesperado":8684,"ĠdescendiÃ³":8685,"Ġsocorro":8686,"Ġsocorrer":8687,"ĠtraducciÃ³n":8688,"Ġarrugas":8689,"ĠVolviendo":8690,"Ġrecomenda":8691,"Ġescribientes":8692,"Ġcaprich":8693,"Ġcucharadas":8694,"ĠhipocondrÃŃaco":8695,"VendrÃ¡s":8696,"Ġdetuvieron":8697,"ĠcÃ¡ndidamente":8698,"Ġtormentos":8699,"chiuska":8700,"Ġlejano":8701,"Ġlejana":8702,"ĠdiciÃ©ndome":8703,"Ġcomienzos":8704,"ĠpredisposiciÃ³n":8705,"Ġobligada":8706,"ĠTemb":8707,"Ġmentira":8708,"Ġinfinita":8709,"ĠpequeÃ±uela":8710,"Ġarrepentimiento":8711,"Ġimpresionado":8712,"Ġafirmar":8713,"Ġcelebr":8714,"ĠhuÃ©spedes":8715,"Ġequivalente":8716,"Ġacariciado":8717,"Ġininteligible":8718,"Ġininteligibles":8719,"SaliÃ³":8720,"Ġdenotaba":8721,"ĠpestaÃ±e":8722,"Ġmelan":8723,"Ġnarices":8724,"Ġrevendedora":8725,"Ġalumbraba":8726,"Ġintimi":8727,"ĠPavlovna":8728,"Ġmuestra":8729,"Ġvivienda":8730,"Ġperturbado":8731,"Ġpremeditado":8732,"Ġmodernas":8733,"Ġsollozando":8734,"Ġcalculado":8735,"Ġpresunciones":8736,"Ġmediante":8737,"Ġdecorador":8738,"ĠdecÃŃrtelo":8739,"ĠconsistÃŃa":8740,"Ġinsensato":8741,"Ġmillones":8742,"Ġformular":8743,"ĠestÃºpidas":8744,"suplicÃ³":8745,"Ġorganillero":8746,"ĠencaminÃ³":8747,"ĠlegÃŃtima":8748,"cripciÃ³n":8749,"ĠinvestigaciÃ³n":8750,"ĠrelÃ¡mpago":8751,"Acab":8752,"Buena":8753,"ĠWa":8754,"Ġpiata":8755,"ĠcÃ³micas":8756,"ĠcÃ¡ustico":8757,"Ġviniese":8758,"Ġconferencia":8759,"Ġsucesivo":8760,"ĠhaciÃ©ndole":8761,"Ġretroced":8762,"Ġretraso":8763,"Ġincidentes":8764,"Ġcubeta":8765,"Ġdijiste":8766,"Ġdirijo":8767,"Ġmuriese":8768,"ĠAparte":8769,"Ġtentativa":8770,"Ġanduvo":8771,"Ġceremonia":8772,"Dejadme":8773,"Ġbrillaron":8774,"Ġentiendes":8775,"ĠcariÃ±oso":8776,"ĠReconozco":8777,"Ġreanudar":8778,"Ġbeneficios":8779,"Ġinvoluntariamente":8780,"ĠeclesiÃ¡":8781,"ĠcÃŃnico":8782,"Ġenganchar":8783,"Ġseveramente":8784,"Ġsepulcro":8785,"Ġsupremo":8786,"Ġojillos":8787,"Ġbordes":8788,"Ġvidrio":8789,"Ġdespistado":8790,"ĠcafetÃŃn":8791,"Ġimposibilidad":8792,"Ġcarruaje":8793,"Ġtrampas":8794,"Ġcertificado":8795,"Ġcerciorarse":8796,"Ġrojiz":8797,"Ġrecalcando":8798,"Ġsentimental":8799,"Ġnegligentemente":8800,"Ġcocinera":8801,"Ġequivocado":8802,"Ġencrucijada":8803,"Ġilustrado":8804,"Ġventajoso":8805,"Ġsarcasmos":8806,"CÃ¡llese":8807,"Demonio":8808,"ĠclÃ©rigo":8809,"Ġmonasterio":8810,"Ġtabaco":8811,"Ġencoler":8812,"Ġlatigazos":8813,"Ġuniforme":8814,"Ġelocuencia":8815,"Ġconsag":8816,"ĠestÃ³mago":8817,"Ġferoz":8818,"Ġregoci":8819,"Ġrelampague":8820,"Ġincoher":8821,"Ġindagatoria":8822,"Ġdimensiones":8823,"Ġcommune":8824,"ĠPhilipo":8825,"Ġdesvergon":8826,"Ġsignos":8827,"Ġirascible":8828,"Ġignore":8829,"Ġmajader":8830,"Ġcatorce":8831,"ĠcatÃ¡strofe":8832,"ĠentristecÃŃa":8833,"ĠescÃ©ptico":8834,"vangelio":8835,"Ġresplandor":8836,"Ġvehemencia":8837,"Ġcoincidencia":8838,"Ġcobertizo":8839,"Ġinstitutriz":8840,"Ġchimenea":8841,"ĠFrantzovna":8842,"ĠapoplejÃŃa":8843,"Ġafrontar":8844,"ĠeclesiÃ¡stico":8845,"!;":8846,")--":8847,")--,":8848,".;":8849,"20":8850,"?;":8851,"Abre":8852,"Alaba":8853,"Adiv":8854,"Abri":8855,"Ases":8856,"Bien":8857,"Cada":8858,"Cinco":8859,"Ciertamente":8860,"Comenzaba":8861,"Des":8862,"Dic":8863,"DÃ¡mel":8864,"Han":8865,"Hombre":8866,"Hall":8867,"IrÃ©":8868,"Mal":8869,"Miente":8870,"MamÃ¡":8871,"Mit":8872,"Natura":8873,"Pre":8874,"PapÃ¡":8875,"Pensaba":8876,"Sol":8877,"TA":8878,"Tem":8879,"Tanto":8880,"Vi":8881,"Vete":8882,"VerÃ¡":8883,"VII":8884,"Zosimoff":8885,"],":8886,"ate":8887,"atch":8888,"adas":8889,"adre":8890,"agre":8891,"bia":8892,"brio":8893,"bÃ©r":8894,"cl":8895,"cÃ¡":8896,"cencia":8897,"ctor":8898,"centes":8899,"ctur":8900,"ctora":8901,"dÃº":8902,"dario":8903,"darme":8904,"decer":8905,"dÃŃsimo":8906,"fo":8907,"fu":8908,"fos":8909,"gÃ¡":8910,"gia":8911,"gru":8912,"gil":8913,"gosa":8914,"game":8915,"glÃ©s":8916,"hur":8917,"homa":8918,"hacer":8919,"iar":8920,"ijo":8921,"irado":8922,"just":8923,"josa":8924,"jamÃ¡s":8925,"jesen":8926,"kas":8927,"kli":8928,"mÃ©":8929,"mir":8930,"marse":8931,"mul":8932,"mase":8933,"media":8934,"nal":8935,"niente":8936,"oh":8937,"ocia":8938,"pl":8939,"pÃŃa":8940,"pada":8941,"piento":8942,"pelo":8943,"plica":8944,"pinadamente":8945,"rom":8946,"rgu":8947,"rru":8948,"rarÃ¡":8949,"rarÃ©":8950,"rarle":8951,"rerÃŃa":8952,"sen":8953,"sÃ©":8954,"sol":8955,"sada":8956,"sales":8957,"tino":8958,"tabas":8959,"tÃŃase":8960,"up":8961,"uja":8962,"vÃ©":8963,"vamos":8964,"vemente":8965,"wton":8966,"yen":8967,"yese":8968,"yendo":8969,"yamos":8970,"zte":8971,"zante":8972,"zones":8973,"zosa":8974,"zuel":8975,"zcan":8976,"zura":8977,"Ġ5":8978,"ĠÃŃ":8979,"ĠrÃŃa":8980,"Ġoso":8981,"Ġego":8982,"Ġeco":8983,"Ġecho":8984,"Ġemi":8985,"Ġerig":8986,"Ġedito":8987,"Ġdudo":8988,"Ġaur":8989,"Ġatado":8990,"Ġsano":8991,"Ġdeca":8992,"Ġdesta":8993,"Ġdeudo":8994,"Ġdevuel":8995,"ĠdevolviÃ³":8996,"Ġdebiera":8997,"Ġdelataba":8998,"Ġlentos":8999,"Ġlison":9000,"Ġpest":9001,"ĠpÃ¡n":9002,"Ġcaz":9003,"Ġcand":9004,"Ġcesa":9005,"ĠcÃ¡p":9006,"Ġcaza":9007,"erla":9008,"ervo":9009,"erten":9010,"erus":9011,"enci":9012,"enme":9013,"enitch":9014,"osch":9015,"ostura":9016,"quer":9017,"ĠmÃ¡":9018,"Ġmina":9019,"Ġmord":9020,"ĠmÃ¡r":9021,"are":9022,"star":9023,"stim":9024,"stici":9025,"onamente":9026,"onarios":9027,"Ã³so":9028,"Ã³cil":9029,"ÃŃto":9030,"ÃŃsta":9031,"ÃŃza":9032,"ÃŃdamente":9033,"ÃŃvol":9034,"ÃŃcara":9035,"ÃŃjate":9036,"rejas":9037,"Ġhar":9038,"Ġhin":9039,"Ġhem":9040,"ĠhÃºm":9041,"ĠtÃ³":9042,"Ġtun":9043,"Ġtin":9044,"ĠtrÃ©":9045,"Ġtrib":9046,"ĠtÃ¡c":9047,"Ġtrab":9048,"abÃ³":9049,"abil":9050,"aball":9051,"orgu":9052,"Ġquede":9053,"ine":9054,"incu":9055,"ingun":9056,"Ġenca":9057,"Ġenven":9058,"Ġenoj":9059,"Ġenvuel":9060,"Ġentrase":9061,"Ġenroje":9062,"Ġenorgu":9063,"ciable":9064,"cientes":9065,"cientemente":9066,"Ġlad":9067,"Ġlam":9068,"Ġlastim":9069,"teo":9070,"tear":9071,"temÃ¡tica":9072,"Ġnatal":9073,"Ġnub":9074,"esgo":9075,"Ã©mos":9076,"Ġsecos":9077,"Ġvana":9078,"Ġvienen":9079,"Ġune":9080,"ÃŃamos":9081,"dame":9082,"damos":9083,"Ġelo":9084,"rame":9085,"Ã¡li":9086,"Ã¡tico":9087,"Ġconqui":9088,"Ġconces":9089,"Ġcontuvo":9090,"Ġconcen":9091,"Ġcontarle":9092,"Ġcondec":9093,"ĠcontÃ¡rselo":9094,"aldo":9095,"alla":9096,"alÃ©n":9097,"omas":9098,"omin":9099,"Ġsuble":9100,"Ġsuciedad":9101,"Ġsucesos":9102,"Ġsuavi":9103,"edic":9104,"Ġesqui":9105,"Ġnotas":9106,"Ġnovia":9107,"Ġnoctur":9108,"ris":9109,"ritos":9110,"riles":9111,"rimida":9112,"taÃ±a":9113,"chu":9114,"chtch":9115,"chame":9116,"rochado":9117,"Ġestor":9118,"Ġestran":9119,"ĠestarÃ©":9120,"....":9121,"oles":9122,"olle":9123,"lej":9124,"Ġoig":9125,"didas":9126,"dimientos":9127,"dientemente":9128,"diÃ©ndo":9129,"ambr":9130,"amelo":9131,"amantes":9132,"Ġhaz":9133,"Ġhagas":9134,"Ġbi":9135,"Ġbri":9136,"Ġbesa":9137,"Ġbala":9138,"Ġbili":9139,"Ġfo":9140,"Ġfem":9141,"Ġfaz":9142,"Ġfren":9143,"Ġfina":9144,"Ġfea":9145,"Ġfog":9146,"ĠfÃ³r":9147,"Ġfolle":9148,"Ġrez":9149,"Ġrema":9150,"Ġremi":9151,"Ġreba":9152,"Ġrefer":9153,"Ġreinar":9154,"Ġrezar":9155,"Ġreemp":9156,"Ġreinaba":9157,"Ġrestos":9158,"Ġmiras":9159,"Ġleve":9160,"ĠlevÃ¡n":9161,"Ġlechu":9162,"Ġalf":9163,"Ġalfi":9164,"Ġalqui":9165,"Ġaltera":9166,"tigu":9167,"tidas":9168,"tiese":9169,"tirÃŃa":9170,"tieron":9171,"tilla":9172,"tillo":9173,"tilidad":9174,"ticos":9175,"tidumbre":9176,"Ġhabit":9177,"Ġinfi":9178,"Ġinver":9179,"Ġindu":9180,"Ġingra":9181,"Ġincul":9182,"Ġinsistencia":9183,"ĠporciÃ³n":9184,"Ġportado":9185,"vistas":9186,"vision":9187,"Ġlocu":9188,"Ġcue":9189,"Ġcuente":9190,"Ġcuida":9191,"Ġcuchar":9192,"ĠcubrÃŃa":9193,"Ġcuyas":9194,"Ġparar":9195,"elos":9196,"eles":9197,"elero":9198,"elipe":9199,"ĠSal":9200,"ĠSue":9201,"ĠSiento":9202,"ĠSacÃ³":9203,"Ã±ique":9204,"Ġdichas":9205,"ĠdirÃ¡s":9206,"Ġdijese":9207,"ĠdiciÃ©ndose":9208,"ĠdirÃ¡n":9209,"Ġdiamantes":9210,"Ġcomme":9211,"ĠcomiÃ³":9212,"Ġcomedia":9213,"ĠPido":9214,"ĠPerman":9215,"Ġdesol":9216,"Ġdesdi":9217,"Ġdesna":9218,"Ġdesven":9219,"cup":9220,"cuÃ¡l":9221,"cuÃ¡nto":9222,"Ġsiervo":9223,"lacial":9224,"lacablemente":9225,"Ã¡sate":9226,"ĠEch":9227,"ĠEvangelio":9228,"Ġmeda":9229,"ĠmeÃ±ique":9230,"Ġmuch":9231,"Ġmuro":9232,"Ġmutu":9233,"Ġmudado":9234,"guo":9235,"gura":9236,"guÃ¡n":9237,"gulos":9238,"guito":9239,"gulado":9240,"seÃ±al":9241,"biado":9242,"billa":9243,"biertas":9244,"ecerse":9245,"ecÃ©is":9246,"Ġtotal":9247,"Ġtocante":9248,"Ġtoalla":9249,"ĠAs":9250,"ĠAsegu":9251,"ĠAzte":9252,"Ġviera":9253,"Ġvice":9254,"Ġvives":9255,"Ġvivos":9256,"Ġviviese":9257,"Ġvivido":9258,"Ġvigil":9259,"Ġpuer":9260,"ĠpuÃ±o":9261,"Ġpuramente":9262,"Ġpuestos":9263,"Ġpureza":9264,"Ġpupil":9265,"eratura":9266,"eradamente":9267,"Ġdelici":9268,"Ġdelincu":9269,"Ġexcepto":9270,"siera":9271,"dadas":9272,"Ġglo":9273,"Ġgest":9274,"Ġgras":9275,"Ġglor":9276,"Ġglacial":9277,"cou":9278,"Ãºrese":9279,"nate":9280,"estas":9281,"caz":9282,"licar":9283,"lizado":9284,"librio":9285,"ĠDarÃŃa":9286,"ĠDere":9287,"ĠDÃ©j":9288,"ĠDentro":9289,"ĠDÃ©me":9290,"mposible":9291,"mpara":9292,"chores":9293,"ĠLlam":9294,"ĠLidotshka":9295,"ĠmÃ¡scara":9296,"Ġsinti":9297,"Ġsintiendo":9298,"Ġteneb":9299,"ĠtendÃŃa":9300,"ĠtendrÃ¡s":9301,"ĠtendrÃ¡n":9302,"Ġtendero":9303,"venÃŃa":9304,"Ġpoyo":9305,"Ġacaban":9306,"Ġaccesos":9307,"Ġactividad":9308,"teros":9309,"terÃŃas":9310,"umbr":9311,"irÃ©":9312,"irÃŃa":9313,"irlo":9314,"irgen":9315,"taremos":9316,"Ġprevenir":9317,"ĠÃ©stas":9318,"Ã¡nime":9319,"tuita":9320,"Ġprofi":9321,"Ġproble":9322,"Ġpropa":9323,"Ġprocura":9324,"Ġprovision":9325,"ĠprovenÃŃa":9326,"Ġsois":9327,"Ġsober":9328,"ficas":9329,"stachiuska":9330,"Ã©nseme":9331,"oraciÃ³n":9332,"Ġancha":9333,"Ġanilla":9334,"Ġandra":9335,"ĠanÃ¡lo":9336,"Ġanteriores":9337,"Ġangulos":9338,"Ġjoyas":9339,"Ġjovial":9340,"ĠverÃ©":9341,"Ġvercho":9342,"Ġverter":9343,"Ġverdu":9344,"Ġvernos":9345,"ĠversÃŃ":9346,"Ġverosimilitud":9347,"Ġjovencita":9348,"ĠCa":9349,"ĠCer":9350,"ĠCor":9351,"ĠCom":9352,"ĠComen":9353,"ĠComenzÃ³":9354,"ĠCristo":9355,"ĠCog":9356,"ĠCarlos":9357,"contrar":9358,"Ġased":9359,"Ġasiendo":9360,"Ġasoci":9361,"Ġasocia":9362,"Ġmatarle":9363,"Ġmadru":9364,"ĠmatemÃ¡tica":9365,"Ġjab":9366,"ĠjurÃ³":9367,"Ġjarro":9368,"ĠjÃºbi":9369,"ieran":9370,"tcha":9371,"Ġcompras":9372,"Ġcompostura":9373,"mis":9374,"Â»Â¿":9375,"Ġservid":9376,"Ġserias":9377,"Ġserie":9378,"Ġseriedad":9379,"azo":9380,"azos":9381,"azas":9382,"rense":9383,"ĠMamÃ¡":9384,"ĠMirÃ³":9385,"Ġespina":9386,"Ġespesa":9387,"Ġespesas":9388,"Ġapa":9389,"Ġapri":9390,"Ġapel":9391,"ĠaplicÃ³":9392,"Ġapuro":9393,"Ġdespi":9394,"ĠdespidiÃ³":9395,"Ġtitu":9396,"Ġvenda":9397,"ĠvenÃŃan":9398,"Ġventura":9399,"Ġvencer":9400,"Ġvengarse":9401,"inaciones":9402,"Ġpasando":9403,"Ġpasaron":9404,"Ġpasase":9405,"ĠpasarÃ¡":9406,"ĠIr":9407,"ĠIrÃ©":9408,"Ġbati":9409,"Ġbaile":9410,"Ġcau":9411,"ĠcaÃŃ":9412,"ĠcaÃ±":9413,"Ġcaerse":9414,"Ġhumo":9415,"Ġhuerto":9416,"Ġhueco":9417,"Ġmoce":9418,"Ġmodifi":9419,"Ġmodest":9420,"Ġpenco":9421,"Ġpata":9422,"Ġpaga":9423,"ĠpaÃ±o":9424,"Ġpagado":9425,"Ġpagaba":9426,"Ġpaciente":9427,"ĠpadecÃŃa":9428,"Ġpapelo":9429,"Ġentona":9430,"ĠdecisiÃ³n":9431,"Ġdecisiva":9432,"Ġsalen":9433,"Ġsalvo":9434,"ĠsaltÃ³":9435,"Ġsaltaba":9436,"Ġsaltando":9437,"Ġsaludo":9438,"ĠsaldrÃ¡":9439,"jados":9440,"Ġllevan":9441,"Ġimpu":9442,"Ġimpud":9443,"Ġimpidan":9444,"Ġimplacablemente":9445,"Ġsensa":9446,"Ġsentaba":9447,"Ġsentadas":9448,"Ġsencillo":9449,"Ġhomena":9450,"Ġcaro":9451,"Ġcarga":9452,"Ġcaridad":9453,"Ġcartilla":9454,"ĠTol":9455,"ĠTres":9456,"ĠTanto":9457,"ĠTome":9458,"ĠTÃ³mal":9459,"Ġmanto":9460,"Ġmandar":9461,"Ġmangas":9462,"ĠmandÃ³":9463,"ĠhiriÃ³":9464,"Ġhijas":9465,"ĠsabÃŃas":9466,"ĠsabrÃ©":9467,"Ġpalmo":9468,"deros":9469,"derse":9470,"Ġestatu":9471,"chate":9472,"QuÃ©dese":9473,"ĠmÃŃas":9474,"Ġtrago":9475,"Ġtrapo":9476,"Ġtratase":9477,"Ġtrapos":9478,"Ġdeciros":9479,"Ġfuga":9480,"Ġfuria":9481,"ĠprÃ©st":9482,"Ġnie":9483,"Ġnihili":9484,"Ġrepas":9485,"Ġrepren":9486,"ĠseguÃŃan":9487,"Ġseguidos":9488,"ĠpalabrerÃŃa":9489,"lamoff":9490,"lamiento":9491,"ĠHoy":9492,"mbÃ©cil":9493,"ĠseÃ±a":9494,"garÃ¡":9495,"garia":9496,"Ġbienestar":9497,"Ġsobrehum":9498,"Ġhubieras":9499,"ĠhubiÃ©rase":9500,"ermÃŃtanme":9501,"Ġarmas":9502,"Ġardientes":9503,"Ġartel":9504,"Ġtomarle":9505,"ĠsonÃ³":9506,"Ġsonora":9507,"Ġrar":9508,"Ġrosa":9509,"Ġadu":9510,"Ġadrede":9511,"Ġmirarla":9512,"ĠIvan":9513,"bata":9514,"Ġpipa":9515,"Ġirte":9516,"Ã±adas":9517,"ĠmentÃŃa":9518,"Ġabne":9519,"Ġabertura":9520,"Ġinterpel":9521,"Ġintereso":9522,"Ġinterrup":9523,"peda":9524,"Ġrusa":9525,"Ġrumor":9526,"udable":9527,"caron":9528,"carÃ¡":9529,"Ġcalidad":9530,"Ġcalifi":9531,"Ġcallado":9532,"Ġcallarse":9533,"ĠestÃ¡bamos":9534,"imientos":9535,"Ġtempr":9536,"Ġtemper":9537,"Ġtemores":9538,"Ġpresur":9539,"Ġpresum":9540,"Ġpresintiendo":9541,"Ġcorro":9542,"Ġcorreo":9543,"ĠcorrÃŃan":9544,"Ġcortinas":9545,"Ġcorbata":9546,"ĠtubÃ©r":9547,"Ġcrean":9548,"ĠcreÃŃan":9549,"ĠentreguÃ©":9550,"Ġentrevistas":9551,"Ġhermosos":9552,"Ġvolvi":9553,"ĠvolvÃŃ":9554,"Ã±ores":9555,"piz":9556,"Ġcomprendes":9557,"veÃŃa":9558,"isk":9559,"ĠSeis":9560,"acabÃ³":9561,"Ġdejaban":9562,"Ġdejemos":9563,"stantes":9564,"ecillo":9565,"ecidamente":9566,"Ġcerdo":9567,"ocÃŃa":9568,"Ġrojos":9569,"Ġropas":9570,"Ġrespirando":9571,"Ġrespland":9572,"Ġrespaldo":9573,"ĠpodrÃŃas":9574,"Ġpreguntarle":9575,"Ġmalas":9576,"Ġmalvado":9577,"Ġtalones":9578,"Ġemba":9579,"Ġemborra":9580,"moslo":9581,"porque":9582,"Ġcierra":9583,"Ġlibres":9584,"Ġliebre":9585,"Ġlitera":9586,"ĠVan":9587,"ĠVuel":9588,"ĠVirgen":9589,"Ġpega":9590,"ĠpeticiÃ³n":9591,"Ġpuedas":9592,"Ġfiesta":9593,"lexible":9594,"Ġverdaderos":9595,"Ġverdaderas":9596,"Ġjugu":9597,"Ġjuici":9598,"Ġemper":9599,"Ġempieza":9600,"Ġextravi":9601,"Ġextrava":9602,"toriamente":9603,"Ġray":9604,"Ġdirige":9605,"Ġdirigida":9606,"Ġdirigiendo":9607,"Ġdirigirme":9608,"Ġcosta":9609,"ĠcostarÃ¡":9610,"Esas":9611,"Ġvagar":9612,"Ġvagaba":9613,"ĠvaciÃ³":9614,"Ġvagas":9615,"ĠRomeo":9616,"Ġamas":9617,"Ġamargo":9618,"Ġechando":9619,"ĠechÃ¡ndose":9620,"Ġecharon":9621,"ĠecharÃ©":9622,"ĠechÃ¡r":9623,"Ġveas":9624,"ĠZara":9625,"ĠdebÃŃan":9626,"Ġnace":9627,"Ġnacido":9628,"Ġespere":9629,"Ġamistos":9630,"Ġamiguito":9631,"Ġcojo":9632,"Ġcohom":9633,"ĠcolaciÃ³n":9634,"ĠdesdeÃ±":9635,"Ġbutaca":9636,"ĠÃºltimamente":9637,"Ġhablan":9638,"cerca":9639,"grafÃŃa":9640,"ĠvisitÃ³":9641,"Ġvisitaba":9642,"Ġfinal":9643,"SeÃ±ora":9644,"ÃŃrselo":9645,"yeran":9646,"Ġdarte":9647,"Ġdarles":9648,"tirte":9649,"Ġponga":9650,"ĠponÃŃan":9651,"ĠAllÃ¡":9652,"Ġresen":9653,"Ġresuci":9654,"Ġresonaban":9655,"Ġllevaban":9656,"Ġllevarse":9657,"ĠllevarÃ¡":9658,"Ġllevarme":9659,"Ġindicar":9660,"Ġindicio":9661,"ĠindicÃ³":9662,"ĠindicaciÃ³n":9663,"Ġindicando":9664,"Ġindigencia":9665,"izaba":9666,"entada":9667,"ĠhablarÃ©":9668,"Ġhablarme":9669,"ĠobjeciÃ³n":9670,"Ġobjeciones":9671,"Ġrubia":9672,"ĠNunca":9673,"Ġsuplica":9674,"Ġsuprimir":9675,"Ġgua":9676,"edor":9677,"Ġmarca":9678,"Ġmarcada":9679,"ĠDebiera":9680,"Ġpropuesto":9681,"Ġtardes":9682,"ĠtardarÃŃa":9683,"Ġllamaban":9684,"Ġllamaron":9685,"Ġmejilla":9686,"Ġdecente":9687,"igan":9688,"Ġinclu":9689,"Ġexpresarse":9690,"Ġatenu":9691,"Ġquedar":9692,"ĠquedarÃŃa":9693,"ĠquedarÃ¡":9694,"Ġ(Â¡":9695,"Ġpolizon":9696,"Ġinstancias":9697,"Ġdesear":9698,"ĠSemenitch":9699,"Ġrostros":9700,"Ġocurr":9701,"Ġterra":9702,"Ġterreno":9703,"Ġinfal":9704,"Ġinflexible":9705,"Ġinquietarle":9706,"Ġinquietarte":9707,"Ġacudieron":9708,"Ġacusaba":9709,"Ġacurru":9710,"aradas":9711,"Ġrecib":9712,"Ġrecibida":9713,"ĠpodÃŃamos":9714,"Ġcansan":9715,"Ã¡ndolo":9716,"Ġchis":9717,"Ġchic":9718,"ĠriÃ±as":9719,"Ġrival":9720,"Ġrizados":9721,"Ġriesgo":9722,"Ġfalda":9723,"Ġfalso":9724,"Ġfaltas":9725,"ĠHaga":9726,"ĠfrÃŃvol":9727,"Ġbrutos":9728,"ĠantevÃŃ":9729,"Ġbuscando":9730,"Ġaparente":9731,"ĠaparecÃŃa":9732,"Ġapartaban":9733,"Ġfaut":9734,"Ġcontradi":9735,"Ġcontraste":9736,"Ġcontrajeron":9737,"ĠEstÃ¡s":9738,"ĠEstaban":9739,"Ġsombra":9740,"Ġsombri":9741,"Ġbofe":9742,"Ġcie":9743,"Ġcitar":9744,"Ġciega":9745,"luo":9746,"Ġburlar":9747,"Ġburlaba":9748,"Ġgrita":9749,"ĠLejos":9750,"Ġfijan":9751,"Ġfijaban":9752,"Ġinstrucciones":9753,"Ġinstrumento":9754,"ĠplaÃ±":9755,"Ġplaca":9756,"Ġplatos":9757,"ĠconvenÃŃa":9758,"Ġconvenir":9759,"ĠconvendrÃŃa":9760,"Ġgravemente":9761,"ciosos":9762,"Ġescup":9763,"Ġapropi":9764,"Ġaprove":9765,"Ġbajado":9766,"Ġrectifi":9767,"guiÃ³se":9768,"Algo":9769,"AllÃŃ":9770,"ĠKosch":9771,"Ġrefres":9772,"Ġpreocupe":9773,"Ġpreocupes":9774,"Ġoper":9775,"Ġopino":9776,"Ġopuesta":9777,"Ġreconcili":9778,"Ġcomenzando":9779,"Ġvolveremos":9780,"Estaban":9781,"EstarÃ¡":9782,"ĠFigÃºrate":9783,"ĠFelipe":9784,"Ġlloras":9785,"ĠllorÃ³":9786,"Ġlloraba":9787,"Ġlloraban":9788,"Ġllorique":9789,"ĠcontentÃ³":9790,"Ġinminente":9791,"Ġcueste":9792,"Ġvalerse":9793,"Ġvalerosa":9794,"ĠvestÃŃa":9795,"Ġvestidas":9796,"Ġcondujesen":9797,"Ġintento":9798,"Ġintenta":9799,"ĠintentÃ³":9800,"ĠcambiarÃŃa":9801,"Ġcontrariada":9802,"ĠcontinuaciÃ³n":9803,"rarte":9804,"tadamente":9805,"fectamente":9806,"ĠHecho":9807,"ĠencontrarÃ¡":9808,"Ġencontrarme":9809,"Ġnecesidades":9810,"Ġprivada":9811,"Ġexperimenta":9812,"ĠocultÃ¡ndose":9813,"feta":9814,"Ġlanzando":9815,"Ġestudio":9816,"Ġestudiar":9817,"Ġpersonajes":9818,"ĠentrarÃ©":9819,"Ġconvertir":9820,"Ġestrem":9821,"ĠTenemos":9822,"Ġguarn":9823,"Ġrelativo":9824,"Ġrelativa":9825,"Ġsentimos":9826,"Ġcircunspec":9827,"Ġcircunstantes":9828,"Ġhorribles":9829,"ĠpresentÃŃa":9830,"Ġpresentaban":9831,"ĠpresentarÃ©":9832,"ĠlÃ¡mpara":9833,"ĠlÃ¡piz":9834,"Ġescuchen":9835,"Ġconocen":9836,"ĠestarÃ¡s":9837,"ĠoÃŃrla":9838,"Ġgrupos":9839,"Ġgruesos":9840,"Ġadvers":9841,"ĠcomprenderÃ¡n":9842,"ĠQuizÃ¡s":9843,"Ġirritable":9844,"Ġirritarle":9845,"ĠengaÃ±ar":9846,"Ġpermita":9847,"Ġpermitir":9848,"Ġacercaos":9849,"Ġespecialmente":9850,"Ġespecialidad":9851,"dÃ³name":9852,"Ġinvitaba":9853,"Ġimaginado":9854,"Mejor":9855,"volencia":9856,"Ġagrio":9857,"Ġagrada":9858,"ĠPetersburgs":9859,"Ġtomarla":9860,"ĠpÃ¡lidos":9861,"ganda":9862,"Ġatreves":9863,"Ġrecodo":9864,"ĠllegarÃŃa":9865,"ĠllegarÃ¡":9866,"baraz":9867,"Ġhala":9868,"Ġhalle":9869,"ĠhallÃ¡":9870,"Ġhallaban":9871,"Ġhallarse":9872,"Ġhallase":9873,"alidades":9874,"Ġregimiento":9875,"Conque":9876,"Conoce":9877,"Conforme":9878,"entÃŃase":9879,"ĠacordÃ¡ndose":9880,"Ġdejarnos":9881,"Ġaproximado":9882,"ĠaproximÃ¡ndose":9883,"Ġaproximadamente":9884,"ĠmÃ©dicos":9885,"Ġconfiar":9886,"Ġconfiesa":9887,"ĠprofesiÃ³n":9888,"Ġimpreso":9889,"Ġparticularidades":9890,"Ġabiertos":9891,"Ġbarn":9892,"Ġbarbas":9893,"Ġbarbilla":9894,"Ġpasear":9895,"Ġpaseando":9896,"ĠpaseÃŃto":9897,"Ġresoluciones":9898,"Ġofrecimiento":9899,"Ġofrecieron":9900,"Ġculpables":9901,"ĠasegurÃ³":9902,"Ġasegurarse":9903,"apuntÃ³":9904,"ĠmontaÃ±a":9905,"Ġfelices":9906,"Ġexistiese":9907,"ĠocupÃ³":9908,"Ġocupada":9909,"denes":9910,"Ġexaminaba":9911,"ĠprestÃ³":9912,"Ġantici":9913,"Ġrincones":9914,"Ġsepararse":9915,"Ġseparamos":9916,"Ġsepararme":9917,"Ġelevado":9918,"Ġsignificaba":9919,"ĠcreerÃ¡s":9920,"Ġdeclaraciones":9921,"ĠatraÃŃa":9922,"ĠatraÃŃdo":9923,"Ġherir":9924,"Ġheridas":9925,"Ġextremos":9926,"Ġobservaban":9927,"Ġemplea":9928,"Ġbuscarla":9929,"Ġolvido":9930,"Ġsubiendo":9931,"Ġsubstitu":9932,"Ġpermanecido":9933,"Ġmovido":9934,"Ġgenerales":9935,"Ġgenerosidad":9936,"Ġconoces":9937,"Ġdifam":9938,"Ġdelitos":9939,"Ġprocediendo":9940,"Ġprocedimientos":9941,"Ġinterrumpiendo":9942,"Ġinclinaba":9943,"pron":9944,"Ġproducto":9945,"Ġcaballejo":9946,"ĠinterrogÃ³":9947,"Ġblancas":9948,"Ġmarchar":9949,"Ġmarchaba":9950,"Ġrene":9951,"Ġfunciones":9952,"Ġfundar":9953,"Ġdespertado":9954,"Ġdespertarse":9955,"Ġdespertarme":9956,"Ġafortun":9957,"Ġafirma":9958,"ĠpedÃŃ":9959,"Ġbeba":9960,"ĠbebiÃ³":9961,"ĠperderÃ©":9962,"Ġjusto":9963,"Ġjustos":9964,"Ġservicios":9965,"Ġponerle":9966,"Ġponerlo":9967,"Ġdisgustado":9968,"darios":9969,"Ġcompadecer":9970,"ĠseÃ±alar":9971,"Ġconsiderado":9972,"Ġconsiderable":9973,"Ġgolpeaba":9974,"Ġpelos":9975,"Ġtorre":9976,"Ġtortura":9977,"Ġtortur":9978,"SabÃŃa":9979,"Ġpanecillo":9980,"Ġentendimiento":9981,"Ġconsejos":9982,"Ġfuncionarios":9983,"ĠprobÃ³":9984,"Ġdistingue":9985,"Ġciudades":9986,"Ġreconocida":9987,"TenÃŃas":9988,"ĠadivinÃ³":9989,"Ġasustarme":9990,"Ġdefien":9991,"Ġdestin":9992,"alaciones":9993,"Ġretiraba":9994,"Ġpropiamente":9995,"Ġtrabajaba":9996,"Ġmolestaba":9997,"Ġacepto":9998,"ĠJerus":9999,"Ġhospeda":10000,"Ġabrirla":10001,"Ġcualesquiera":10002,"Ġdesgraciados":10003,"Ġauxi":10004,"Ġenteras":10005,"Ġenteramente":10006,"Ġenterrado":10007,"Ġinquilina":10008,"Ġdivertido":10009,"ĠdivertÃŃa":10010,"Ġinterlocutora":10011,"Ġejemplar":10012,"HabrÃ©":10013,"tÃ¡is":10014,"Ġagitaban":10015,"Ġcasualmente":10016,"ĠcasuÃŃstica":10017,"Ġmenestral":10018,"ĠsorprendiÃ³":10019,"Ġdescubri":10020,"Ġmasa":10021,"ĠmatarÃ©":10022,"ĠmatarÃŃa":10023,"Ġobliga":10024,"Ġobligar":10025,"ĠinteresÃ³":10026,"Ġinteresaba":10027,"Ġinteresado":10028,"ĠacompaÃ±arle":10029,"Ġquinta":10030,"Ġturco":10031,"Ġestablecido":10032,"Ġdeshac":10033,"Ġperteneci":10034,"Ġanimada":10035,"ĠanimÃ¡ndose":10036,"Ġanimales":10037,"Ġromper":10038,"ĠsostenÃŃa":10039,"Ġsostenido":10040,"Ġapresuro":10041,"Ġexplicarlo":10042,"inista":10043,"Ġenfri":10044,"cional":10045,"Ġjuzgue":10046,"ĠrecordÃ³":10047,"ĠrecordarÃ¡":10048,"Ġposeo":10049,"Ġdoctr":10050,"Ġpierde":10051,"ĠleerÃ©":10052,"Ġleerlo":10053,"teriormente":10054,"Ġpenetraba":10055,"Ġadmite":10056,"Ġadmito":10057,"Ġpeligroso":10058,"Subid":10059,"Ġduro":10060,"Ġdureza":10061,"ĠceÃ±o":10062,"Ġenvile":10063,"Ġbonita":10064,"Ġbesado":10065,"Ġfondos":10066,"Ġpudieran":10067,"Ġresuelvo":10068,"Ġnegras":10069,"Ġayudarme":10070,"Ġgozar":10071,"Ġllenar":10072,"Ġllenaron":10073,"Ġtierna":10074,"Ġfeo":10075,"Ġperdonar":10076,"ĠperdonarÃ¡":10077,"Ġlimitado":10078,"Ġlimitaba":10079,"ĠdistracciÃ³n":10080,"ĠdistraÃŃdamente":10081,"Ġburlonamente":10082,"Ġusar":10083,"Ġdemostraba":10084,"Ġllora":10085,"Ġsumario":10086,"Ġsumaria":10087,"Ġbebiendo":10088,"ĠPerten":10089,"ĠLlegÃ³":10090,"Ġmiserias":10091,"Ġmiserables":10092,"Ġjade":10093,"Ġseguirle":10094,"Ġseguirla":10095,"ĠempeÃ±ar":10096,"ĠescaparÃ¡":10097,"Ġabandonar":10098,"Ġabandonado":10099,"Ġatormente":10100,"Ġtrozos":10101,"ĠtrocÃ³":10102,"ĠhabrÃ¡s":10103,"Ġespantado":10104,"Ġtomadas":10105,"Ġrodeo":10106,"Ġpreguntarte":10107,"Ġvacilo":10108,"ĠacabarÃ¡s":10109,"Ġllevaremos":10110,"Ġebrios":10111,"ĠaversiÃ³n":10112,"Ġpesado":10113,"Ġpesada":10114,"Ġpescado":10115,"Ġodiaba":10116,"ĠParatcha":10117,"Ġrepresentaban":10118,"Ġincomodado":10119,"Ġincomodes":10120,"ĠincomodÃ³":10121,"Ġincomodarse":10122,"ĠtranquilizÃ³":10123,"ĠinsultÃ³":10124,"Ġpedirte":10125,"mÃ¡tico":10126,"Ã¡base":10127,"Ġalteraron":10128,"Ġinsisto":10129,"Ġgato":10130,"Ġinteriormente":10131,"ĠasistÃŃa":10132,"Ġasistido":10133,"Ġlargas":10134,"ĠcrÃ©alo":10135,"Ġencantos":10136,"ĠPodÃŃa":10137,"ĠPotchin":10138,"Ġtemeroso":10139,"ĠincorporÃ¡ndose":10140,"tines":10141,"Ġdulces":10142,"Ġdulzura":10143,"Ġasisti":10144,"Ġagarran":10145,"oluto":10146,"Ġexclamado":10147,"Ġangustiado":10148,"ĠcobardÃŃa":10149,"Ġcanalla":10150,"Ġemociones":10151,"Ġequilibrio":10152,"ĠenseÃ±Ã³":10153,"Ġfantas":10154,"ĠDime":10155,"Ġdespegar":10156,"Ġdespegado":10157,"Ġarmar":10158,"Ġahoga":10159,"Ġapoyaba":10160,"Ġchiquillo":10161,"leres":10162,"Ġ10":10163,"Ġdurmi":10164,"Ġafectado":10165,"Ġafectando":10166,"Ġdependencia":10167,"Ġpunzante":10168,"Ġtosiendo":10169,"ĠrefiriÃ³":10170,"Ġdesembaraz":10171,"ĠExcelencia":10172,"Ġlimpios":10173,"Ġlimpieza":10174,"Ġfingir":10175,"ĠNewton":10176,"ĠguiÃ±ando":10177,"Ġguitarra":10178,"Ġestremecimiento":10179,"Ġhorriblemente":10180,"ĠescapÃ³":10181,"ĠpÃºblicas":10182,"PodÃŃa":10183,"Ġpecados":10184,"Ġencerrado":10185,"Ġencerraba":10186,"ĠencerrÃ³":10187,"Ġfirmemente":10188,"Ġrechazando":10189,"Ġalarmada":10190,"Ġalcanzaba":10191,"Ġalcanzarle":10192,"Ġdesenvol":10193,"Ġobedecer":10194,"Ġtrastorn":10195,"Ġcorrieron":10196,"Ġrazonamiento":10197,"Mucho":10198,"ĠGimnas":10199,"Ġaviso":10200,"Ġamores":10201,"Ġcenten":10202,"ensable":10203,"ĠvacÃŃa":10204,"Ġconmove":10205,"Ġconmovida":10206,"Ġalquiler":10207,"Ġalquilado":10208,"Ġalhaja":10209,"Ġpusiste":10210,"Ġcaricias":10211,"Ġabraz":10212,"Ġabrazar":10213,"Ġconvenientemente":10214,"Ġaprovechado":10215,"Ġregistrado":10216,"Ġelegantemente":10217,"Ġrepresentando":10218,"ĠcÃ¡lmese":10219,"arovitch":10220,"Ġenemigos":10221,"Ġvecina":10222,"Ġvecino":10223,"ĠalusiÃ³n":10224,"Ġdescargar":10225,"Ġexigir":10226,"ĠpermÃŃte":10227,"Ġprocuraba":10228,"Ġprocurase":10229,"ĠMahoma":10230,"ĠteorÃŃas":10231,"ĠInÃºtil":10232,"ĠIncl":10233,"ĠInmedia":10234,"ĠrepetÃŃa":10235,"Ġquisiese":10236,"Ġtuviesen":10237,"ĠsuplicÃ¡ndole":10238,"Ġconsideraciones":10239,"Ġsacrificar":10240,"Ġcrueldad":10241,"Ġcruelmente":10242,"Ġrevelaban":10243,"Ġveinticua":10244,"Ġdescubrirle":10245,"Ġconvulsiones":10246,"Ġazu":10247,"Ġhambri":10248,"Ġfrecu":10249,"Ġfrecuen":10250,"Ġfrecuencia":10251,"Ġflotaba":10252,"Ġretirada":10253,"Ġinconsciente":10254,"Ġdeslizarse":10255,"Ġmezclado":10256,"ĠAcompa":10257,"Ġespaldas":10258,"Ġventaja":10259,"Ġimpregn":10260,"Ġfuriosamente":10261,"Ġreproche":10262,"ĠVive":10263,"iÃ©ndome":10264,"ĠconfesarÃ©":10265,"Ġapresuraba":10266,"Ġmonstruoso":10267,"ĠaumentÃ³":10268,"Ġaumentaba":10269,"Ġencantadora":10270,"Debo":10271,"Ġoraciones":10272,"ĠzaguÃ¡n":10273,"Ġetern":10274,"Ġdoblado":10275,"ĠsardÃ³n":10276,"ĠsarcÃ¡":10277,"ĠbrotÃ³":10278,"Ġbrotaron":10279,"Ġreducida":10280,"vociferaba":10281,"Ġservirse":10282,"Ġesclarecido":10283,"Ġirresoluto":10284,"Ġcerradas":10285,"Ġpedazos":10286,"ĠQuise":10287,"ĠQuisiera":10288,"Ġcaballeros":10289,"Ġdespreciativamente":10290,"Ġdistinguida":10291,"ĠsonreÃŃrse":10292,"Ġproporcionado":10293,"Ġproporcionarle":10294,"PerdÃ³n":10295,"Ġdudar":10296,"Ġajeno":10297,"Ġajena":10298,"Ġajenos":10299,"Ġplanes":10300,"ĠlavÃ³":10301,"Ġdesvanecimiento":10302,"ĠperiÃ³dico":10303,"ĠprovocÃ³":10304,"Ġespectadores":10305,"ĠHubiÃ©rase":10306,"Ġtranquilas":10307,"Ġdisculpar":10308,"Ġofrecerle":10309,"ĠatravesÃ³":10310,"Ġatravesaba":10311,"Ġatravesado":10312,"Ġacostumbraba":10313,"Experimentaba":10314,"Indudablemente":10315,"saltÃ³":10316,"ĠacogiÃ³":10317,"Ġpesadilla":10318,"Ġharapiento":10319,"Ġhachazo":10320,"Ġbribones":10321,"ĠfilÃ³so":10322,"ĠfÃŃsica":10323,"ĠfÃŃsicas":10324,"Ġresigna":10325,"ĠDebe":10326,"ĠbastÃ³n":10327,"ĠhuirÃŃa":10328,"Ġirrevo":10329,"Ġirregular":10330,"Ġtemperatura":10331,"Quiso":10332,"Ġruborizarse":10333,"ĠridÃŃcula":10334,"ĠoprimÃŃa":10335,"Ġahorcarse":10336,"Ġregalos":10337,"Ġcuadrado":10338,"Ġconsolar":10339,"Ġsuministrado":10340,"Ġespantoso":10341,"Ġrestablecido":10342,"ĠrestableciÃ³":10343,"Ġpositivo":10344,"Ġposibilidad":10345,"Ġpositivamente":10346,"Ġpelota":10347,"Ġfurtivamente":10348,"Ġrecaer":10349,"Ġinvadido":10350,"ĠEsper":10351,"Ġanoch":10352,"ĠanunciÃ³":10353,"Ġanunciado":10354,"ĠCreÃŃa":10355,"ĠasaltÃ³":10356,"Ġmagistrados":10357,"ĠtraerÃ©":10358,"Ġconfundido":10359,"Ġconfundir":10360,"ĠconfundÃŃan":10361,"Ġmorbosa":10362,"Ġdisputa":10363,"Ġdisputaban":10364,"Ġdisponer":10365,"Ġhumildes":10366,"Ġinmensamente":10367,"Ġintelectuales":10368,"Ġatreverse":10369,"Ġcoloreado":10370,"Ġindependientemente":10371,"Ġexasperado":10372,"Ġexasperarme":10373,"Ġfastidiando":10374,"ĠmurmurÃ³":10375,"Ġejercer":10376,"ĠejercÃŃa":10377,"Ġagradezco":10378,"ĠenÃ©rgicamente":10379,"ĠencendiÃ³":10380,"Ġsurg":10381,"ĠsurgÃŃa":10382,"Ġbreves":10383,"Ġinocente":10384,"Ġpulso":10385,"ĠgemÃŃa":10386,"Ġsincera":10387,"Ġsuspicaz":10388,"Ġanciano":10389,"ĠTuvo":10390,"Ġprostern":10391,"ĠVolver":10392,"Ġdirigirle":10393,"ĠprecipitaciÃ³n":10394,"Ġllameantes":10395,"Ġsortija":10396,"Ġmortalmente":10397,"Ġdetenerle":10398,"ĠconsentirÃŃa":10399,"Ġcapricho":10400,"Ġadelantado":10401,"ĠpsicolÃ³gica":10402,"Ġorgullosa":10403,"ĠÃ¡rboles":10404,"Ġclientela":10405,"Dime":10406,"Espere":10407,"haritch":10408,"Ġaislamiento":10409,"Ġtormento":10410,"Ġencubiertas":10411,"Ġbromas":10412,"Ġinopor":10413,"Ġinopinadamente":10414,"Ġcomienza":10415,"Ġexhalaciones":10416,"ĠDelante":10417,"Ġsiniestra":10418,"Ġpredile":10419,"ĠsuspendiÃ³":10420,"ĠjudÃŃo":10421,"Ġsalvaje":10422,"ĠTemo":10423,"Ġmentiras":10424,"ĠentreabriÃ³":10425,"Ġentreabierta":10426,"Ġpersuadido":10427,"Ġvisiblemente":10428,"Ġinfinito":10429,"Ġcriminalidad":10430,"Ġpermitiese":10431,"Ġconsultar":10432,"Ġacontecimientos":10433,"Ġconseguirlo":10434,"Ġiluminaba":10435,"ĠenigmÃ¡tico":10436,"Ġarrastrado":10437,"ĠhÃºmedo":10438,"Ġrasgos":10439,"ĠeconomÃŃa":10440,"Ġagobiado":10441,"Ġagradables":10442,"Ġdenotaban":10443,"Ġhelado":10444,"Ġtambale":10445,"ĠenvolvÃŃa":10446,"Ġnariz":10447,"Ġnombres":10448,"Ġvine":10449,"Ġsubieron":10450,"ĠrevoluciÃ³n":10451,"ĠdescortÃ©s":10452,"ĠDeseo":10453,"ĠIgnoro":10454,"ĠIgnoraba":10455,"Ġentablado":10456,"Ġmanifiesta":10457,"ĠrepitiÃ³":10458,"Ġtiembla":10459,"Ġtiemblan":10460,"Ġescandalos":10461,"ĠarrimÃ³":10462,"Ġruidosamente":10463,"ĠpresunciÃ³n":10464,"Ġembrol":10465,"Ġindispensable":10466,"Ġindignada":10467,"ĠdecÃŃrselo":10468,"Ġocurrida":10469,"Ġtranscurrido":10470,"Ġsometer":10471,"Ġmortificante":10472,"ĠdiscreciÃ³n":10473,"Ġconducirle":10474,"ĠarrodillÃ³":10475,"Ġarrodillarse":10476,"ĠmonomanÃŃaco":10477,"Ġdestruir":10478,"ĠdestruÃŃdo":10479,"ĠestÃºpidos":10480,"Ġorganilleros":10481,"Anteayer":10482,"Ġpecuniaria":10483,"Ġcontrariedades":10484,"criptible":10485,"ĠAcababa":10486,"ĠdesnudÃ³":10487,"Ġinvestigaciones":10488,"Ġdefenderse":10489,"ĠjurÃŃdica":10490,"ĠrelÃ¡mpagos":10491,"Piensa":10492,"SentÃŃa":10493,"Ġefectos":10494,"Ġasest":10495,"Ġdetesto":10496,"Ġdevoraba":10497,"Ġdetestaba":10498,"Ġplegaria":10499,"Ġcelos":10500,"Ġclases":10501,"Ġclasifi":10502,"ĠentrÃ©":10503,"Ġvuestro":10504,"Ġconcebir":10505,"Ġnotablemente":10506,"Ġestropeado":10507,"ĠPensando":10508,"Ġsistema":10509,"Ġmueve":10510,"Ġvigorosos":10511,"Ġprestados":10512,"ĠhuraÃ±o":10513,"ĠTomÃ³":10514,"Ġmancharse":10515,"Ġreposaban":10516,"Ġbienhechor":10517,"Ġescasos":10518,"Ġarticular":10519,"Ġhermanito":10520,"Ġempapado":10521,"Ġradiante":10522,"ĠZakh":10523,"Ġamistosamente":10524,"Ġnegativa":10525,"ĠEstuve":10526,"ĠoprimiÃ³":10527,"CuÃ¡ntas":10528,"Ġagujerea":10529,"Ġavergonzada":10530,"Ġindulgencia":10531,"Ġdesgarradora":10532,"Ġbostezaba":10533,"Ġdisculpable":10534,"Ġtartamude":10535,"Cerca":10536,"Pasaron":10537,"VolviÃ³":10538,"Ġdetienen":10539,"Ġmanteleta":10540,"ĠtapÃ³":10541,"ĠenvÃŃo":10542,"Ġconcerniente":10543,"Ġblines":10544,"Ġbanquete":10545,"Ġbull":10546,"Ġaldea":10547,"Ġcuidaba":10548,"ĠSobre":10549,"ĠdibujÃ³":10550,"ĠRespuesta":10551,"Ġgrabado":10552,"ĠDecididamente":10553,"ĠcomparaciÃ³n":10554,"Ġdesplegado":10555,"ĠcastaÃ±o":10556,"Ġcapote":10557,"Ġexpansivo":10558,"Ġesclava":10559,"ĠescrÃºpulos":10560,"ĠNosotros":10561,"Ġmaravilla":10562,"Ġfavorecido":10563,"Ġrefugi":10564,"ĠFuÃŃ":10565,"Ġprimavera":10566,"Ġlanzaron":10567,"Ġguardaron":10568,"Ġmonologar":10569,"Ġtorpeza":10570,"Ġocasionado":10571,"Ġtaciturno":10572,"Ġdesharrapados":10573,"Ġlibertino":10574,"ĠpsicolÃ³gicas":10575,"Ġimprevisto":10576,"Ġperjudicial":10577,"Ġadministra":10578,"Ġincesantemente":10579,"Poletchka":10580,"cindiendo":10581,"puedes":10582,"Ġzarande":10583,"ĠÃ³rdenes":10584,"Ġdelegados":10585,"Ġdemacrado":10586,"Ġpomada":10587,"Ġplenamente":10588,"ĠpÃ©rdida":10589,"ÃŃcese":10590,"Ġhendidura":10591,"Ġenaj":10592,"Ġenormes":10593,"Ġconjunto":10594,"Ġconstern":10595,"Ġnovelas":10596,"Ġresistir":10597,"Ġintrig":10598,"Ġindescriptible":10599,"ĠdiminuciÃ³n":10600,"ĠcomisiÃ³n":10601,"Ġmueca":10602,"ĠAcuÃ©rdate":10603,"uÃ©lvete":10604,"Ã¡ndoselo":10605,"ĠMoscou":10606,"Ġapasionado":10607,"Ġapetecido":10608,"Ġbatalla":10609,"Ġmodesto":10610,"ĠdecidirÃŃa":10611,"Ġimpotencia":10612,"Ġsensibilidad":10613,"Ġmaniobra":10614,"ĠPetite":10615,"ĠrÃŃen":10616,"Ġsolemnidad":10617,"Ġpicaporte":10618,"ĠabstracciÃ³n":10619,"Ġabundancia":10620,"Ġrumbo":10621,"ĠextraÃ±eza":10622,"Ġamueblado":10623,"ĠNastachiuska":10624,"ĠNuestro":10625,"ĠescalofrÃŃo":10626,"Ġmarchase":10627,"ĠincrÃ©dulo":10628,"Ġdiscurrir":10629,"ĠKharlamoff":10630,"Ġreformas":10631,"Ġdesconfiada":10632,"Ġfrancesa":10633,"Ġinsensible":10634,"Ġcuadernos":10635,"Ġdelicadeza":10636,"Ġprobabilidades":10637,"Ġmisericordioso":10638,"ĠpaÃ±oleta":10639,"ĠprÃ³jimo":10640,"ĠVakruchin":10641,"ĠexasperaciÃ³n":10642,"Ġimpertinente":10643,"ĠbenÃ©volo":10644,"ĠrecomendaciÃ³n":10645,"Ġcaprichosa":10646,"ĠcelebrarÃ¡":10647,"ĠpestaÃ±ear":10648,"ĠmelancÃ³":10649,"Ġformularla":10650,"ĠWaus":10651,"Ġincoherentes":10652,"ĠmajaderÃŃas":10653,"Alabado":10654,"Abrid":10655,"Dicen":10656,"Mitka":10657,"Naturalmente":10658,"agregÃ³":10659,"gruÃ±Ã³":10660,"sÃ©Ã±":10661,"Ġeditores":10662,"Ġaurora":10663,"Ġpestillo":10664,"ĠpÃ¡nico":10665,"Ġcandelero":10666,"ÃŃzate":10667,"ĠtrÃ©mula":10668,"Ġtribun":10669,"ĠtÃ¡ctica":10670,"Ġtrabar":10671,"Ġenorgulle":10672,"Ġnubes":10673,"chtchit":10674,"Ġoigas":10675,"Ġbilis":10676,"Ġfeminista":10677,"Ġfolleto":10678,"Ġreempla":10679,"Ġlocuras":10680,"ĠSuele":10681,"Ġdesnatura":10682,"Ġmutuamente":10683,"seÃ±alÃ³":10684,"ĠAztekas":10685,"Ġviceversa":10686,"Ġpupilas":10687,"ĠDerecho":10688,"ĠDÃ©jame":10689,"Ġpropaganda":10690,"Ġprovisionalmente":10691,"Ġverdugos":10692,"ĠversÃŃculo":10693,"ĠCogol":10694,"Ġasociado":10695,"ĠjÃºbilo":10696,"Ġservidumbre":10697,"Ġpapelotes":10698,"ĠprÃ©stamo":10699,"Ġartelchtchit":10700,"ĠabnegaciÃ³n":10701,"Ġtemprano":10702,"Ġtemperamento":10703,"ĠtubÃ©rculos":10704,"ĠechÃ¡rmelas":10705,"ĠZaraisk":10706,"Ġamistosas":10707,"Ġcansancio":10708,"ĠantevÃŃspera":10709,"Ġsombrilla":10710,"ĠhallÃ¡base":10711,"ĠJerusalÃ©n":10712,"Ġauxilio":10713,"ĠPotchinkoff":10714,"ĠGimnasio":10715,"ĠpermÃŃteme":10716,"ĠInmediatamente":10717,"Ġveinticuatro":10718,"ĠZakharovitch":10719,"!!":10720,"):":10721,")--.":10722,".--":10723,"10":10724,"11":10725,"12":10726,"13":10727,"14":10728,"15":10729,"16":10730,"17":10731,"18":10732,"19":10733,"70":10734,"Ay":10735,"Apo":10736,"Alena":10737,"Apuesto":10738,"Acerca":10739,"Bra":10740,"Beba":10741,"Ch":10742,"Cor":10743,"Cora":10744,"Caminaba":10745,"Caball":10746,"Da":10747,"Del":10748,"Desp":10749,"Dinero":10750,"Dame":10751,"Digo":10752,"Demetrio":10753,"Dale":10754,"Dentro":10755,"FigÃºrate":10756,"Fuera":10757,"Falto":10758,"Ga":10759,"Hol":10760,"Haz":10761,"Hubiera":10762,"Hijo":10763,"IN":10764,"IrÃ¡s":10765,"Imposible":10766,"ImbÃ©cil":10767,"Ju":10768,"Juntos":10769,"JesÃºs":10770,"Kolia":10771,"Luego":10772,"Mire":10773,"Mikol":10774,"Malo":10775,"Mira":10776,"Nunca":10777,"Os":10778,"Ocho":10779,"Otras":10780,"Ocur":10781,"Pres":10782,"Pase":10783,"Praskovia":10784,"Padre":10785,"PermÃŃtanme":10786,"RO":10787,"Rec":10788,"Raz":10789,"Resp":10790,"Rub":10791,"SE":10792,"Siento":10793,"SÃ³lo":10794,"SerÃŃa":10795,"SacÃ³":10796,"SentÃŃase":10797,"Tu":10798,"Tan":10799,"Tal":10800,"TrÃ¡":10801,"Tome":10802,"Toma":10803,"Tienen":10804,"Ver":10805,"Vas":10806,"Viendo":10807,"Vea":10808,"Veremos":10809,"VuÃ©lvete":10810,"ad":10811,"aÃº":10812,"atro":10813,"aul":10814,"acep":10815,"aulo":10816,"aturas":10817,"baba":10818,"bÃ³n":10819,"bando":10820,"bren":10821,"bÃŃan":10822,"bable":10823,"blÃ³":10824,"bablemente":10825,"biada":10826,"cci":10827,"cra":10828,"cÃ¡n":10829,"cÃ©n":10830,"cable":10831,"ctas":10832,"ctivo":10833,"calmente":10834,"cÃ³lo":10835,"cros":10836,"cÃ¡ndole":10837,"compren":10838,"criba":10839,"crito":10840,"ctoria":10841,"crimen":10842,"dri":10843,"dem":10844,"dable":10845,"darÃ©":10846,"darla":10847,"dentemente":10848,"demente":10849,"ee":10850,"evi":10851,"eil":10852,"etas":10853,"egas":10854,"fl":10855,"fÃ³n":10856,"fem":10857,"fru":10858,"fora":10859,"fras":10860,"frar":10861,"fadores":10862,"fluo":10863,"ge":10864,"gÃ³n":10865,"glo":10866,"gÃ©n":10867,"gran":10868,"gios":10869,"grada":10870,"grado":10871,"grÃ¡":10872,"gÃ¡ndose":10873,"ganza":10874,"gabas":10875,"gÃ¡is":10876,"has":10877,"hombre":10878,"hestan":10879,"ij":10880,"iro":10881,"iaba":10882,"ila":10883,"ires":10884,"ija":10885,"iva":10886,"irio":10887,"idera":10888,"iesen":10889,"idar":10890,"ijÃ³":10891,"iador":10892,"ibles":10893,"jera":10894,"jez":10895,"jidad":10896,"jamos":10897,"jame":10898,"jase":10899,"jarme":10900,"jÃŃn":10901,"jilla":10902,"jarla":10903,"juela":10904,"kharitch":10905,"lona":10906,"llado":10907,"mn":10908,"mol":10909,"mante":10910,"muer":10911,"mudo":10912,"merman":10913,"nue":10914,"nus":10915,"nable":10916,"nick":10917,"ot":10918,"ou":10919,"oces":10920,"pto":10921,"pia":10922,"pur":10923,"pita":10924,"puso":10925,"puede":10926,"psia":10927,"rÃ³n":10928,"rones":10929,"rable":10930,"rÃ¡ndose":10931,"rrame":10932,"rpur":10933,"sÃ³":10934,"sel":10935,"sme":10936,"sue":10937,"slas":10938,"scamente":10939,"sela":10940,"scÃŃ":10941,"scripciÃ³n":10942,"ty":10943,"tte":10944,"tom":10945,"tÃº":10946,"tÃ¡r":10947,"trifi":10948,"tmÃ©":10949,"tabil":10950,"tÃŃrselo":10951,"ux":10952,"ual":10953,"uado":10954,"uvi":10955,"ugo":10956,"uec":10957,"ude":10958,"usi":10959,"umo":10960,"uve":10961,"uena":10962,"udor":10963,"urecido":10964,"ufra":10965,"ugal":10966,"vin":10967,"vaban":10968,"vela":10969,"veme":10970,"xo":10971,"ximo":10972,"yado":10973,"yando":10974,"yecto":10975,"yeme":10976,"yugal":10977,"zon":10978,"zÃ¡":10979,"zuda":10980,"zarÃŃa":10981,"zara":10982,"zgue":10983,"»le":10984,"Ã»le":10985,"Ġ4":10986,"Ġw":10987,"ĠÃ¡":10988,"ĠÃ¡s":10989,"Ġran":10990,"Ġzan":10991,"Ġomi":10992,"ĠQuÃ©dese":10993,"Ġ70":10994,"Ġedi":10995,"Ġepi":10996,"Ġemana":10997,"Ġefica":10998,"Ġdas":10999,"ĠdÃŃ":11000,"Ġdam":11001,"ĠdÃ¡ndose":11002,"ĠdÃ¡ndole":11003,"Ġdanos":11004,"ĠdÃŃg":11005,"ĠdÃ¡mel":11006,"ĠdÃ³cil":11007,"Ġara":11008,"Ġaust":11009,"Ġados":11010,"Ġatras":11011,"Ġavest":11012,"Ġavel":11013,"Ġateo":11014,"Ġaires":11015,"Ġsien":11016,"Ġsaz":11017,"ĠsÃ¡b":11018,"Ġsienta":11019,"Ġsienes":11020,"Ġdemente":11021,"Ġdevan":11022,"Ġdecep":11023,"Ġdebili":11024,"Ġdevuelto":11025,"Ġdeudor":11026,"ĠlÃº":11027,"ĠlÃ¡n":11028,"Ġlentes":11029,"ĠlÃŃo":11030,"Ġlumbre":11031,"ĠpÃŃ":11032,"Ġpli":11033,"Ġpil":11034,"Ġpese":11035,"ĠpÃ³lvora":11036,"ĠcÃ©":11037,"Ġcente":11038,"ĠcÃº":11039,"Ġclam":11040,"Ġcanto":11041,"Ġcena":11042,"Ġclan":11043,"Ġceso":11044,"Ġcent":11045,"eren":11046,"eres":11047,"erÃ©":11048,"ertr":11049,"erÃ¡n":11050,"erio":11051,"erce":11052,"eroso":11053,"ereza":11054,"erantes":11055,"ersado":11056,"enado":11057,"entar":11058,"entado":11059,"endas":11060,"entros":11061,"entan":11062,"ensas":11063,"enzuda":11064,"ostÃ³":11065,"ospe":11066,"osee":11067,"quio":11068,"quinalmente":11069,"ĠmÃ³":11070,"Ġmam":11071,"Ġmelo":11072,"Ġmercado":11073,"arre":11074,"arti":11075,"staba":11076,"stiÃ³":11077,"stidad":11078,"dom":11079,"dole":11080,"dona":11081,"doblÃ³":11082,"onar":11083,"onzo":11084,"onea":11085,"ases":11086,"ans":11087,"anal":11088,"ania":11089,"antro":11090,"anqui":11091,"anzÃ³":11092,"ancial":11093,"Ã³se":11094,"Ã³mi":11095,"ÃŃdas":11096,"ÃŃce":11097,"rea":11098,"reÃŃa":11099,"redi":11100,"rela":11101,"retro":11102,"rece":11103,"resto":11104,"reinta":11105,"regible":11106,"Ġhen":11107,"ĠharÃ¡n":11108,"ĠtÃ©":11109,"ĠtÃŃa":11110,"Ġtante":11111,"Ġtru":11112,"Ġtinta":11113,"Ġtacto":11114,"Ġtazas":11115,"abor":11116,"ablo":11117,"abundo":11118,"abili":11119,"unciÃ³n":11120,"undos":11121,"uncÃŃa":11122,"undir":11123,"orro":11124,"orando":11125,"orio":11126,"orma":11127,"orpren":11128,"oridos":11129,"ornada":11130,"orrable":11131,"Ġquejo":11132,"Ġqueja":11133,"Ġquejas":11134,"Ġquedase":11135,"Ġquehacer":11136,"Ġquemase":11137,"indi":11138,"inidad":11139,"inÃ¡ndose":11140,"incones":11141,"incentes":11142,"infl":11143,"Ġeno":11144,"Ġensi":11145,"Ġender":11146,"Ġenfa":11147,"Ġencor":11148,"cifi":11149,"cidas":11150,"citas":11151,"ciona":11152,"cidez":11153,"ciabilidad":11154,"cismo":11155,"cifrar":11156,"Ġlade":11157,"Ġlavan":11158,"Ġlatir":11159,"Ġlatidos":11160,"Ġlatente":11161,"--...":11162,"temp":11163,"telos":11164,"teza":11165,"esÃŃ":11166,"Ã©retro":11167,"Ġseas":11168,"Ġsexto":11169,"Ġsexo":11170,"ĠvÃŃa":11171,"ĠvarÃŃa":11172,"ĠvÃ©r":11173,"Ġvienes":11174,"Ġvomi":11175,"Ġunido":11176,"ĠunÃ¡n":11177,"ĠunÃŃan":11178,"Ġuntados":11179,"ĠundÃ©":11180,"dazos":11181,"Ġelig":11182,"Ġelemen":11183,"Ġelog":11184,"ĠelecciÃ³n":11185,"ragos":11186,"ravado":11187,"Ã¡tica":11188,"Ã¡ticamente":11189,"Ã¡chate":11190,"Ã¡ximo":11191,"Ã¡dole":11192,"Ġconsp":11193,"Ġconcur":11194,"Ġconcre":11195,"ĠconservÃ³":11196,"Ġconyugal":11197,"alor":11198,"alÃ¡":11199,"altar":11200,"aliz":11201,"omos":11202,"omÃŃas":11203,"omis":11204,"ombra":11205,"ompÃ¡":11206,"Ġsua":11207,"Ġsuti":11208,"Ġsuces":11209,"Ġsusto":11210,"Ġsubra":11211,"Ġsutil":11212,"Ġsuger":11213,"Ġsuceda":11214,"edos":11215,"edeci":11216,"edece":11217,"toÃ±o":11218,"toler":11219,"Ġesm":11220,"Ġeses":11221,"Ġesco":11222,"Ġescur":11223,"Ġesmal":11224,"Ġnoven":11225,"ĠnotÃ³":11226,"Ġnotaba":11227,"Ġnove":11228,"Ġnotarse":11229,"ries":11230,"rica":11231,"ritmÃ©":11232,"chen":11233,"charse":11234,"cheras":11235,"ropi":11236,"rogado":11237,"rogÃ³":11238,"robio":11239,"Ġestri":11240,"Ġestru":11241,"ĠestÃ©n":11242,"Ġestriba":11243,"ĠestimaciÃ³n":11244,"olado":11245,"olviÃ³":11246,"oluciÃ³n":11247,"ologÃŃa":11248,"letes":11249,"ĠoirÃ¡":11250,"Ġorejas":11251,"Ġocci":11252,"ĠotoÃ±o":11253,"dite":11254,"divi":11255,"didos":11256,"dista":11257,"dija":11258,"ditas":11259,"diÃ©ndose":11260,"didura":11261,"dijeron":11262,"Ã³ngase":11263,"ustado":11264,"Ġhast":11265,"ĠhaciÃ©ndose":11266,"adon":11267,"adovia":11268,"Ġbaza":11269,"Ġbrillo":11270,"Ġfro":11271,"Ġfest":11272,"Ġflam":11273,"Ġfinu":11274,"Ġfino":11275,"Ġflor":11276,"Ġfemen":11277,"ĠfÃŃjese":11278,"Ġfirma":11279,"Ġfardo":11280,"ĠfÃ©retro":11281,"Ġrey":11282,"Ġrein":11283,"Ġreda":11284,"Ġrele":11285,"Ġredi":11286,"Ġrevi":11287,"Ġremo":11288,"Ġretra":11289,"Ġretu":11290,"Ġreten":11291,"Ġrever":11292,"Ġreina":11293,"Ġreja":11294,"ĠreinÃ³":11295,"ĠretÃŃ":11296,"Ġrevista":11297,"Ġrezando":11298,"ĠrevolviÃ³":11299,"ĠresistiÃ³":11300,"Ġregate":11301,"Ġrebos":11302,"ĠredoblÃ³":11303,"Ġmiente":11304,"Ġmiel":11305,"Ġmientes":11306,"Ġmidieron":11307,"Ġlea":11308,"Ġleo":11309,"Ġleche":11310,"Ġlealmente":11311,"Ġleves":11312,"Ġleguas":11313,"Ġalas":11314,"Ġalien":11315,"Ġaltos":11316,"Ġalaban":11317,"Ġalimen":11318,"Ġalimenta":11319,"Ġalmuer":11320,"titu":11321,"timb":11322,"tirÃ©":11323,"tirÃ¡":11324,"timientos":11325,"tibilidad":11326,"tilizar":11327,"Ġhables":11328,"Ġinta":11329,"Ġinse":11330,"ĠinÃº":11331,"Ġintra":11332,"Ġinque":11333,"Ġinvo":11334,"Ġinser":11335,"Ġinsist":11336,"Ġinicia":11337,"Ġincontest":11338,"Ġincurrido":11339,"ĠinglÃ©s":11340,"Ġinjust":11341,"Ġinevi":11342,"Ġinarti":11343,"Ġintoler":11344,"Ġporra":11345,"Ġportarse":11346,"ĠporterÃŃa":11347,"Ġlodo":11348,"Ġlobo":11349,"Ġlocos":11350,"Ġcuero":11351,"Ġcurado":11352,"Ġcubo":11353,"Ġcuide":11354,"Ġcubri":11355,"Ġcuid":11356,"Ġpartos":11357,"Ġparienta":11358,"Ġparecieron":11359,"Ġparecida":11360,"elices":11361,"ĠSa":11362,"ĠSerÃŃa":11363,"ĠSerÃ¡":11364,"ĠSorpren":11365,"ĠSadovia":11366,"Ã±ÃŃa":11367,"Ã±arme":11368,"Ġdile":11369,"Ġdila":11370,"Ġdime":11371,"Ġdiese":11372,"Ġdiste":11373,"Ġdigas":11374,"Ġdiger":11375,"ĠdilaciÃ³n":11376,"ĠdiÃ¡lo":11377,"ĠdigÃ¡":11378,"Ġdipl":11379,"ĠRez":11380,"ĠReci":11381,"ĠReco":11382,"ĠRincones":11383,"Ġcomba":11384,"ĠPÃ©":11385,"ĠPri":11386,"ĠPrim":11387,"ĠPron":11388,"ĠPub":11389,"ĠPaulo":11390,"iadas":11391,"emb":11392,"empo":11393,"Ġdesm":11394,"Ġdesfi":11395,"Ġdesac":11396,"Ġdesfa":11397,"Ġdesmen":11398,"Ġdescol":11399,"Ġdesierto":11400,"Ġdesorden":11401,"Ġdesval":11402,"Ġdescal":11403,"Ġdesviar":11404,"Ġdescifrar":11405,"cuas":11406,"cuamente":11407,"culados":11408,"Ġsigo":11409,"Ġsibil":11410,"layo":11411,"...!--":11412,"ĠEa":11413,"ĠEgi":11414,"ĠEuro":11415,"ĠmetÃŃa":11416,"ĠmetÃŃ":11417,"Ġmetida":11418,"Ġmetidos":11419,"Ġidas":11420,"ĠilÃŃ":11421,"Ġidio":11422,"Ġmudos":11423,"Ġmugri":11424,"Ġmudarse":11425,"guro":11426,"guero":11427,"gurio":11428,"guinar":11429,"gueses":11430,"segun":11431,"seÃ±or":11432,"sequio":11433,"bierta":11434,"bierno":11435,"ecÃ©":11436,"ectos":11437,"Ġtoque":11438,"Ġtocaba":11439,"Ġtout":11440,"ĠAtra":11441,"ĠApo":11442,"ĠAren":11443,"ĠAsist":11444,"ĠAmigo":11445,"ĠAcaba":11446,"ĠApuesto":11447,"ĠAmbos":11448,"ĠApres":11449,"ĠAlej":11450,"Ġviven":11451,"Ġvidas":11452,"Ġviudo":11453,"Ġvieran":11454,"Ġviveza":11455,"Ġvictoria":11456,"ĠvistiÃ³":11457,"Ġpuli":11458,"Ġpuestas":11459,"Ġpurpur":11460,"lozaba":11461,"deciente":11462,"dejado":11463,"Ġdelirar":11464,"Ġexcur":11465,"Ġexcesos":11466,"ĠexÃ¡nime":11467,"simo":11468,"sico":11469,"sider":11470,"siete":11471,"sitarios":11472,"trÃ©":11473,"traban":11474,"mogÃ©n":11475,"dosa":11476,"Ġgim":11477,"Ġgord":11478,"Ġgentes":11479,"ĠgirÃ³":11480,"Ġgalle":11481,"cores":11482,"Ãºr":11483,"Ãºcar":11484,"Ãºchame":11485,"ruz":11486,"rueb":11487,"ruscamente":11488,"estro":11489,"Ġparaje":11490,"litch":11491,"librado":11492,"ĠDon":11493,"ĠDÃ©":11494,"ĠDire":11495,"ĠDigo":11496,"ĠDag":11497,"ĠDuerme":11498,"ĠDans":11499,"ĠhabÃŃale":11500,"Ġtened":11501,"ĠtensiÃ³n":11502,"Ġtengan":11503,"Ġtendencia":11504,"venido":11505,"ĠcasÃ©":11506,"Ġcasado":11507,"Ġcasada":11508,"ĠcasarÃ©":11509,"Ġcascada":11510,"traordinar":11511,"Ġpope":11512,"Ġpopes":11513,"Ġpodamos":11514,"urt":11515,"urar":11516,"urgueses":11517,"Ġacci":11518,"Ġacces":11519,"terrogado":11520,"gunta":11521,"umer":11522,"umas":11523,"umidas":11524,"irmo":11525,"irones":11526,"iraban":11527,"tarnos":11528,"Ġperlas":11529,"Ġperfecto":11530,"ĠperÃŃo":11531,"Ġperros":11532,"Ġperecer":11533,"Ġperdiendo":11534,"Ġperversa":11535,"Ġperdona":11536,"Ġperorando":11537,"Ġprever":11538,"Ġpreste":11539,"Ġpreviendo":11540,"Ġpreferir":11541,"Ġpredest":11542,"Ã¡nea":11543,"queta":11544,"Ġsusceptible":11545,"ĠsuscripciÃ³n":11546,"tual":11547,"tulo":11548,"tuso":11549,"tuoso":11550,"tuito":11551,"Ġprover":11552,"Ġproces":11553,"Ġprofer":11554,"Ġprovidencia":11555,"Ġmisa":11556,"Ġmisantro":11557,"tÃ³gra":11558,"Ġsoba":11559,"Ġsocio":11560,"Ġsobr":11561,"Ġsociabilidad":11562,"fil":11563,"fitri":11564,"Ã©nd":11565,"orados":11566,"tento":11567,"tencias":11568,"tendrÃ©":11569,"tenciosamente":11570,"Ġanto":11571,"Ġandarse":11572,"Ġantina":11573,"Ġanfitri":11574,"Ġveras":11575,"ĠverÃ¡n":11576,"Ġverlos":11577,"Ġvertido":11578,"ĠverÃ©is":11579,"gaÃ±":11580,"podÃŃa":11581,"ĠCas":11582,"contrÃ³":11583,"consul":11584,"Ġasfi":11585,"Ġaspi":11586,"ĠasmÃ¡tico":11587,"Ġmadres":11588,"Ġmaestro":11589,"Ġji":11590,"Ġjarra":11591,"ĠjÃŃcara":11592,"Ġjirones":11593,"soy":11594,"Ġcompen":11595,"Ġcompra":11596,"ĠcomponÃŃa":11597,"Ġcomplace":11598,"Ġcompone":11599,"Ġcompacto":11600,"ranquil":11601,"rancÃ³":11602,"midad":11603,"ĠserÃ©":11604,"ĠserÃ¡s":11605,"ĠserÃŃan":11606,"Ġsereno":11607,"ĠMan":11608,"ĠMil":11609,"ĠMire":11610,"ĠMenos":11611,"ĠMedic":11612,"ĠMÃ¡ximo":11613,"ĠespÃ¡r":11614,"Ġesposos":11615,"Ġespuma":11616,"Ġespesos":11617,"ĠapurÃ³":11618,"ĠaplicaciÃ³n":11619,"spense":11620,"Ġdespier":11621,"Ġdespide":11622,"tadora":11623,"Ġobs":11624,"Ġobser":11625,"Ġobraba":11626,"Ġobsequio":11627,"Ġobtuso":11628,"Ġtisis":11629,"veres":11630,"Ġvena":11631,"ĠvendiÃ³":11632,"Ġvenida":11633,"ĠvenÃŃas":11634,"Ġvengan":11635,"Ġvengas":11636,"Ġvenidas":11637,"Ġvencida":11638,"Ġvenid":11639,"Ġvenganza":11640,"Ġvencidas":11641,"Ġpasan":11642,"Ġpasaban":11643,"Ġpasarse":11644,"ĠIslas":11645,"Ġbau":11646,"ĠbaÃ±o":11647,"Ġbagate":11648,"ĠbaterÃŃas":11649,"Ġcaen":11650,"ĠcaÃŃa":11651,"Ġcadera":11652,"Ġcaiga":11653,"Ġcayera":11654,"Ġcastidad":11655,"ĠhuyÃ³":11656,"ĠhuirÃ¡":11657,"Ġhuesos":11658,"Ġhuyera":11659,"Ġhuyese":11660,"Ġhusme":11661,"Ġmoti":11662,"Ġmoza":11663,"ĠmoviÃ³":11664,"ĠmovÃŃan":11665,"Ġpaque":11666,"Ġpastas":11667,"Ġpague":11668,"Ġpaisa":11669,"Ġpadec":11670,"Ġpajar":11671,"osis":11672,"Ġdecide":11673,"Ġdecisivo":11674,"Ġsalgo":11675,"Ġsalga":11676,"Ġsaltado":11677,"Ġsalita":11678,"ĠsaldrÃ©":11679,"Ġsalchi":11680,"Ġsaltimb":11681,"Ġllegamos":11682,"Ġllegando":11683,"Ġimpar":11684,"ĠimpÃŃo":11685,"Ġimpasi":11686,"Ġimperdo":11687,"ĠimponÃŃa":11688,"Ġimpropi":11689,"cear":11690,"cetines":11691,"Ġsencil":11692,"Ġsentados":11693,"Ġsentaron":11694,"ĠsentarÃŃa":11695,"ĠsentarÃ¡":11696,"ĠsentÃŃase":11697,"Ġsentenciosamente":11698,"anadas":11699,"Ġcarn":11700,"Ġcarecer":11701,"ĠcarecÃŃan":11702,"Ġcarezco":11703,"Ġcaramba":11704,"ĠTus":11705,"ĠTomo":11706,"ĠTales":11707,"ĠToma":11708,"Ġexped":11709,"Ġexplo":11710,"Ġexpir":11711,"ĠexponÃŃa":11712,"ĠexpirÃ³":11713,"Ġexpensas":11714,"ĠmandÃ©":11715,"Ġhig":11716,"iosamente":11717,"ĠEntÃ©":11718,"ĠEntrÃ©":11719,"ĠsabÃ©is":11720,"ĠsabrÃ¡s":11721,"Ġpalmada":11722,"derÃŃa":11723,"Ġestafadores":11724,"quita":11725,"quizÃ¡":11726,"quilibrado":11727,"QuÃ©date":11728,"Ġtrae":11729,"Ġtrate":11730,"Ġtramo":11731,"Ġtragar":11732,"Ġtratada":11733,"Ġtrataban":11734,"Ġtratarle":11735,"Ġtraigo":11736,"Ġtraiga":11737,"Ġtrampa":11738,"Ġtraigan":11739,"Ġtrayecto":11740,"Ġdecirles":11741,"Ġdecirnos":11742,"Ġfutes":11743,"Ġfuentes":11744,"Ġfugi":11745,"Ġfueses":11746,"Ġfuimos":11747,"Ġfuelle":11748,"Ġdoscientos":11749,"Ġprin":11750,"ĠprÃŃn":11751,"Ġnieb":11752,"Ġniega":11753,"Ġrepli":11754,"Ġrepul":11755,"ĠreplicÃ³":11756,"Ġrepuso":11757,"Ġcabra":11758,"lame":11759,"ĠHable":11760,"ĠHarÃ©":11761,"mbues":11762,"gares":11763,"garle":11764,"garÃ¡n":11765,"usky":11766,"ussup":11767,"Ġsobrecog":11768,"Ġescenas":11769,"ĠescÃºchame":11770,"Ġhubieron":11771,"ĠhubiÃ©ramos":11772,"Ġyacen":11773,"ermen":11774,"Ġarde":11775,"Ġarca":11776,"Ġarrep":11777,"Ġarries":11778,"Ġtoman":11779,"Ġtomada":11780,"Ġtomara":11781,"Ġtomase":11782,"ĠtomarÃ¡":11783,"ĠtomarÃ©":11784,"ĠtomÃ¡ndole":11785,"Ġrara":11786,"ĠrÃŃg":11787,"Ġquitado":11788,"Ġquitarle":11789,"Ġadul":11790,"Ġadentros":11791,"ĠsolÃŃ":11792,"Ġsoltarse":11793,"Ġsoldados":11794,"Ġsoleil":11795,"ĠmirÃ¡ndose":11796,"itada":11797,"preciable":11798,"Ġhombrecillo":11799,"Ġpidi":11800,"Ġpiano":11801,"Ġpista":11802,"ĠirÃ³n":11803,"Ġirrep":11804,"uestos":11805,"tasen":11806,"tases":11807,"paf":11808,"paciÃ³n":11809,"paces":11810,"pacita":11811,"Ġmensu":11812,"Ġabor":11813,"Ġabol":11814,"Ġabren":11815,"Ġabstu":11816,"Ġabuela":11817,"Ġabomin":11818,"Ġinteresar":11819,"Ġintercep":11820,"Ġinterval":11821,"vaya":11822,"Ġvocifer":11823,"Ġrubi":11824,"Ġruega":11825,"Ġrubios":11826,"udÃ³":11827,"caro":11828,"carte":11829,"carlos":11830,"ĠLatÃŃa":11831,"Ġcallase":11832,"Ġcalientes":11833,"Ġcalmado":11834,"Ġcalcetines":11835,"trarÃ©":11836,"ĠestÃ¡is":11837,"Ġhacerte":11838,"imemente":11839,"immerman":11840,"Ġtemido":11841,"Ġtempor":11842,"stein":11843,"Ġpresento":11844,"Ġcoro":11845,"Ġcordi":11846,"Ġcorren":11847,"Ġcortaba":11848,"Ġcorona":11849,"Ġcorrido":11850,"Ġcortados":11851,"Ġcortase":11852,"ĠcorrÃŃ":11853,"Ġtutor":11854,"Ġtugurio":11855,"ĠcreÃŃ":11856,"Ġcrema":11857,"Ġcreencia":11858,"ĠcreerÃŃa":11859,"Ġentrego":11860,"Ġentreten":11861,"Ġentregaba":11862,"Ġentregarse":11863,"Ġpensemos":11864,"Ġpensabas":11865,"Ġhermosa":11866,"Ġhermoso":11867,"Ġhermanos":11868,"dula":11869,"duvo":11870,"Ġvolviese":11871,"ĠvolvÃŃan":11872,"piÃ©s":11873,"Ġcomprenda":11874,"ĠcomprendÃŃ":11875,"Ġcomprendieron":11876,"Ġmedic":11877,"isas":11878,"ĠSeguramente":11879,"Ġdejes":11880,"ĠdejÃ©":11881,"Ġdejarse":11882,"ĠdejarÃ¡":11883,"jeras":11884,"pongamos":11885,"eciese":11886,"Ġhaberlos":11887,"Ġhaberles":11888,"Ġcerillas":11889,"Ġcerraban":11890,"Ġcertidumbre":11891,"ocÃ³":11892,"Ġroc":11893,"Ġroca":11894,"Ġroce":11895,"Ġrodado":11896,"Ġrodar":11897,"ĠrodÃ³":11898,"Ġresplan":11899,"ĠpodÃŃas":11900,"ĠpodÃ©is":11901,"Ġpreguntan":11902,"Ġpreguntase":11903,"ĠpreguntÃ©":11904,"Ġmale":11905,"Ġmalhum":11906,"Ġmalhe":11907,"Ġtalle":11908,"Ġembru":11909,"Ġembrom":11910,"portar":11911,"Ġcierro":11912,"Ġestufa":11913,"Ġlisto":11914,"ĠVas":11915,"ĠViendo":11916,"ĠVarias":11917,"ĠVÃ¡monos":11918,"Ġpele":11919,"Ġpegarse":11920,"Ġpetrifi":11921,"Ġfila":11922,"Ġficti":11923,"uelos":11924,"uelga":11925,"cilÃ³":11926,"cillos":11927,"Ġcaminar":11928,"Ġcamaradas":11929,"Ġcamisas":11930,"Ġjugaba":11931,"Ġjugando":11932,"Ġjuris":11933,"Ġempinada":11934,"Ġemponzo":11935,"Ġrape":11936,"Ġraya":11937,"Ġramas":11938,"Ġramil":11939,"Ġrapada":11940,"Ġdirigieron":11941,"Ġcoser":11942,"ĠcostarÃŃa":11943,"EscÃº":11944,"Escup":11945,"ĠquerrÃ¡":11946,"Ġqueridos":11947,"ĠquerrÃ¡s":11948,"Ġvaga":11949,"ĠvahÃŃ":11950,"Ġvayas":11951,"Ġvayamos":11952,"ĠlevantarÃŃa":11953,"tural":11954,"icas":11955,"Ġtonos":11956,"Ġtonante":11957,"Ġamaban":11958,"Ġamantes":11959,"Ġamables":11960,"Ġamabilidad":11961,"kaia":11962,"Ġechan":11963,"Ġechada":11964,"Ġechase":11965,"ĠecharÃ¡":11966,"Ġecharle":11967,"Ġdemudado":11968,"Ġdemonios":11969,"Ġvete":11970,"ĠvehÃŃ":11971,"Ġvege":11972,"ĠZimmerman":11973,"Ġnava":11974,"Ġnacimiento":11975,"licos":11976,"licado":11977,"Ġesperase":11978,"Ġpronta":11979,"Ġprontos":11980,"Ġprontitud":11981,"Ġamigas":11982,"Ġcobra":11983,"Ġcoordinar":11984,"ĠcojÃŃn":11985,"Ġcodazos":11986,"Ġcourt":11987,"Ġcola":11988,"Ġcolch":11989,"Ġcolmado":11990,"ĠcolecciÃ³n":11991,"Ġfortifi":11992,"Ġfortuita":11993,"Ġacabaron":11994,"ĠacabÃ¡bamos":11995,"Entra":11996,"EntrÃ³":11997,"Encan":11998,"Encuen":11999}