#version: 0.2
Ġ e
Ġ d
Ġ a
Ġ s
Ġd e
Ġ l
Ġ p
Ġ c
e r
e n
o s
q u
Ġ m
a r
s t
d o
o n
a s
a n
Ã ³
Ġ qu
Ã Ń
r e
Ġ h
Ġ t
a b
u n
o r
Ġqu e
i n
Ġe n
c i
Ġl a
Ġ y
- -
t e
Ġ n
e s
Ã ©
Ġs e
Ġ v
Ġ un
ÃŃ a
d a
Ġe l
r a
Ã ¡
Ġc on
a l
o m
Ġs u
e d
t o
Ġe s
Ġn o
Ġ Â
r i
t a
c h
r o
Ġe st
. .
o l
ab a
l e
en te
Ġ o
d i
a m
Ã³ n
u st
Ġh a
a do
ust ed
Ġ usted
Ġ b
Ġ f
Ġ re
Ġm i
Ġl e
Ġa l
t i
Ġh ab
Ġ in
Ġp or
er o
i en
v i
Ġl o
Ġun a
Ġc u
Ġp ar
e l
Ġ S
ĠÂ ¿
Ã ±
Ġd i
Ġ R
Ġc om
Ġ P
i k
i a
f f
e m
j o
Ġl os
Ġde s
c u
Ġs i
l a
o ff
Ã¡ s
.. .
g o
Ġ E
re s
ci Ã³n
Ġm e
Ġ i
Ġm u
g u
s e
b i
e c
Ġt o
Ġ A
Ġv i
Ġp u
an do
-- Â
er a
l o
n ik
d e
Ġde l
Ġe x
s i
nik off
da d
t r
m o
Ġl as
d os
an te
ĠÂ ¡
Ġ g
as k
ol nikoff
ask olnikoff
c o
Ã º
a da
u Ã©
ci a
b re
e z
n a
Ġp ero
r u
e st
Ġh e
Ġpar a
c a
l i
Ġ D
m p
ch o
Ġhab ÃŃa
Ġ L
Ġm Ã¡s
Ġs in
Ġt en
v en
N o
an o
Ġc as
t ra
ĠR askolnikoff
t ro
Ġp o
m ente
u r
Ġa c
t er
g un
u m
i do
Ġa qu
i r
t ar
am ente
Ġp er
Ġp re
m e
Ġcom o
Ġ Ã©
Ã¡ n
qu e
Ġha c
Ġsu s
v o
Ġqu Ã©
t u
Ġp ro
v na
--Â ¿
Ġmi s
t Ã³
Ġs o
f i
st a
Ã© n
i l
i o
or a
t en
Ġa n
Ġ jo
Ġv er
Ġto do
Ġjo ven
t os
g a
m a
p o
Ġ C
l ar
c on
Ġa s
Ġm a
Ġy o
Ġ j
i er
t ch
s o
-- .
l os
Ġe ra
Ġcom p
r an
m i
s a
Ġcas a
ĠÃ© l
Â »
Ġs er
a z
--Â ¡
r en
Ġ M
Ġes p
Ġmu y
Ġa p
s p
Ġt e
Ġdes p
on es
ta do
Ġo b
Ġt i
d as
v er
Ġv en
on ia
in a
Ġp as
Ġ I
en to
os a
Ġb a
Ġc a
Ġt an
Ġh u
Ġaqu el
Ġm o
j os
Ġp en
Ġp a
Ġen t
os i
di Ã³
Ġde ci
Ġs al
i da
ab an
Ġest o
j a
Ġl le
vi tch
? --
Ġi mp
c e
Ġs en
ar se
ri m
Ġest aba
u e
uÃ© s
Ġh om
an a
j e
Ġc ar
Ġ T
ien to
Ġex p
ano vna
Ġm an
Ġh i
i os
ĠE n
Ġs ab
Ġp al
en cia
ĠS onia
ĠP e
d er
Ġ No
Ġcu ando
Ġest a
qu i
ÃŃ an
ch a
es e
Q uÃ©
Ġm ÃŃ
Ġt ra
t al
Ġdeci r
b le
Ġf u
di jo
Ġd os
Ġp r
Ġn i
Ġre p
Ġm om
ĠÂ «
c es
z a
Ġc ab
Ġt ien
Ġse gu
Ġpal ab
ik in
um ikin
az umikin
i Ã³
Ãº n
l am
Ġ H
ĠP or
m b
r as
h ora
er ta
Ġti em
Ġse Ã±
g ar
u s
Ġb ien
Ġso bre
i Ã³n
r ÃŃa
Ġel la
Ġes c
Ġhu bi
ci ones
ĠR azumikin
ab le
Ġy a
Ġmis mo
er m
u l
Ġa r
Ġt om
Ġest e
am bi
Ġtiem po
vi d
t aba
Ġs on
Ġmom ento
Ġ r
Ġqu i
Ġa d
te s
Ġs ol
Ġmi r
! --
ĠPe tro
i ta
p re
ĠI v
i dad
b a
Ã³ mo
Ġhom bre
Ġp i
Ġn ada
dos e
Ġpor que
Ġi r
u est
z o
t as
Ġten ÃŃa
p a
di do
Ã± a
ĠE l
Ġm en
Ġa b
in u
Ġin ter
os o
Ġaqu ÃŃ
v a
Ġv o
Ġo cu
ĠIv anovna
ec es
p e
Ġ ru
u d
Ġo jos
st o
Ġen con
c ar
ÃŃ as
Ġv ez
ĠL a
Ġc al
tr ar
Ġest Ã¡
ez a
Ġpo co
Ġhac er
i m
Ġt em
st e
Ġp res
Ġc or
Ġt u
Ġc re
ri o
Ġent re
Ġpar ec
ĠPetro vitch
Ġdesp uÃ©s
Ġpen s
ci o
l as
en o
Ġpu erta
f er
en do
Ġh erm
Ġes o
d u
Ġv ol
Ã± o
v an
p i
Ġal gun
d re
ta mente
Ġcomp ren
ar go
Ġm ed
v e
i s
ĠS e
a c
u da
Ġde j
Ġc osa
ĠD un
st ante
ambi Ã©n
Ġha y
e b
j er
Ġo tra
p on
Ġ Y
P or
e ci
Ġa hora
Ġhab er
Ġc er
ri g
Ġmo do
Ġtien e
o c
g n
Ġ ro
Ġha sta
Ġre sp
o di
Ġpo d
Ġpre gun
Ġm al
ra da
Ġt al
Ġe mb
un to
Ġto da
Ã± os
Ġto dos
Ġvo z
a tal
m os
p or
b r
Ġc ier
Ġest u
Ġa un
Ġl i
in o
ec to
Ġhe cho
ĠDun ia
Ġ V
Ġs ÃŃ
Ġn ue
Ġp e
Ġt ambiÃ©n
ra do
Ġcu al
Ġpu ed
l en
Ġf i
Ġpar te
u el
le x
Ġhac e
Ġver dad
or d
Ġes e
Ġo tro
p ar
ri ga
ci l
am os
atal ina
Ġc am
es p
il off
vid riga
vidriga iloff
g Ãºn
Ġj u
Ġe mp
r Ã©
Ġex tra
t or
Ġ ra
Ġdi rig
em os
Ġper s
Ġc os
ita ciÃ³n
l ti
ĠseÃ± or
on a
Ġan tes
E s
Ġqu er
Ġv a
Ġle van
tu ra
Ġcu ar
Ġsi do
ien do
ĠC atalina
i c
Ġt on
Ġmu jer
ur ante
Ġcab eza
l es
Ġ Ãº
ĠR odi
an to
ĠR om
Ġa m
Ġpalab ras
ti do
R askolnikoff
k a
Ġe ch
Ġde m
Ġm es
Ġv e
Ġma dre
E l
Ġ Z
Ġde b
fi rio
m iento
Ġemb argo
Ġn a
ĠS vidrigailoff
li c
Ġesp er
Ġpr on
Ġd ÃŃa
Ġsegu ida
Ġa mi
Ġc o
ĠP ero
Ġhubi era
ch e
Ġvi e
Ġc ol
Ġf or
tr as
Ġac ab
E n
Q u
Ġ U
Ġdes de
Ġmu cho
g ado
n o
Ġp rim
in ero
Ġb u
ĠÃº lti
s er
er ia
Ġg ran
c ciÃ³n
c lam
r Ã¡
Ġd inero
ĠE s
Ġfu er
i Ã©n
v ÃŃa
Ġhab l
S ÃŃ
c er
g ra
on ces
un ci
Ġhab itaciÃ³n
Ġvi si
ar ÃŃa
Ġf in
ĠPor firio
S e
l ÃŃ
ente s
ÃŃ r
Ġpalab ra
ci as
Ġpre ci
-- ;
ri Ã³
ĠA d
z Ã³n
ÃŃ do
am e
Ġi de
Ġrep ente
t re
y er
Ġd ar
in ar
Ġf uÃ©
ti r
em pre
Ġp on
Ġen fer
Ġes a
Ġcuar to
Ġd uda
ti Ã³
ĠA l
Ã¡n dose
D e
y o
Ġa le
Ġn uest
Ġre s
Ġas ÃŃ
osi ble
ed ro
Ġal go
ĠL ud
Ġhac ÃŃa
o y
Ġlle v
Ġmen os
A h
l or
Ġin di
Ġherm ana
i z
ĠS i
C Ã³mo
P ero
en ta
Ġm ano
Ġhab lar
Ġob je
Ġru b
Ġpued e
Ġten go
c ed
p en
Ġ N
Ġman os
Ġesc al
m ur
r aba
Ġel los
vi Ã³
esp uÃ©s
j in
Ġl u
Ġt Ãº
Ġsu p
e x
i st
Ġun o
Ġusted es
Ġpu so
ĠmÃŃ o
o ci
t inu
Ġ gu
Ġdi cho
Ġsi empre
res pon
e do
y a
en a
Ġm ar
an d
Ġn eces
Ġcu anto
ĠD e
gun tÃ³
ĠP edro
Ġpro p
pre guntÃ³
Ġm inu
Ġt ar
Ġv eces
t ÃŃa
Ġl lam
ĠLud jin
Ġest ado
Ġmi rada
el o
Ġto das
Ġtem b
Ġvie ja
L a
Ġal lÃŃ
Ġme j
Ġcas i
Ġencon tr
Ġnue vo
c as
Ġde c
ch as
tr os
Ġtan to
i g
Ġd urante
Ġaun que
clam Ã³
Ġs Ã©
Ġqu ien
Ġcon si
Ġin c
si Ã³n
Ġparec ÃŃa
Ã³n de
Ġexp res
Ġa ten
Ġque d
Ġn os
es ar
Ġvi sto
f ecto
t an
Ġ (
Ġp ol
Ġla do
Ġest as
Ġin st
Ġdes e
Ġent onces
Ġimp or
Ġmed io
Ġami go
ex clamÃ³
and ro
i ci
k eria
Ġde re
ĠS em
Ġven ido
Ġr os
respon diÃ³
z Ã³
Ġc Ã³mo
st as
em Ã¡s
ĠA lex
Ġvi da
Ġac er
ul keria
Ġocu r
Ġescal era
andro vna
ĠAlex androvna
. Â»
re p
Ġt er
Ġt res
Ġt ran
Ġn e
Ġin f
Ġin qui
Ġmir Ã³
Ġinqui e
i ente
Ġpron to
Ġros tro
Ġa cu
qu Ã©
ar a
Ġre ci
est o
Ġpod ÃŃa
Ġc an
Ã¡n do
tu d
ĠSem eno
Ġs os
Ġp unto
Ġc ada
ar io
Ġha cia
ĠD ios
Ġe fecto
Ġc h
ar on
Ġh as
Ġcon f
di e
ĠP ulkeria
ĠD espuÃ©s
Ã±a diÃ³
ser v
O h
v amente
Ġ ri
Ġp osible
er on
as e
ÃŃ o
Ġh an
un do
Ġin stante
Ġide a
Ġrub los
Ġmej or
g re
g ri
ar Ã¡
ri r
Ġpo dido
Ġj e
Ġhi zo
l la
ar me
do r
Ġsi len
Ġas es
Ġpers on
b res
i fi
o cu
Ġf al
ien tos
ĠH a
Ġpi e
Ġalgun a
g Ã³
z os
Ã© s
ch os
Ġf r
Ġso y
Ġmes a
l lo
Ġb ru
Ġan te
Ġcal le
Â «
ar Ã©
st ed
Ġqu ier
vo cia
Ġmis ma
Ġman era
g i
u ando
Ġ or
ar le
ti vo
Ġaquel la
Ġhubi ese
ĠRodi a
ĠRom anovna
u sa
Ġs or
da do
Ġb us
vi r
Ġdi st
Ġdi jo
ĠM ar
Ġap ar
ĠY o
! ...
a ciÃ³n
d ÃŃa
Ġa Ã±os
qu il
as i
Ġt raba
Ġf a
ĠS u
Ġcos as
l aba
Ġcon tra
ĠS in
ĠE st
Ġparec e
Ġna die
a Ã±adiÃ³
Ġd ÃŃas
Ġs om
er to
-- ,
Ġno che
Ġb o
Ġba jo
Ġc i
Ġpu esto
ano vitch
tar se
ĠAd vocia
d es
l u
al mente
cu r
ante s
Â» ,
Ġap res
b o
c ado
c amente
i re
y Ã³
Ġ ol
Ġhab ÃŃan
Ġesto y
Ġsab e
ĠÂ« Â
S i
Ġm or
Ã³ lo
Ġb ur
Ã± ana
gu a
Ġg ri
er do
Ġn in
Ġel lo
am iento
Ġdi s
Ġdi sp
se gu
ĠL e
Ġten er
Ġexp li
Ġfi j
lic Ã³
Ġinst ru
p el
Ġp la
er ÃŃa
Ġh um
tra do
ĠÃ© ste
Ġas om
Ġtom Ã³
Ġju ez
iÃ©n dose
or ra
Ã¡ r
Ġcon ven
Ġg ra
Ġsin o
Ġcas o
Ġpo bre
Ġcomp le
Ġvol viÃ³
Ġresp on
Ġton o
t ando
Ġa yer
Ġc lar
in ci
ci os
Ġes cu
tr Ã³
li g
Ġap ro
Ġba j
Ġqui z
Ġtar de
Ġs a
Ġc rim
er os
an cia
Ġre c
gu iÃ³
Ġherm ano
Ġcier to
Ġlevan tÃ³
A l
Ġ B
Ġ K
Ġv uel
Ġre f
Ġmu cha
ec ÃŃa
H a
p ren
r os
u es
Ġc in
er te
Ġse me
Ġpre ocu
sa ciÃ³n
Ġba stante
ĠÃºlti mo
Ġobje to
Ġseme j
c an
Ġh ora
Ġo p
Ġre con
Ġcom en
ĠA hora
Ġsab er
Ġvol ver
ic ÃŃa
Ġpol icÃŃa
E st
Ġ F
Ġd aba
Ġa Ãºn
Ġl lor
en as
Ġm undo
Ġcon ten
Ġb ol
Ġin m
Ġcu est
Ġpar ti
Ġdi ez
ik ol
Ġson ri
v or
z ar
Ġa h
Ġl es
Ġv al
Ġv est
to ff
ame toff
l an
m al
Ġa ire
Ġcon du
om o
ri b
Ġo fi
Ġin ten
na stas
Ġma Ã±ana
ĠM e
ĠM ikol
Ġtoda vÃŃa
Ġperson as
m off
Ġl ab
Ġc ambi
Ã³ l
ci encia
Ġcon trar
Ġcon tinu
bi do
Ġvi sta
ĠRodi Ã³n
Ġquiz Ã¡
d rÃ©
r ar
Ġs an
Ġc ir
ci do
ta da
Ġb ra
li dad
ue go
im en
eci Ã³
Ġinstru cciÃ³n
f ec
Ġd ado
Ġd Ã³nde
Ġp ru
Ġc ora
osi moff
Ġpr inci
ĠH e
Ġencon trar
ĠZ ametoff
Ġneces idad
b ra
s ab
Ġp ri
ci al
ti o
Ġdi ce
Ġi ba
tr Ã¡s
Ġexp er
Ġocu l
Ġra zÃ³n
Ġenfer mo
rep licÃ³
Ġprinci p
f e
i to
t ante
Ġde ten
Ġl an
Ġt ri
cu en
Ġpu do
ru mp
Ġestu di
Ġpers ona
Ġquer ÃŃa
gri tÃ³
Ġbru s
nastas ia
Ġcora zÃ³n
c un
m el
Ġs Ã³lo
Ġen trar
ci endo
Ġcon ver
Ġest re
Ġin te
Ġdes con
Ġdes gra
Ġpa tr
ĠT en
Ġsab ÃŃa
Ġextra Ã±o
ĠRom anovitch
Ġech Ã³
Ġdem asi
ĠZ osimoff
Ġacab aba
Ġgu ar
Ġsilen cio
Ġdemasi ado
i or
Ġd a
Ġo f
Ġre la
ti l
ĠE ra
Ġg ust
Ġso f
Ġca usa
Ġsen ti
qui era
uest o
Ġpreci so
Ġcir cun
a i
j as
Ġd on
er se
Ġh or
or m
Ġal gÃºn
Ġten ido
Ġpe que
in ado
Ġsu f
Ġcu l
cu lo
Ġpu edo
Ġpres en
Ġalgun os
ĠU n
Ġaten ciÃ³n
Ġtran qui
ĠSemeno vna
Ġsos pe
Ġpatr ona
Ġdon de
? Â»
z as
Ġl Ã¡
qu ier
st i
an za
da mente
Ã¡ c
Ġcon te
Ġdes a
ĠA n
ĠC uando
Ġpas o
Ġpregun ta
Ġvisi ta
Ġqued Ã³
Ġescu ch
Ġsan gre
i on
i as
Ġp Ã¡
Ġp esar
Ġc ri
Ġcon oc
Ġest ar
Ġo ÃŃr
Ġf am
Ġcu ri
gu iente
si llo
Ġg en
Ġg ru
ĠT o
Ġad ver
Ġcompren der
gn ifi
ord inar
Ġexpres iÃ³n
g os
Ġ Qu
Ġa po
Ġs ac
Ġc ru
Ġsu e
Ġf ran
ĠA qu
Ġvi ol
Ġpu es
Ġpas os
Ġsal ir
Ġad emÃ¡s
Ġcer ca
Ġnuest ra
k o
m an
u so
Ġe ran
Ġde n
Ġh oy
Ġt ab
Ġn oso
es a
Ġse gun
Ġv ÃŃ
Ġin s
el a
ĠE sto
Ġdel ante
Ġg ol
Ġas unto
Ġser ÃŃa
Ġser Ã¡
Ġpa pel
Ġqui ero
Ġir ri
ĠY a
Ġquer ido
Ġdem Ã¡s
Ġprim era
Ġquier e
Ġref lex
Ġcuest iÃ³n
Ġcircun st
S onia
e dad
g ust
l Ã³
Ġl argo
as o
Ġt ÃŃ
Ġen ga
ri do
Ġcom e
cu lar
Ġper mi
ma g
ĠC on
Ġcar a
Ġhi ja
ĠseÃ± ora
Ġsol amente
Ġcier ta
Ġdere cho
Ġacer ca
Ġlab ios
Q ue
t nikoff
x im
Ġm os
ÃŃ n
Ġes f
ri l
ĠS an
ia tnikoff
em e
ĠA nastasia
Ġg ente
Ġac om
ĠM i
Ġesp eci
Ġhom bres
Ġsegu ro
Ġesc ri
Ġlu gar
Ġcrim en
b ro
b ur
c os
d Ã³n
s bur
t um
Ã© r
Ġse a
Ġo ÃŃdo
Ġin vi
Ġsi tio
Ġi mag
ez iatnikoff
ĠL o
ur Ã³
ter sbur
tch ka
Ġpas ar
Ġar re
eb eziatnikoff
mur mur
Ġminu to
sab el
Ġexper imen
Ġconver saciÃ³n
M e
e tchka
g aba
r or
v ol
Ġa g
in os
es de
Ġsal a
ĠPe tersbur
Ġtom ar
pen s
Ġne go
ĠMikol ai
Ġbrus camente
ĠpÃ¡ li
L o
g an
l ado
s amente
Ġa tre
Ġcon oci
di o
Ġre co
Ġmi l
Ġhab rÃŃa
ien e
Ġdi Ã³
Ġdes cu
bi r
Ġpa dre
Ġsal iÃ³
Ġlle gar
Ġcar ta
Ġprim er
Ġbu en
Ġnin gun
Y o
b ar
g ada
m ientos
Ġh al
es o
al es
al idad
Ġest os
Ġre g
Ġsi tu
tu vo
Ġar ro
Ġpres encia
Ġdirig iÃ©ndose
Ġsom br
Ġcin co
C on
u er
Ġd Ã©
en t
Ã³ si
Ġh on
Ġen cuen
ado ff
Ġb orra
Ġvi Ã³
Ġac ord
Ġsol o
Ġpens amiento
Ġdej ar
Ġdirig iÃ³
Ġprop Ã³si
Ġminu tos
Ġapro xim
mel adoff
Ġinte lig
ĠPetersbur go
e te
p es
t ana
Ġm Ã©
in Ã³
Ġcon fi
Ġes ca
ri ble
ta ciÃ³n
Ġpro f
Ġap enas
ĠI sabel
Ġimp res
Ġcab o
Ġfuer za
Ġparti cular
Ġcontrar io
c Ã³
r Ã³
s os
u do
z ado
Ġa bi
Ġc Ã³l
en tos
Ġen trÃ³
Ġsu yo
am Ã¡s
Ġb ar
si st
ĠL os
ĠL ebeziatnikoff
Ġven tana
Ġpas e
Ġtien es
len a
Ġhabl ado
Ġres ol
Ġencontr aba
Ġof re
Ġcul p
ĠcÃ³l era
i dos
Ġa segu
Ġde trÃ¡s
on io
Ġo tros
Ġcu a
ĠE ste
res a
gu e
ca ciÃ³n
il la
Ġtom ado
Ġsol a
Ġsof Ã¡
murmur Ã³
a p
Ġm on
Ġcon s
Ġf el
Ġlo co
Ġcu enta
ĠE sta
Ġex ist
Ġpas ado
Ġocu p
ĠÂ«Â ¿
Ġsemej ante
Ġconte mp
d en
d era
f a
t ÃŃ
Ġe res
er n
un tos
Ġse gÃºn
Ġha cha
Ġmi edo
Ã± ado
Ġex am
Ġtra ta
ĠH ab
Ġab s
Ġsonri sa
mal ia
ĠpropÃ³si to
U sted
v es
re dor
Ġsu elo
ĠS ÃŃ
de z
Ġpre st
Ġan ti
con tinu
Ġma tado
Ġcar Ã¡c
Ġr in
Ġimpor ta
Ã¡ndo le
Ġfr ente
Ġbol sillo
ĠcarÃ¡c ter
d rÃŃa
Ġp os
os os
Ġse par
Ġel e
Ġest aban
cu l
Ġsi gnifi
Ġi do
Ġmu chas
Ġvi vamente
Ã©n dose
il ia
Ġmir ando
Ġcre o
Ġcre er
cil l
Ġdeb e
Ġbu ena
ĠAd emÃ¡s
Ġobje tos
Ġdec lar
Ġtraba jo
Ġfam ilia
Ġacom pa
* *
? ...
C u
c el
d aba
Ġd om
Ġa tra
Ġl en
Ġm ol
ÃŃ ri
Ġh er
or ia
om en
Ġcom er
ec er
Ġex tre
Ġesp ÃŃri
Ġob serv
Ġhu bo
Ġhi jo
Ġmir aba
Ġru ido
Ġdej Ã³
Ġemp le
Ġton ter
Ġna tura
ĠU sted
Ġtemb lor
Ġbus car
ĠMar meladoff
Ġol vi
Ġestudi ante
Ġnoso tros
Ġespeci e
Ġningun a
continu Ã³
ĠespÃŃri tu
d rÃ¡
j u
n os
o b
s as
t able
y or
Ġd orm
Ġde tuvo
om e
om bre
Ġsu b
Ġest Ã¡n
am Ã¡
Ġle jos
ti va
ada mente
Ġper man
Ġma yor
Ġmo vi
Ġsen tÃ³
Ġhi jos
Ġencon trado
Ġhabl aba
Ġpreci samente
Ġale g
Ġgen er
) ,
c Ã³n
l ando
t aban
u ciÃ³n
v os
Ġde r
Ġt ir
ci Ã³
Ġcon o
ed ia
Ġes os
Ġo cho
Ġo tras
Ġre ÃŃr
Ġdi f
ĠP ues
Ġmu chos
Ġdel i
li co
Ġpro ced
Ġba ja
osi dad
Ġpi so
Ġab riÃ³
Ġinter rump
Ġvo y
pi tal
Ġfor m
Ġdec ÃŃa
Ġinc l
Ġreflex ion
L e
c ÃŃa
i ones
p r
Ġd vor
Ġp ien
ar la
es en
Ġdi go
em p
bi l
ĠD esde
Ġpro du
Â» .
osi ciÃ³n
osi guiÃ³
Ġfu ese
Ġcab al
ba jo
Ġinter ro
Ġpod rÃŃa
ĠV amos
Ġcos tum
Ġconf es
Ġrin cÃ³n
b u
c re
f ÃŃa
k s
t ur
z aba
Ġ um
Ġ ko
Ã© cil
om pren
Ġest Ã¡s
di co
Ġb lan
Ġre cu
ti s
Ã± or
Ġi mb
est a
Ġas p
Ġpas a
Ġfu era
ces o
Ġpens ar
Ġmed ia
Ġhay a
Ġcam ino
Ġextra Ã±a
ĠÃºlti ma
Ġmar ch
Ġinquie tud
Ġapres urÃ³
bra l
Ġsitu aciÃ³n
Ġum bral
Ġko pe
g rim
p resa
t un
Ġ ren
Ġa y
Ġa gua
en tras
os amente
ri a
ta d
Ġb il
Ġf un
Ġmi ra
Ġmi entras
Ġal ma
vi ese
el lo
ĠA malia
ĠÃ© sta
Ġdesp er
Ġca us
Ġaquel lo
ĠT e
Ġextra ordinar
Ġmujer es
Ġesper aba
ser va
Ġllev aba
Ġases ina
Ġsor presa
drÃ© s
ĠlÃ¡ grim
Ġcuri osidad
Ġesf uer
Ġculp able
Ġdvor nik
ĠlÃ¡grim as
c en
z co
Ġa f
Ġa gu
Ġp ed
Ġh emos
Ġt est
un ca
Ã¡ l
di v
Ġb e
vi sta
Ġmu erte
Ġac e
Ġper der
me dad
Ġj ust
Ġser vi
Ġlle gado
Ġsen tÃŃa
Ġni Ã±os
Ġro pa
Ġemp ez
Ġam ar
Ġdeb ÃŃa
Ġfuer zas
Ġpon er
Ġenfer medad
Ġnuest ro
ĠSemeno vitch
Ġases ino
Ġdis gust
Ġsue Ã±o
Ġasp ecto
! Â»
Y a
d ar
l las
do n
ab as
Ġun os
ente mente
di r
Ġal ta
ti ca
el los
bi Ã³
ec e
Ġper fec
Ġcomp a
Ġven ir
diÃ³ s
ida do
Ġlle gÃ³
ĠseÃ± al
Qu iÃ©n
Ġide as
Ġconsi der
Ġdere cha
Ġrespon der
Ġpreocu p
Ġgol pe
Ġimb Ã©cil
b rado
d r
e a
i f
s ÃŃ
u dad
Ġ Ãºn
Ġp in
Ġp el
Ġc ien
Ġm amÃ¡
on ario
Ġt or
Ġcon ciencia
Ġcu er
ĠP ol
Ġvi vir
Ġper dido
ina ciÃ³n
Ġtien en
Ġtem or
Ġestu vo
Ġvisi tante
Ġfal ta
Ġinm edia
Ġborra cho
H e
S ab
c ciones
i mo
Ġp an
er as
in aba
in iÃ³n
Ġen ten
Ġen car
Ġn ombre
Ġse is
Ã¡ p
Ġcon se
di endo
am po
Ġf unci
Ġcu ya
Ġsi lla
tar le
Ġpre par
Ġpro b
mi go
Ġdesp re
ĠPetro vna
Ġalgun as
Ġam or
gra d
Ġdist in
ĠMar fa
Ġci udad
Ġop iniÃ³n
Ġrecon oci
Ġah ÃŃ
ĠAn drÃ©s
ĠTo do
ĠpÃ¡li do
Ġbil le
ampo co
J e
T en
V amos
o fÃŃa
Ġ O
Ġa div
er amente
un que
Ġv ar
Ġv ino
Ġb ril
Ġre v
Ġpar ed
Ġas ust
sp era
Ġaquel los
Ġtra je
Ġtra taba
Ġqui Ã©n
Ġve ÃŃa
ĠÂ«Â ¡
Ġmucha cha
Ġimpres iÃ³n
pr osiguiÃ³
Ġkope ks
Ġasesina to
Ġperfec tamente
c ti
e ba
g en
g as
l ia
s cu
Ġe j
Ġde f
Ġde st
Ġc es
Ġn unca
al a
ta dos
Ġre tir
Ġcom is
ĠA lena
ĠL as
Ġac os
Ġac aso
Ġpro pi
Ġcompren de
Ġcam a
Ġpron unci
Ġfuer te
Ġocur rido
Ġter rible
Ġtraba j
Ġbra zo
Ġgru po
ĠdÃ© bil
ĠmÃ© dico
Ġmol est
Ġmovi miento
Ġace p
D ios
c or
f ac
i amente
i sa
j Ã³
s ado
t onces
t Ã¡ndose
Ġ J
Ġs Ãº
Ġde bajo
Ġl uego
Ġp l
er Ã¡
Ġh os
ci miento
te st
Ġcon migo
om ÃŃa
Ġest Ã©
Ġo cas
ĠP ar
ĠP ro
Ġdes esp
li o
Ġsin tiÃ³
Ġpo der
Ġac aba
ir m
Ġob r
Ġsal ud
Ġsen tido
Ġad vir
Ġmir ar
Ġab rir
pi tiÃ³
Ġcual es
Ġlu z
Ġaten tamente
Ġdese o
Ġacu erdo
Ġsa tis
Est Ã¡
Ġbra zos
Ġlan zÃ³
Ġdesgra cia
pens Ã³
Ġanti gu
Ġder redor
Ġcostum bre
Ġcompa Ã±
Ġfunci onario
c Ã³mo
d Ã³
h a
i go
m as
p er
t rim
Ġa u
Ġl la
an cias
ÃŃ si
re pitiÃ³
Ġt us
Ġen ter
Ã© is
Ġel las
Ġcon tar
Ġsu pon
Ġsu ced
ĠÂ »
le za
di da
Ġin quil
Ġcu idado
Ġpar eciÃ³
Ġdi ver
Ġsi quiera
Ġmu erto
Ġvi uda
lo cu
il lo
Ġma trim
Ġca er
Ġmo tivo
Ġimp osible
Ġexp lic
uest a
Ġinter locu
Ġcre e
is on
Ġdej ado
gn or
Ġtal es
Ġnue va
uel o
ĠseÃ±or as
iz Ã¡
Ġmar ido
Ġencontr Ã³
rep uso
Ġcomple to
Ġcambi o
Ġdesgra ci
Ġcua tro
Ġgener al
Ġej emp
H ab
P ues
T o
b al
c ta
i das
l Ã¡
m en
n as
t Ã¡
Ã ¼
Ġ Ã¡n
Ġd ol
Ġa gi
er na
Ġt a
Ġes as
Ã± as
tr aba
ĠD urante
Ġcas u
Ġj amÃ¡s
Ġob scu
Ġca d
Ġca p
Ġsab ido
Ġesc ena
Ġr Ã¡p
Ġmen est
Ġpres ente
eci do
Ġli g
Ġpe cho
Ġpued es
Ġve o
Ġve in
Ġcol or
Ġconsi guiente
Ġsor pren
Ġbo ca
Ġofi cial
Ġinten ciÃ³n
ĠTen ÃŃa
Ġden tro
Ġdescu b
ĠHab ÃŃa
Ġele g
Ġaleg rÃŃa
Ġmatrim onio
c ol
c aba
g ÃŃa
g Ã¼
m u
v as
v ado
Ġ os
Ġe vid
er vi
Ġm as
st ra
ab les
in al
Ġcon vi
Ġno ti
ch ar
di ente
ĠS ofÃŃa
Ġdi re
Ġdi ciendo
Ġsi mp
Ġsi guiente
Ġex ac
Ã¡n to
ĠC omo
Ġma tar
Ġob li
Ġsen tado
Ġni Ã±a
Ġcab ellos
Ġar tÃŃ
Ġinter es
Ġinter Ã©s
Ġtu vo
Ġentre vista
Ġpens aba
Ġcol o
Ġimpor tan
Ġter ror
Â« Â
Ġclar o
Ġvest ido
Ġpru eba
Ġadver tir
Ġtab erna
ĠtÃŃ mi
Ġarre g
Ġacompa Ã±
Ġolvi dado
a tura
l aban
an cill
Ġqu in
re o
Ġt ur
ci ma
-- :
ch ka
Ġest able
em ente
Ġdes h
lo j
si ones
Ġper ten
tu chka
Ã©n do
Ġan im
ĠC ancill
Ġap re
ras e
able mente
Ġr om
Ġad el
tas e
Ġresp e
Ġsos ten
Ġje fe
Ġapres u
Ġexpli car
Ġcomple tamente
Ġpru eb
Ġprincip io
ĠvÃŃ cti
Ġcircunst ancias
if est
ĠsÃº bi
B a
C uando
d ente
i co
t c
Ġe tc
er an
in i
Ġen f
ci on
Ġn ervi
Ġse cre
di to
Ġf ison
Ġre loj
ti vos
Ġcom un
Ġg ab
Ġpen sa
Ġman ifest
Ġdecir le
Ġpi ed
Ġmen or
Ġab ando
Ġpens Ã³
Ġcompren dÃŃa
Ġju z
ic amente
Ġmes es
Ġfor ma
ĠU na
Ġale gre
Ġocur riÃ³
Ġpla cer
Ġrec ord
Ġllor ar
ĠAqu el
Ġcircunst ancia
Ġnego cios
Ġaproxim Ã³
Ġabi erta
Ġpos e
Ġsignifi ca
Ġlen gua
Ġrecu erdo
Ġejemp lo
Ġmenest er
gÃ¼ en
ĠartÃŃ culo
ĠCancill erÃŃa
a dos
c ina
g na
l los
t ero
Ġd oc
Ġp ier
st os
an os
ÃŃ g
Ġt ampoco
Ġen cima
ci r
al o
Ġno ble
ch az
Ġre cur
Ġle er
Ġhab la
Ġsi ete
... --
bi lidad
ter ior
Ġpro cur
Ġba sta
Ġpen e
ĠT Ãº
Ġad mi
ve ch
br os
Ġli b
Ġcual quier
Ġcol oc
serv Ã³
Ġol vid
Ġnin gÃºn
Ġgra cias
rib u
Ġtri ste
Ġestre ch
Ġgust o
Ġsombr ero
Ġintelig ente
Ġpel ig
Ġadvir tiÃ³
Ġinterlocu tor
Ġdol or
Ġimportan cia
Ġprueb as
Ġfison omÃŃa
L os
S u
V a
b ado
i tch
t Ã©
t ribu
z quier
Ġd u
Ġc e
ar lo
Ġt re
Ġt erm
in ta
Ġen vi
ci ente
Ġcon v
di a
di entes
Ġb on
Ġb es
Ġf on
Ġre un
ti vamente
Ġhab rÃ¡
Ġi zquier
Ġpu di
Ġex ten
ir aba
Ã¡n e
Ġmis eria
Ġdesp a
ce p
Ġrep ar
vid u
Ġalgun o
Ġra z
Ġech ado
Ġres uel
Ġindi vidu
Ġne g
ĠB a
Ġcondu cta
Ġofi cina
Ġcri ada
Ġconoc ÃŃa
ĠQu izÃ¡
Ġcome tido
Ġcono ce
Ġay ud
Ġmira das
Ġhos pital
bal bu
D Ã³nde
d encia
e ta
e go
i ma
m ento
u ed
u eno
v Ã¡n
Ġ go
Ġa mb
Ġl len
Ã³ ven
Ġt ier
ri dad
ta me
Ġest Ãº
Ġf e
ti co
Ġpar tes
Ġdi ab
gu lar
ĠA unque
Ãº til
Ġhe chos
Ġten ga
tar on
Ġper don
Ġj Ã³ven
ĠI lia
Ġsal ido
Ġhi st
Ġpens ado
Ġcompren do
Ġli mi
Ġverdad ero
Ġres ul
Ġprop io
Ġinf lu
Ġreci bido
Ġdist ra
ĠEst aba
Ġbur l
Ġasom br
Ġgra ve
Ġpreocu pa
Ġsemej antes
Ġsenti miento
Ġhor as
ĠAqu ÃŃ
Ġsegun do
Ġresol uciÃ³n
omen zÃ³
Ġnatura l
ob servÃ³
Ġcuer po
grad able
Ġdesesp era
Ġcasu alidad
ĠrÃ¡p ida
Ġpied ra
gÃ¼en za
ĠjÃ³ven es
D un
D espuÃ©s
E so
S in
c lu
e bre
i cia
i lidad
j ero
m eno
Ġ us
Ġde mos
Ġl l
Ġt ras
Ġen ti
Ġsu m
ri ba
di llas
am ientos
Ġb eb
Ġlo g
ĠP er
... ?
ĠE so
Ġi gnor
Ġvi vo
Ãº m
ĠL le
tar me
Ġmis er
Ġj a
Ġba tuchka
Ġsen tarse
Ġpr ome
Ġsegu ir
Ġcompren dido
Ġpregun taba
Ġemp e
Ġgran des
Ġsup lico
Ġtemb lar
Ġdese os
Ġrela ciones
Ġsenti mientos
Ġreco br
Ġhal laba
Ġarro j
Ġesca par
Ġtonter ÃŃa
Ġdeli rio
ĠPol etchka
Ġinmedia tamente
Ġabando n
0 0
P ara
S vidrigailoff
T Ãº
i ga
p os
p ero
r er
Ġa tor
Ġp si
Ġc oc
an co
ÃŃ tame
Ġt ro
or me
in ter
Ġv as
Ġha ciendo
ado r
Ġhab r
Ġdi rÃ©
Ġcom ida
Ġpro y
il las
ier to
Ġesp an
Ġob serva
Ġpas Ã³
Ġimp ed
Ġtom a
Ġpi es
Ġmen udo
ĠSe gÃºn
Ġro de
Ġro dillas
Ġpregun tar
Ġra to
Ġva ci
Ġva ya
Ġacab ar
Ġllev ar
ici lio
Ġfa ti
Ġbaj ar
ĠK o
Ġdescon oci
Ġsuf rim
Ġsospe chas
Ġnego cio
Ġhon or
Ġencuen tra
Ġacord Ã³
Ġprof un
Ġfel iz
Ġexist encia
Ġdom icilio
Ġdisgust o
ĠvÃŃcti ma
Ġfon do
Ġhist oria
Dun ia
E sto
T e
c omenzÃ³
h ÃŃ
Ġe b
Ġa ver
Ġp es
Ġh o
Ġh uÃ©
Ã© ri
Ġv amos
Ġsu erte
Ġo di
Ġcu ello
ĠS us
Ã± ar
Ġdi si
ĠP ara
cu los
bi da
ĠA sÃŃ
Ġvi va
Ġex al
Ġex cel
Ġg orra
Ġten ÃŃan
ven ir
Ġma dera
Ġob st
Ġven ÃŃa
Ġven ga
Ġpa gar
Ġlle gada
Ġcar go
ĠEn tonces
Ġrep res
Ġqui so
Ġir Ã©
ÃŃas e
gn o
Ġpregun tÃ³
Ġmal o
Ġcier tos
Ġcam p
Ġco che
Ġvie jo
Ġacab Ã³
Ġale m
Ġnuest ros
Ġsup uesto
Ġinc or
Ġinc omo
Ġpie dad
Ġexpli ca
Ġasom bro
Ã¡r s
cios amente
Ġbaj Ã³
Ġcomen zÃ³
Ġcontinu aba
ĠTen go
Ġtranqui li
Ġescuch aba
Ġcru z
Ġsegun da
Ġins ul
Ġcome ter
pens aba
Ġsombr ÃŃo
Ġexam inar
Ġabs ur
** *
Ġher ido
Ġped ir
Ġsatis fac
Ġlla ve
Ġdoc tor
ÃŃg ame
Ġtre inta
) .
E h
I I
d ra
g amos
h i
m Ã¡
v ar
v iendo
z ando
Ġe r
Ġd ando
Ġa um
Ġen tra
ci da
ci edad
ci dente
Ġn Ãºm
Ã¡ b
Ġal mo
Ġal ter
ti tud
Ġhab le
Ġin si
vi a
vi eron
Ġlo ca
Ġdi je
Ġdi ces
Ġdes can
Ġsi r
ĠE se
Ġmu lti
gu ien
Ġg a
Ġg an
mp li
ir se
Ġpro pon
il l
Ġver gÃ¼enza
Â» --
Ġimp a
Ġrep ent
Ġab ri
Ġinter ior
Ġcor re
Ġpens amientos
Ġvol un
rig or
Ġresp uesta
Ġli bre
Ġcam pes
Ġech ar
Ġesper anza
Se Ã±or
Ġpon ÃŃa
cas o
Ġimpor tante
Ġch i
ĠHa y
Ġfr ÃŃo
Ġdist ancia
Ġfa vor
Ġrespon diÃ³
Ġvuel to
Ġval or
rump iÃ³
Ġdescon fi
Ġsuf rir
ĠvÃŃ spera
Ġgol pes
Ġfel ici
Ġextre mo
tun a
Ġbille te
Ġcomis arÃŃa
Ġocas iÃ³n
Ġobr eros
Ġantigu o
Ġgab Ã¡n
Ġtier ra
Ġpsi col
C ompren
b les
c ante
e da
h ada
i t
i cio
o zco
Ġe du
Ġa ta
Ġa Ã±o
Ġa sist
Ġl ar
Ġp Ãº
Ġc rÃ©
en ka
ar ro
st er
on ÃŃa
Ġh arÃŃa
in almente
Ġen can
te se
Ġv an
Ġv ela
Ġv aso
Ġcon serv
Ġcon den
Ġsu ya
Ġsu bir
ch ado
Ġo yÃ³
Ġle y
Ġle cciones
Ġal guien
Ġin Ãºtil
Ġpor tero
vi l
ĠP o
cu ra
Ġsi guiÃ³
ĠA yer
Ġex ci
tr an
um a
Ġver la
lar se
so por
Ġca f
Ġpa Ã±
Ġsab es
Ġdecir lo
ces i
Ġinter esa
Ġcal or
Ġtem er
las e
Ġresp ecto
Ġpregun tas
Ġfi ebre
Ġcam isa
Ġesper ar
Ġami gos
Ġprim ero
Ġbu eno
Ġinquie ta
ĠHa sta
Ġfr unci
Ġquier es
Ġexpli caciÃ³n
Ġvuel ta
Ġsonri endo
Ġinten ciones
Ġguar dia
Ġpeque Ã±a
Ġtranqui lo
Ġden unci
Ġimag inaciÃ³n
Ġasegu ro
Ġtonter ÃŃas
Ġesfuer zo
Ġinquil inos
Ġdire cciÃ³n
Ġadel ante
Va ya
Ġizquier da
Ġdespa cho
ued e
Ġdiab lo
Ġincor por
U na
g or
i ver
n ado
s u
t in
z ada
Ġ [
Ġ rigor
Ġd ul
Ġa si
Ġa gar
Ġde ja
er cado
en sa
qu ÃŃ
Ġm ÃŃa
ÃŃ cil
es es
Ġv ia
Ġcon tado
om itch
Ġsu pi
ri to
ol u
Ġre h
Ġle cho
Ġin de
Ġin sp
Ġin ju
Ġin sopor
Ġcu yo
Ġdi ga
Ġdi vÃ¡n
ia da
bi erto
Ġex clam
Ġg Ã©n
ter m
tar io
Ġso por
Ġan gust
Ġcomp r
az a
Ġimp ul
Ġhi ce
Ġtra tÃ³
Ġni Ã±o
Ġmom entos
Ġar riba
Ġson riÃ³
ĠIv anovitch
ĠDun etchka
Ġpe or
Ġpued en
ord en
tor io
Ġva cil
Ġco bar
Ġgran de
Ġdar le
Ġcan al
Ġor gu
Ġor ig
Ġhum or
ĠF omitch
Ġllor ando
Ġval e
Ġpri sa
Ġocul tar
Ġsac Ã³
ĠEsto y
Ġag itaciÃ³n
cul ta
Ġtemblor osa
Ġdorm ir
Ġbe bido
Ġempez Ã³
ĠPar ecÃŃa
Ġau tor
Ġpensa tivo
Ġlengua je
Ġinflu encia
inter rumpiÃ³
Ġcamp an
Ġentra da
Ġalmo hada
ĠgÃ©n ero
D urante
E ra
U n
d ando
o j
r Ã¡s
u bi
Ġe mo
Ġe qui
en di
Ġm em
Ã³ vil
Ġen se
Ġcon di
Ġf an
ien cia
ĠR e
ik odi
Ġdes ma
gu Ã©s
ĠA hÃŃ
Ġvi ve
co g
ĠD i
Ġac ento
Ġper dÃ³n
Ġso ciedad
Ġver le
ĠC ompren
Ġj untos
ier e
Ġdesp e
Ġpen dientes
Ġsegu ÃŃa
Ġar m
Ġqui era
Ġcompren diÃ³
Ġcer rar
Ġmal a
rada mente
Ġcual quiera
Ġverdad era
Ġdirig ÃŃa
Ġam en
Ġesper Ã³
Ġfor tuna
Ġhabl ando
Ġale j
Ġindi gna
pen as
ĠN ikodi
Ġneces ario
Ġllam a
tan as
Ġacer cÃ³
Ġacu er
Ġch al
Ġor gan
ĠSu pon
ĠEst Ã¡
Ġah o
Ġtri st
Ġescuch ar
Ġapo y
Ġdif ÃŃcil
Ġreflexion ar
Ġsupon er
Ġquin ce
Ġbon dad
Ã¡ne amente
ĠestÃº p
Ġll eno
Ġobserva ciÃ³n
ĠKo ch
Ġdesconoci do
ĠnÃºm ero
Ġvolun tad
Ġchi quil
Ġfelici dad
Ġcaf Ã©
Ġvia je
Ġmem oria
ĠNikodi m
A n
E a
N ada
R azumikin
a ciones
i entes
l er
m ed
n e
s an
t rio
Ġ 1
Ġ ordinar
Ġe vi
Ġe dad
Ġd ur
Ġa van
Ġa fec
Ġs iento
Ġde pen
Ġp un
Ġp osiciÃ³n
Ġc esar
er tas
os as
ar te
Ġt os
ab ilidad
un f
in ist
Ġen c
Ġen trado
ra dos
Ġcon ti
Ġsu el
ri fi
ch es
Ġo y
Ġo ÃŃ
Ġha go
Ġb anco
Ġf rÃŃa
Ġre fi
ti endo
Ġin d
Ġin no
Ġpor meno
Ġpor venir
vi do
Ġcu idad
ĠS on
Ġdi rÃŃa
ĠP as
Ġdes em
ĠE x
ec o
Ġpu ente
Ġten drÃŃa
Ġac on
ir Ã¡
ir me
Ġso cial
fi tch
con test
ĠM ercado
Ġtan ta
Ġaquel las
Ġpen a
Ġcar ca
ĠT al
ĠT ambiÃ©n
Ġpr Ã³
Ġson re
Ġhacer lo
im os
Ġcre yÃ³
Ġmed ios
ĠSe Ã±or
Ġdej aba
Ġli mp
Ġfi gu
Ġfi ja
Ġju icio
Ġlevan tarse
Ġdeb er
ĠÃºlti mos
Ġfin g
ĠN e
Ġsup er
Ġgu i
Ġri endo
Ġbur guÃ©s
Ġconven cido
Ġdeten ido
Ġestre me
Ġhor rible
Ġpeque Ã±os
Ġapo der
ko fitch
Ġesf or
eme trio
Ġconoci do
Ġconoci miento
Ġencuen tro
Ġintelig encia
Ġesca p
Ġren unci
Ġesfuer zos
ĠPro kofitch
Ġacaba do
Ġnoti cias
Ġrom p
Ġlib erta
balbu ce
Ġsufrim iento
Ġmulti tud
ĠpÃº b
Ġinju ri
culta des
Ġpormeno res
A hora
A caso
P o
a v
a yer
d ÃŃ
i de
i ca
i ste
j ada
k off
r ente
t Ã³n
u lo
v al
v uel
Ġ orden
Ġd arse
Ġd oy
Ġde term
Ġp ec
Ġc r
Ġc la
er ado
er dad
Ġm er
ar ios
st or
st ru
Ã³ gi
Ġh ier
Ġt Ã©r
Ġen cer
Ġv iendo
ra mente
Ã¡ ver
Ġcon segu
Ġcon clu
Ġf res
Ġf irm
Ġf rase
Ġre chaz
Ġmi ster
Ġle tra
Ġal ar
Ġal can
ti fi
ĠS en
Ġdes en
... Â»
Ġex cu
si dad
Ġg ros
li ca
Ġac era
Ġac ceso
tar ÃŃa
Ġpro te
Ġas untos
Ġma ter
Ġma dra
ĠM Ã¡s
Ġesp era
sp ec
Ġob ed
Ġob stante
Ġven tanas
Ġca pital
Ġpa ciencia
ios o
Ġtra stor
Ġdecir te
Ġdecir se
Ġfu tura
Ġrep u
za dos
ĠH eno
Ġhubi eran
Ġcal les
Ġcor ri
Ġcor rer
Ġcre ÃŃdo
du ra
Ġhaber se
Ġemb ria
Ġcier tas
Ġestu viese
Ġli bro
ĠV a
Ġco ch
Ġindi fer
Ġrub lo
Ġllam ar
Ġtemb lando
ĠcÃ³mo da
Ġmor al
Ġfij Ã³
Ġhum an
Ġasom brado
Ġsa car
Ġrecon oc
Est aba
Ġvest idos
ĠMikol ka
Ġdesa par
Ġconoc er
Ġescri to
Ġconfi anza
Ġocup aba
cill amente
Ġnatura leza
Ġdif unto
Ġincl inÃ³
Ġpien so
Ġcabal lo
Ġconfes iÃ³n
Ġjust icia
Ġservi cio
Sab es
Ġvar ias
Ġdesgraci ado
Ġcad Ã¡ver
Ġvein te
Ġconvi cciÃ³n
Â«Â ¿
ĠtÃŃmi da
Ġpier nas
Ġraz on
Ġdesespera ciÃ³n
ĠrÃ¡pida mente
Ġexcel ente
Ġsatisfac ciÃ³n
Ġimpa ciencia
ĠpaÃ± uelo
Ġinno ble
Ġliberta d
ĠtÃ©r m
Ġmadra stra
? Â»,
C re
M u
d ecÃŃa
g on
g ando
i que
i ble
i za
z c
z el
Ġ G
Ġa vi
Ġa mo
Ġa tro
Ġde bido
Ġp ren
Ġc en
Ġc ed
er e
er me
en s
qu ina
ar d
st ro
in co
Ġv ac
Ġv iene
Ġcon mo
Ġo ÃŃa
Ġb el
Ġf eb
Ġre al
Ġre tor
Ġal quil
Ġal ha
Ġal oj
ti to
Ġin cidente
ien ta
Ġcu an
Ġcu Ã¡nto
Ġcu mpli
ĠS Ã©
Ġdi fi
Ġdes gar
Ġi l
se le
ĠA diÃ³s
Ġvi vÃŃa
Ġpu si
si ble
Ãº s
ĠD emetrio
ĠL i
Ġsin gular
Ġten drÃ¡
Ġac ciÃ³n
um off
ir Ã³
tar Ã¡
Ġpre ced
Ġhac en
Ġver me
ĠC reo
Ġj un
ier on
Ġesp osa
Ġca te
Ġpen siÃ³n
Ġlle gaba
Ġsen cillamente
Ġcar i
qui Ã©n
ĠseÃ± as
Ġhubi esen
Ġar ran
Ġab ra
Ġtu viese
Ġcre ÃŃa
fer ir
jer on
Ġcer rada
Ġenfer ma
Ġllev Ã³
Ġtemb laba
ig os
Ġexpres aba
Ġreci bi
ĠHa ce
Ġor o
Ġbo te
Ġgri tos
Ġfij amente
Ġconven iente
Ġcomple ta
Ġapro vech
ĠK ap
Ha sta
Ġtri unf
Ġsof oc
ĠUn iver
Ġtab ern
Ġirri taciÃ³n
Ġenga Ã±
Ġarre ba
Ġexperimen taba
Ġreg ist
Ġresol ver
ern umoff
Ġabs olu
Ġperman eciÃ³
Ġincl in
Ġtor no
Ġpropi as
Ġacep tar
Ġpl uma
To do
Ġobscu ridad
Ġcap az
Ġeleg ante
Ġsimp le
Ġenf rente
Ġjuz gar
Ġterm inado
Ġcoc ina
Ġeb rio
Ġobst Ã¡
Ġrepres en
Ġalem Ã¡n
Ġabsur do
Ġinsi gnifi
Ġdesconfi anza
ĠcrÃ© dito
Ġemo ciÃ³n
contest Ã³
balbuce Ã³
Ġrepu gn
ĠKap ernumoff
. )
C omo
P ar
b an
b ri
b ran
g res
i li
o res
p as
Ġ Ã¡r
Ġd ue
Ġa trÃ¡s
Ġde tal
Ġde bilidad
Ġc Ã¡l
ar o
ar Ã¡n
Ġque dado
Ġen em
ci fer
Ġv ec
om a
to res
Ġle g
Ġal u
Ġal to
ti da
Ġhab i
Ġhab lo
ien tras
Ġpar tido
ĠS oy
Ġdes i
Ġdes car
cu cha
cu enta
Ġme tido
Ġmu j
ĠA r
Ġpu Ã±
Ġex ig
Ġten emos
Ġten iendo
Ġpo ca
Ġaqu Ã©
Ġper m
Ġpre ca
Ġpre ten
ĠÃ© se
Ġhac es
Ġpro v
Ġpro cu
Ġpro por
Ġan terior
ĠC u
Ġser io
ĠM a
ĠM as
Ġesp anto
Ġte or
Ġven drÃ¡
ĠI n
tal Ã³n
Ġrep e
gar me
Ġesc rib
erm ÃŃtame
Ġqui si
Ġad em
Ġsol ici
idad es
im iento
Ġtem ÃŃa
Ġpres i
Ġtu vi
Ġparec er
Ġpens ando
Ġmed ida
Ġli br
ĠV en
cil la
Ġlevan tado
Ġton ta
Ġdeb o
Ġco dos
Ġcol cha
tre y
Ġsup lic
Ġmej illas
Ġconsi dera
Ã¡ndo la
Ġperson al
Ġgri to
Ġpla ta
Ġcin cuenta
Ġconten to
Ġcontrar i
Ġpri siÃ³n
Ġprincip al
Ġrela to
Ġpeque Ã±o
Ġpresen tÃ³
Ġdesa gradable
Ġcri atura
Ġsac rifi
Ġcru el
Ġviol ento
Ġnoso tras
Ġenga Ã±ado
Ġescri bir
vol viÃ³
ĠpÃ¡li da
Ġprof undo
Ġcontemp lÃ³
Ġemple ado
Ġinterro ga
Ġblan co
Ġagu ar
Ġjust ifi
Sab e
Ġpan talÃ³n
Ġenten der
Ġrev el
Ġpronunci ar
ĠcompaÃ± ero
Ġvein ti
Ġsorpren dido
Ġdescub rir
Ġevid ente
Ġtur b
ĠsÃºbi tamente
Ġpelig ro
Ġconv ul
Ġresuel to
Ġdisi mu
Ġdescan sillo
Ġinsopor table
Ġcampan illa
Ġcondi ciones
Ġindigna ciÃ³n
Ġfeb ril
ĠUniver sidad
B ueno
D esde
E sta
R odi
T iene
c ri
c ando
h um
j es
j ese
l ante
m on
r f
r ÃŃan
t s
t era
v est
v ÃŃan
Â ¡
Ġ Que
Ġ ÃŃn
Ġe je
Ġa z
Ġa ven
Ġa ter
Ġa ma
Ġa Ã±a
Ġa diÃ³s
Ġde p
Ġde dos
Ġl ÃŃ
Ġc Ã¡r
er ro
en idad
an da
ÃŃ s
re de
Ġh am
un cia
in as
Ġen ig
Ġen traba
ci dad
ci oso
ci Ã©ndo
Ġla zo
es as
Ġse v
Ġun as
ra l
Ġcon tribu
al le
Ġes quina
ro vi
ro jo
Ġest abas
ol ia
di zo
di cos
Ġf re
Ġf lo
Ġre ti
ti en
Ġin con
Ġin gen
ien es
ien cias
vi go
vi erto
Ġdi fer
ĠP re
Ġdes li
Ġsi gue
Ġme tiÃ³
Ġme zc
bi li
ĠA c
Ġpu eda
Ġdel ic
Ġex as
Ġex cesi
si s
si on
si ca
si llos
Ġg or
Ġg ana
Ġcas arse
ur era
Ġper spec
Ġpro gres
Ġan dando
Ġver emos
lar o
Ġma qu
Ġser enidad
Ġesp al
Ġven ta
Ġven de
Ġca yÃ³
Ġsal ÃŃa
Ġimp re
ce jo
ĠT iene
Ġman chas
Ġhi ci
Ġtra tar
Ġfu ri
Ġrep ro
Ġtom aba
Ġir se
Ġvo ces
Ġhacer me
Ġcor on
Ġcor dÃ³n
Ġcor redor
Ġtu ve
Ġentre cejo
Por que
Ġhaber le
Ġcer rojo
Ġro bado
ĠV i
ĠV oy
Ġemp ren
ĠseÃ±or ita
Ġantes ala
Ġlevan tar
Ġdeb en
iÃ©n do
Ġpon e
ĠLud vigo
ĠN ada
Ġprop ia
Ġocur re
Ġter c
Ġconf esar
Ġri sa
Ġsilen ciosamente
ĠEst os
Ġapres ur
Ġsa cu
Ġconten erse
Ġbol sa
Ġbol sillos
Ġinm Ã³vil
Ġcontinu Ã³
Ġpersona je
Ġgust a
Ġtranqui la
Ġsue Ã±os
Ġmos tr
ĠMi trey
Ġexperimen tado
Ġreco brado
Ġabi erto
Ġmon stru
Ġdeclar aciÃ³n
Ġlen tamente
Ġobserv ar
Ġdorm ÃŃa
Ġtir ar
Ġtir Ã³
Ġcono zco
Ġdesper tÃ³
Ġpreocup ado
Ġreconoci Ã³
Ġpropi e
Ġdesgraci ada
Ġobli gado
Â«Â ¡
Ġestable cimiento
Ġsecre to
Ġrecur sos
Ġestrech Ã³
Ġindividu o
Ġamb os
Ġus urera
Ġenti erro
Ġlog rÃ³
Ġmiser able
Ġproy ecto
ĠhuÃ© rf
Ã¡rs elo
Ġaum en
Ġencan tado
Ġsupi ese
Ġorig inal
ĠoÃŃ dos
Ġestreme ciÃ³
Ġhier ro
Ġhuman idad
Ġatro pel
Ġaloj amiento
Ġeje cu
ĠcÃ¡r cel
Ġperspec tiva
ĠLudvigo vna
) ;
C atalina
D eb
E ste
P edro
c ada
d ec
d arse
g arse
h ka
m Ã³
r on
r arse
v el
v eza
v Ã©s
z oso
Ġ ora
Ġ za
Ġe ter
Ġd ob
Ġs ar
Ġs iendo
Ġde je
Ġc lase
ar ia
ar idad
ÃŃ e
ÃŃ da
Ġen er
Ġen am
Ġn um
Ġn udo
es or
es Ãºs
Ã© j
Ġse mb
Ġv es
Ã¡ cil
Ġsu ma
Ġsu biÃ³
am ento
Ġha ga
Ġb os
Ġb ro
Ġf Ã¡cil
Ġre st
Ġre du
Ġle ÃŃa
Ġle ÃŃdo
ti dad
ti miento
Ġhab ita
Ġin a
Ġcu Ã¡n
Ã± Ã³
Ġdi gn
ĠR es
em en
Ġdes n
Ġpu eb
Ġex tran
Ġg ar
ca dos
ĠD u
ĠL uego
Ġcas as
ter io
um n
Ġper segu
que te
vo cifer
ten cia
Ġan daba
Ġver Ã¡
ĠC h
Ġas iento
Ġj uego
Ġj ard
ier ta
Ġser vir
Ġob ten
Ġca pa
Ġpen osa
Ġpa usa
osi ciones
Ġdeci dido
Ġimp er
Ġsen saciÃ³n
ĠT ra
Ġtra vÃ©s
Ġpr Ã¡c
Ġrep ito
Ġesc lar
Ġar ma
Ġir res
Ġocu pa
Ġcal umn
Ġhacer le
Ġpres a
Ġcor respon
Ġmed ias
ac er
Por firio
Ġcer ra
Ġpregun tado
Ġestu che
ĠV erdad
Ġnue vas
Ġpe da
Ġverdad eramente
Ġlevan tÃ¡ndose
Ġcuar enta
Qu iere
Ġfuer on
Ġpon erse
Ġale jÃ³
ĠN i
Ġsup li
Ġllam Ã³
Ġencontr aban
Ġpol vo
Ġinf an
Ġreci Ã©n
Ġcan tidad
Ġbru tal
Ġante ayer
Ġbus ca
Ġfa sti
Ġbo tas
Ġclar a
Ġclar amente
Ġcrim inal
Ha y
Ġconten ÃŃa
Ġprincip almente
Ġsospe ch
ĠAn tes
ĠTo dos
Ġadver tido
ĠQu i
Ġfran que
Ġins ol
Ġpermi tido
Ġacord aba
Ġbar ba
Ġpien sa
Ġcabal l
Ġmarch arse
Ġextraordinar io
Ġtest igos
Ġpreocup aba
ĠÃºn ico
ĠÃºn ica
Ġdespre cia
Ġdistin gu
Ten ÃŃa
Ġdef ini
Ġdest ino
Ġtrabaj ar
ĠÃ¡n imo
Ġta pi
Ġnoti cia
ĠtÃŃmi damente
Ġdesh on
ĠAquel la
Ġbes Ã³
Ġayud ante
Ġresul tado
Ġer ror
Ġsopor tar
Ġcompr ome
Ġcobar de
Ġchal eco
Ġsonre ÃŃr
ĠNe va
ĠtÃ©rm inos
Ġalha jas
Ġdesi gn
ĠpuÃ± eta
Ġpropor cion
Ġatropel lado
A d
A quÃŃ
E se
P er
S erÃ¡
V e
a die
b e
b rÃŃa
b rada
c al
g er
g el
g ase
i ra
i vi
j aba
k in
m il
m ana
p u
p Ã¡
r era
t ri
t Ã¡n
t Ã©s
v aba
y os
Ġ u
Ġd ud
Ġd ÃŃgame
Ġa j
Ġa t
Ġa Ã±adiÃ³
Ġa dor
Ġs es
Ġde do
Ġl in
Ġp lan
qu eza
st u
ÃŃ os
or iz
Ġque da
ci ble
ci Ã©ndose
Ġla v
Ġv oso
Ġsu je
Ġno tar
ta das
ol e
Ġo je
di eron
di lla
Ġb en
Ġb or
Ġmi tad
Ġal co
Ġal tan
Ġal ivi
Ġhab ÃŃas
Ġin ca
vi Ã©ndose
Ġcu ch
ĠS Ã³lo
ĠP est
ĠP uede
Ġdes van
Ġdes arro
Ġsi Ã©n
la ciÃ³n
la ce
Ġi lu
Ġmu r
Ġmu erta
ez as
ca dio
Ġten ÃŃas
Ġpo bres
Ġac tu
ir ando
Ġper iÃ³
Ġpro vo
Ġmis mos
Ġan si
Ġan dar
ĠM u
Ġesp ec
Ġpa tio
Ġimp ru
Ġcar ro
Ġrep oso
ĠH ubi
Ġtom ando
Ġsol dado
Ġpi sos
Ġmen tal
Ġru ego
Ġcal lÃ³
Ġpres o
Ġpres entes
Ġcre a
Ġvol vÃŃa
eb ro
Ġcer rÃ³
gn e
Ġestu por
ĠV e
Ġnue ve
Ġlevan tando
ĠÃº til
Ġve a
Ġdeb erÃŃa
Ġesper ando
Ġprim eros
Ġbu enas
Ġenfer mi
Ġllev ado
ĠN atura
Ġlu cha
Ġgu s
Ġmar cha
Ġprop ios
Ġllam ado
Ġdese aba
Ġocur rir
Ġtran quil
Ġinf am
Ġci gar
Ġgri tÃ³
Ġdis cul
Ġpla za
Ġhum ana
Ġconven cer
ĠB ueno
Ġvuel tas
Ġrecon ozco
Ġcomen z
Ġcomen zaba
Ġvolver se
Ġofi cio
Ġcambi ar
Ġdescon cer
Ġof en
til las
ĠtÃŃ sica
Ġmos trÃ³
dÃ³n eme
Ġinvi tado
Ġinvi taciÃ³n
sist iÃ³
Ġofre cer
Ġocup ado
Ġcontemp lar
Cu Ã¡nto
Ġatra ves
Ġextre m
Ġperman ecÃŃa
Ġproced er
tur as
Ġblan ca
ria koff
Ġdvornik s
Ġtest igo
Ġbe bida
dr Ã¡s
ĠÃºn icamente
Ġprob ablemente
Ten go
Ġasust ada
Ġretir arse
Ġcomis ario
Ġacos tum
Ġpl ante
ÃŃsi mo
Ġdiver sos
Ġapresu radamente
Ġindividu os
Ġator men
Ġprofun da
Ã©ri ca
Ġexal taciÃ³n
Ġexplica ciones
Ġasist ir
Ġlar ga
Ġconden ado
Ġamen az
Ġromp iÃ³
Ġmater i
Ġinsignifi cante
Ġmuj ik
ĠAr cadio
Ġteor ÃŃa
mon os
ts hka
Ġenam or
Ġjard ÃŃn
ĠPest riakoff
E x
H as
I n
L as
T om
a cio
b ol
b eria
c tu
c arse
e ff
f era
i d
i ese
k y
m ado
p pe
p lic
s al
u a
u b
u siÃ³n
u bo
v ada
z an
Ġd o
Ġa us
Ġa uda
Ġa tribu
Ġa gradable
Ġa cog
Ġl ÃŃn
Ġl lena
Ġp esa
Ġp eso
Ġc iento
Ġm Ãº
do ra
Ġh ara
Ġh arÃ¡
Ġh arÃ©
Ġt ÃŃo
Ġque bran
ci to
es iÃ³n
da te
Ã¡ les
Ġcon tÃ³
Ġcon ced
al e
ro qui
Ġo dio
di fi
Ġha chaz
Ġb rib
Ġf il
Ġf ac
Ġf ÃŃsi
Ġf irme
Ġre si
Ġmi rado
Ġle c
Ġal lÃ¡
Ġal rede
ti dos
Ġin vest
Ġlo cura
Ġcu r
Ġpar tir
Ġpar roqui
Ġdi entes
Ġcom Ãºn
ia ciÃ³n
cu encia
Ġsi gu
la da
Ġme ter
gu al
gu ez
ĠA penas
Ġvi cio
Ġpu ra
era da
si vo
si vamente
Ġg alo
Ġhe cha
ĠD eb
mp a
Ġsin cer
tar te
Ġpre vi
tu ro
Ġso pa
ĠC ierto
Ġj unto
mi Ã³
sa ciones
Ġser iamente
Ġdesp ed
Ġven der
Ġba st
Ġca ÃŃdo
Ġhu ir
Ġmo zo
Ġmo tivos
Ġmo bili
ja das
ue do
Ġhom bros
ĠEn tre
Ġtra ÃŃdo
Ġtra tando
Ġfu turo
Ġpr om
Ġmom ent
Ġsegu ido
Ġr on
Ġr ab
Ġad qui
Ġsol ÃŃa
Ġpi diÃ³
Ġir re
Ġir Ã¡
Ġir me
uest ra
ĠEl la
pe fac
car le
Ġcal ma
Ġtem p
Ġcompren diendo
is mo
Ġcer veza
Ġcer ebro
Ġpod rÃ¡
par a
Ġextra Ã±as
Ġra yo
Ġesper ado
Ġfor mal
En tonces
Qu i
ĠAl lÃŃ
Ġnuest ras
Ġrub oriz
Ã¡ndo me
Ġri dÃŃ
Ġsom os
Ġbo ta
Ġdisp uesto
Ġdisp osiciÃ³n
Ġfij aba
Ġclar idad
Ġrec or
ĠK olia
Ha ce
Ġop rim
Ġparti da
Ġah or
Ġvest ida
Ã³l ver
Ġestudi os
Ġguar dÃ³
Ġhor ror
Ġsospe cha
sti co
Ġapo yo
Ġviol en
Ġviol encia
Ġsegun dos
Ġirri tado
ĠtÃŃ tu
Ġenga Ã±a
Ġmos traba
Ġimag inar
Ġexperimen tÃ³
Ġdescu bierto
Ġllegar on
Ġreg al
Ġborra chos
Ġpase aba
Ġofre cÃŃa
Ġcua d
ap ole
Ġcons ol
Ġexam inÃ³
Ġacompa Ã±ado
Ġreflexion Ã³
Ġprodu cido
Ġrecu er
Ġextraordinar ia
ĠseÃ±al ando
ĠPol enka
Ġreconoci do
Ġrev Ã³lver
Ġces aba
ĠJ esÃºs
Ġsatis fe
ĠcompaÃ± eros
Ġdiver sas
Ġagi tado
Ġlig ero
Ġevid entemente
Ġsosten er
Ba h
Ba sta
Ġcomun i
Ġcomun ic
Ġpose e
Ġadmi tir
vech zel
Ġdolor osa
Ġgrave dad
Ġdemos trar
Ġsum inist
Ġbeb er
Ġespan tos
Ġimped ir
Ġvaci lar
Ã¡b amos
Ġcorre dizo
Ġexclam aciones
Ġorgu llo
Ġtrist eza
Ġdesem pe
Ġsuper ior
Ġreconoc er
iza ciÃ³n
ĠLi ppe
Ġcate gor
Ġbote lla
Ġarreba to
Ġadem Ã¡n
Ġpresi dio
Ġaguar diente
Ġham bre
Ġespal da
ĠhuÃ©rf anos
Ġener gÃŃa
Ġrest able
Ġpueb lo
Ġgus ano
Ġfac ciones
Ġmobili ario
apole Ã³n
ĠLippe vechzel
A nastasia
A unque
S on
c to
d me
e ga
f re
g ren
g ist
i ciÃ³n
i tado
i ces
j ar
m or
m Ã©rica
p le
p ado
s fera
t ka
t antes
t Ã¡neamente
u ra
u ciones
y as
z Ã¡ndose
Ġ *
Ġ 3
Ġd aban
Ġa fe
Ġa stu
Ġp az
Ġp osi
Ġp elo
Ġc li
er tos
er no
en os
en cias
ar ra
ar nos
re pe
in es
in arse
Ġen sa
Ġen san
Ġla dr
Ġn ec
Ġse co
Ġse mana
Ġcon je
Ġcon stante
Ġsu dor
Ġsu av
to do
ri st
ri sto
le ctu
di ca
am pa
Ġf ur
Ġre ca
Ġre clam
Ġre med
Ġle cciÃ³n
Ġin tro
Ġin va
Ġin ex
Ġcu bi
Ġpar ecido
Ã± aba
ĠP ermÃŃtame
ĠE sp
Ġi rÃŃa
Ġi ban
gu Ã©
Ġpu esta
Ġg rado
Ġg esto
est os
li ch
li gi
ĠD os
ĠD es
Ġcas os
Ġac ar
um bre
Ġper e
Ġpre ju
Ġhac ÃŃan
Ġpro ceso
Ġpro hi
Ġan o
Ġan unci
ga dos
ĠC re
ĠC laro
Ġas al
Ġma gist
Ġcomp la
Ġcomp rar
Ġesp ero
Ġesp acio
Ġap os
ver dad
Ġmo da
Ġmo ver
Ġent era
Ġdeci diÃ³
Ġlle va
Ġimp rovi
Ġcar ac
Ġcar rera
Ġesta tura
Ġtra er
Ġtra tado
Ġdecir me
Ġfu ÃŃ
Ġcab ello
Ġsegu ridad
Ġsegu ramente
ĠH as
Ġqui tÃ³
Ġmir Ã¡ndole
pa dos
Ġocu par
car me
Ġcal lar
Ġcor rÃŃa
Ġcor tes
Ġcre y
pi to
uda do
jer os
Ġro jo
Ġro bar
Ġpregun te
Ġmal di
Ġmal ici
Ġestu vi
Ġestu pefac
Ġfi jos
Ġemp u
Ġton to
Ġco fre
Ġhabl aban
cer ÃŃa
tir se
Ġpon iÃ©ndose
ĠAl gun
ĠSi beria
ĠN apoleÃ³n
ist as
Ġdese a
ici os
Ġtran sp
Ġinquie to
Ġacu sado
Ġreci bir
Ġcan tar
Ġch arla
Ġconf un
Ġinstante s
Ġfal tÃ³
Ġbus cado
Ġapar tar
Ġapar iencias
Ġfa cultades
ĠEst ado
Ġmor b
Ġmor ir
erdo te
Ġdis cu
Ġdisp u
Ġdisp on
Ġdisp uso
Ġhum il
Ġpobre za
Ġbaj ando
Ġcomen zar
Ġvolver Ã©
ĠF uÃ©
Ġinm en
Ġcambi Ã³
Ġprincip ios
cuen cias
Ġestre cha
Ġinte lectu
ĠlÃ¡ ti
sti ca
Ġconte st
Ġfam ili
Ġcuri osos
Ġgru eso
Ġsac erdote
Ġfran co
Ġfran queza
Ġviol enta
Ġtab ique
Ġirri tada
Ġreflex iÃ³n
Ġacom e
ĠMi tka
Ġatre ver
Ġningun o
sist encia
Ġasegu rar
Ġprest ado
Ġatra v
Ġemple o
Ġdorm ido
Ġperman ecer
Ġinterrump ir
Ġconfes iones
Ġdesper tar
Ġcaus Ã³
!Â» --
dr Ã¡n
Ġpin tor
Ġconse cuencias
Ġdespre cio
Ġbille tes
Ġadiv inaba
Ġces ado
Ġretir Ã³
ĠJ amÃ¡s
Ġlla ves
Ġexplic arse
Ġcad ena
Ġlig eramente
Ġexac ta
Ġcolo re
Ġarreg lar
Ġrespe table
Ġnervi os
Ġrecord ar
Ġprocur ando
Ġce jas
ima ciÃ³n
Ġamb as
Ġpreocupa ciones
00 0
Ġtro p
Ġproy ec
Ġpagar Ã©
*** .
Ġabri go
Ġcampes ino
Ġfrunci Ã³
Ġdenunci arse
Ġdul ce
Ġreh us
Ġinde pen
ĠestÃºp ida
Ġordinar io
Ġconti go
Ġsuel en
Ġcarca jada
ĠprÃ³ x
Ġinjuri as
Ġembria guez
Ġsofoc ante
Ġabsolu tamente
Ġquisi era
ĠÃŃn ti
Ġdep osi
Ġexas per
Ġmaqu inalmente
Ġsacu dir
mÃ³ sfera
Ġsemb lante
Ġhabita ciones
ĠRes lich
Ġextran jero
vocifer Ã³
ĠCh ampa
Ġpeda zo
Ġinfan til
Ġfasti di
Ġcaball ero
Ġat mÃ³sfera
Ġalco ba
ĠsiÃ©n tese
Ġmur mur
Ġextrem adamente
Ġlec tura
Ġviolen tamente
repe tÃŃa
Ġensan gren
Ġnec edad
Ġsuav emente
Ġremed io
Ġcarac ter
ĠChampa gne
D Ã©j
E stas
H um
J a
M ar
M Ã¡s
O tra
R e
S oy
V Ã¡
a tÃŃa
c aban
c ÃŃan
d Ã©
d ero
d Ã³nde
g ente
g io
h e
h enka
i gu
i sta
i tas
j Ã³n
m es
o gÃŃa
o via
p az
r ask
s ky
u isa
v ÃŃ
v ora
Ġ z
Ġ ul
Ġe jer
Ġd urÃ³
Ġa gra
Ġde par
Ġp untos
en tas
ar Ã¡s
as iÃ³n
an zas
ÃŃ ti
re mos
Ġh Ã©
Ġh Ã¡
Ġt ela
in te
in ando
in amente
Ġen Ã©r
Ġen cen
ci ta
ci li
ci tos
ci adamente
te l
Ġv ano
Ġv iento
da vÃŃa
Ġcon taba
Ġcon serva
al quiera
Ġsu r
Ġno bles
ri endo
ta te
Ġest arÃŃa
Ġo por
am o
Ġb re
Ġf ras
Ġre ÃŃa
Ġre sto
Ġre alidad
ti ble
ti les
Ġhab ÃŃase
Ġin oc
Ġin esp
Ġcu ento
Ġcu bierto
ĠR ec
ĠP uesto
em n
Ġdes cen
cu che
la dos
Ġi gual
bi o
ec en
ĠA mÃ©rica
Ġpu l
de za
Ġdel ito
Ġdel iraba
Ġex ceso
Ġg em
ĠL uisa
Ġsin c
Ġten diÃ³
Ġten dido
Ġten drÃ©
ĠÃ© x
Ġsus pi
Ġpro test
Ġso cor
Ġan ci
Ġver te
Ġver se
po con
Ġcomp asiÃ³n
mi da
Ġser ia
ĠM ientras
Ġesp e
Ġesp on
Ġap e
sp ed
Ġob ra
Ġti ra
Ġven go
Ġpas aba
Ġca sti
Ġpen sion
Ġpa go
Ġpa quete
Ġsal ida
Ġhom bro
Ġcar ita
ĠT u
Ġexp on
Ġhi pocon
Ġsab iendo
ĠmÃŃ os
Ġtra du
Ġpr os
ces os
Ġar ra
Ġar ru
vid encia
Ġson ido
Ġad vierto
Ġmir arle
Ġencon tra
Ġhacer se
im Ã³n
Ġpres enta
Ġcor tado
Ġcor riÃ³
Ġcor ral
Ġcor tÃ©s
Ġentre gÃ³
Ġentre cor
Ġvol viÃ©ndose
Ġdej arle
Ġhay as
Ġcer rado
oc ado
Ġresp iraba
br aba
ĠV ol
ĠV ea
Ġpe gado
uel a
cil lo
Ġcam po
Ġemp ero
Ġemp resa
tor ia
Ġdirig ido
Ġdirig ir
Ġquer er
Ġam aba
Ġam able
Ġdem as
Ġcol e
Ġcol mo
Ġacab aban
ĠÃºlti mas
Ġhabl Ã³
Ġpreci p
Ġdar Ã©
iz ar
ist ible
Ġtar ta
Ġtar dÃ³
Ġllam e
Ġllam aba
Ġencontr arse
Ġquien es
Ġter cer
Ġri co
gri ta
Ġsilen cioso
Ġfal tado
Ġsor ti
cur so
Ġol or
Si empre
Ġmor tal
Ġbur la
Ġgri tar
Ġexpli co
Ġfij ar
Ġescu cha
Ġrec omen
Ġvuel va
ĠF inalmente
Ã³l vora
Ġencontrar on
Ġexper iencia
Ġocul to
Ġocul tado
Ġdeten er
Ġda das
Ġpresen tado
Ġsospe char
sti tu
Ġenga Ã±o
ĠCon fi
Ġescri bi
Ġinvi tados
Ġag ita
Ġatre vÃŃa
Ġatre vido
Ġbuen os
Ġconfi eso
Ġparticular mente
Ġcons en
Ġcons um
Ġexist ÃŃa
Ġcontemp laba
Ġabs or
Cu Ã¡l
Ġsub ÃŃa
Ġcostum bres
Ġfun da
Ġped ido
Ġtest im
Ġamar ga
Ġcien cia
Ġenten dido
Ġprepar a
Ġadiv inar
Ġvar ios
Ġdef en
ĠPar ece
Ġobr ero
Ġinquil ino
Ġexplic ado
Ġagi taba
Ġcap ri
Ġexac titud
Ġanim al
Ġadel an
Ġrespe to
ĠsÃºbi ta
Ġnervi oso
Ġpensa tiva
Ġcoloc Ã³
Ġconv iene
Ġpudi era
cep to
Ġrepar ar
Ġraz ones
Ġneg ros
balbu ciÃ³
Ġburl Ã³n
Ġburl ona
Ġasombr Ã³
Ġator m
Ġhabr ÃŃan
Ġprofun damente
Ġodi oso
*** ,
Ġpropon ÃŃa
Ġrepent inamente
Ġpsicol Ã³gi
Ġconserv aba
ĠPo co
Ġincorpor Ã³
Ġimpul sado
Ġorgu llos
ĠCompren do
Ġdespe cho
Ġacuer da
ĠestÃºp ido
Ġcuidad os
ĠSon etchka
ĠPas henka
ĠSen tÃŃa
Ġtrastor nado
Ġindifer ente
stro ff
Ġvac ÃŃo
ĠobstÃ¡ culos
Par ece
ĠÃ¡r bol
Ġdue Ã±o
Ġenem igo
Ġprov in
Ġescrib e
Ġconsidera ciÃ³n
Ġaz ul
Ġsev era
Ġdelic ado
Ġempren der
Ġterc era
Ġirres istible
Ġdefini tivamente
Ġtapi cerÃŃa
Ġinca paz
Ġcuch ara
ĠperiÃ³ dicos
Ġauda cia
Ġmoment Ã¡neamente
Ġsatisfe cho
Ġastu cia
Ġcli ente
Ġintro du
Ġpere ulo
Ġatrav esar
rask ovia
Ġhipocon drÃŃa
! ,
A malia
A diÃ³s
A sÃŃ
A penas
D i
D os
E sp
F uÃ©
I ba
M a
M ientes
P ulkeria
T ambiÃ©n
V en
a g
a vi
b er
c ÃŃ
c inco
d res
d ÃŃan
e as
e tshka
f lex
h ar
i b
i lo
i est
j or
j ÃŃa
k al
l l
l le
l mente
m entos
n imo
n it
o g
p tura
s elo
t Ã©n
t ora
u das
v ienta
x to
z in
Â ¿
Ġe cha
Ġe difi
Ġd an
Ġa is
Ġa bajo
Ġde jo
Ġde tu
Ġde uda
Ġde vol
Ġc Ã¡n
Ġc emen
er aba
er osa
os ÃŃ
Ġm ente
ar los
ar nit
st ado
an ÃŃa
re za
Ġh Ãº
Ġh il
Ġt ren
Ġt orm
in ete
in adamente
in tiendo
Ġen cu
Ġen tu
Ġen orme
ci osa
es os
Ġv el
ra te
ra cias
Ã¡ is
Ġcon ci
al l
al ab
ed as
Ġes con
ri llo
ch i
ro e
Ġest im
Ġest amos
Ġest rÃ©
Ġo jo
di ce
di damente
ado res
Ġb r
Ġf en
Ġf atal
Ġre o
Ġre an
Ġmi em
Ġle j
Ġhab Ã©is
Ġin o
Ġin fer
Ġin inte
ien en
Ġcu Ã¡ndo
Ġcu Ã¡l
Ġcu entas
el le
ĠS ab
ĠS ol
ĠS imÃ³n
Ġdi c
Ġdi vi
Ġdi eron
Ġdi ciÃ©ndo
ĠR us
Ġcom ien
Ġcom ido
Ġsi ga
... !
ĠE ran
ĠE sa
Ġmu eb
Ġmu riÃ³
se un
Ġpu b
Ġpu pi
Ġpu Ã±os
era ciÃ³n
de st
Ġdel irando
Ġex h
Ġex terior
Ġex clu
ez Ã³
est ar
ĠD el
ĠL ena
Ġsin iest
Ġac to
Ġac tos
Ġac titud
um en
ir ar
Ġper ju
Ġpre di
ĠÃ© po
Ã¡n da
Ġsus pen
Ġpro ferir
Ġma gn
Ġj ur
Ġj ud
tch kin
Ġesp oso
Ġap la
Ġte cho
Ġob lig
Ġba jos
Ġca jÃ³n
Ġtan tas
Ġmo zos
Ġpen oso
Ġpa pÃ¡
Ġsal va
ida mente
Ġlle ve
Ġsen sible
Ġcar re
Ġcar ne
ĠT em
Ġman eras
Ġman chado
ĠmÃŃ nimo
ĠH an
Ġtiem pos
Ġesc Ã¡nda
Ġr ÃŃo
Ġr aro
Ġr ÃŃe
Ġpi el
Ġpi eza
Ġmen ti
Ġinter pre
Ġru ptura
Ġcor te
Ġtu yo
Ġentre ab
Ġparec ÃŃan
ac ÃŃa
Ġdej ando
Ġhay an
eci eron
Ġro b
Ġro bo
Ġpod ÃŃan
Ġmal tra
Ġmal dito
br ar
Ġestu vieron
Ġpe gar
Ġju ven
Ġpers ua
Ġcuar tos
Ġam bi
ĠZ arnit
Ġpron uncia
Ġco bre
ĠEs cucha
iÃ©n tese
gra ciadamente
Ġvisi ble
Se a
Ġindi cios
iz ado
Ġhablar le
Ġhablar emos
ĠN adie
Ġneces i
Ġneces ito
Ġqued aba
Ġtran seun
Ġinf in
Ġreci ente
Ġcan ciÃ³n
Ġcan taba
Ġch ar
Ġconf usiÃ³n
Ġri sas
Ġbus cÃ³
Ġapar tÃ³
Ġapar taba
Ġsom brÃŃa
Ġci ego
Ġgri tando
Ġhum ano
Ġconven cida
Ġquiz Ã¡s
Ġcrim in
eros os
Ġmucha cho
Ġcomen zado
Ġvolver Ã¡
Est Ã¡s
Ġcondu ce
rib les
Ġcambi ado
Ġocul taba
Ġlan zar
Ġda tos
Ġrela ciÃ³n
Ġpeque Ã±
Ġsuf rido
Ġcul pa
?Â» --
Ġescuch ado
ĠQu erÃŃa
Ġapo yÃ³
Ġfran camente
Ġpermi to
Ġpermi ti
Ġmos trado
Ġimag en
Ġarre pen
Ġexperimen tar
Ġag entes
Ġhal la
Ġreg alo
uer me
Ġhon ra
Ġhon rado
Ġacord arse
Ġimpres ion
Ġculp abilidad
Ġcons ul
Ġprest ar
Ġprest aba
cul tad
Cu Ã¡ndo
Ġdom inar
Ġher ida
Ġextre ma
Ġsub ÃŃan
Ġinterrump iÃ³
Ġcabal los
tis mo
Ġmarch Ã³
Ġay uda
Ġfun er
Ġcaus ado
Ġextraordinar iamente
Ġaf irm
Ġconsider aba
Ġpin tores
Ġinmedia ta
Ġencar go
Ġconse cuencia
Ġprob able
Ġdespre ci
Ġadiv inado
Ġbril l
Ġbril laba
Ġbril laban
Ġacos tado
Ġtrabaj aban
ÃŃsi ma
To dos
Ġtur bado
Ġperten ecÃŃa
Ġexplicar me
Ġnervi osa
Ġsecre tos
Ġmanifest Ã³
Ġalegre mente
Ġrecur so
Ġpene trar
Ġpene trÃ³
Ġdu ra
Ġce le
Ġenvi ado
Ġreun iÃ³n
Ġpudi ese
ĠBa sta
Ġhospital idad
Ġdistra ÃŃdo
Ġprome tido
Ġempe Ã±ado
Ġfati gado
ĠhuÃ© sped
Ġpedir le
Ġhable mos
Ġsir vienta
Ġga stos
Compren de
Ġedu caciÃ³n
Ġequi val
Ġfan tÃ¡
ĠCompren dÃŃa
Ġacuer das
ĠSupon go
Ġchiquil los
Ġacon te
Ġcarca jadas
Ġrenunci ar
Ġrenunci ado
ĠpÃºb lico
vuel to
Ġcr ÃŃ
Ġmer ced
Ġconsegu ir
Ġconclu siÃ³n
Ġexcu sas
Ġcoch era
Ġalquil ar
Ġcuan tas
Ġdifi cultades
Ġil um
Ġtabern as
Ġtabern ero
ĠcÃ¡l culo
Ġperm ÃŃtame
Ġpreca uciÃ³n
Ġveinti cinco
ĠlÃŃ mi
Ġenig mÃ¡
Ġgor ro
Ġmonstru o
Ġpropie tario
Ġza pa
ĠDu tchkin
Ġobten er
Ġcerra dura
ĠVerdad eramente
ĠpuÃ±eta zo
Ġador nado
Ġvoso tros
Ġoje ada
Ġben e
Ġaltan ero
Ġdesarro l
Ġespec tÃ¡
Ġdesconcer tado
Tom Ã³
Ġhara pos
Ġhachaz os
Ġrab ia
Ġrecuer dos
Ġconje turas
Ġconstante mente
Ġacar ici
Ġpreju icios
Ġapos ento
Ġcortes ÃŃa
Ġtransp or
Mar meladoff
Ġdepar ta
ĠhÃ© roe
Ġopor tun
Ġarra st
Ġtestim onio
Ġpereulo k
Ġcemen terio
osÃŃ mil
ĠhÃº me
Ġhil aridad
ĠestrÃ© pito
Ġininte ligi
ĠRus ia
Ġmueb les
ĠÃ©po ca
ĠZarnit zin
. ,
? ,
A qu
A yer
C reo
H oy
I lia
J amÃ¡s
P uede
S al
b or
b amos
c Ã©
c tamente
c rÃ¡
d arÃŃa
d entes
e h
f ÃŃo
f irm
g amente
g aban
g ic
g les
h er
h ab
i vo
i diÃ³
i zo
i dez
j ado
m ano
m elo
o gar
p ro
p ul
r oso
s aba
t on
t ÃŃan
u ro
v sky
y an
z aban
z arse
z ler
Ġ on
Ġ ras
Ġ uso
Ġe con
Ġa go
Ġa ba
Ġa tur
Ġa grad
Ġa risto
Ġde di
Ġde no
Ġl lu
Ġl Ã³gi
Ġp esta
Ġc ita
Ġm el
st re
st em
Ã³ r
Ã³ meno
ÃŃ tan
re cciÃ³n
Ġh el
Ġt ol
Ġt am
Ġt aza
un a
un i
or mal
or tun
Ġque j
Ġen vol
ci dos
ci mientos
ci entos
Ġla dos
Ġla tÃŃa
Ġn ar
Ġn om
Ġn ormal
Ġse da
Ġse pa
Ġse camente
Ġv in
Ġv ul
Ã¡ zar
om anÃŃa
Ġsu bi
Ġsu po
Ġno tado
Ġno ches
ch amente
Ġest ilo
di l
di ese
di miento
di dez
Ġb al
Ġb est
Ġf ra
Ġf uego
Ġre ven
Ġre vol
Ġre serva
Ġre don
Ġre lÃ¡
Ġre ll
Ġal um
ti a
ti vas
Ġhab rÃ©
Ġin ti
Ġin ven
Ġpar iente
el las
el iz
Ġdi rÃ¡
ĠP av
ĠP raskovia
ĠP alab
Ġdes cor
Ġsi ente
Ġsi ti
Ġsi llas
Ġsi gno
la g
la damente
Ġi s
Ġi gles
Ġmu est
ĠA un
Ġvi r
Ġvi v
Ġvi vi
Ġpu ertas
Ġdel gada
Ġex iste
si as
si guiÃ³
dad os
Ãº rate
ca das
ĠD ese
ĠhabÃŃa mos
ur recciÃ³n
Ġac ciones
tar Ã©
tar la
tar los
Ġper di
Ġper pe
Ġper dÃŃa
Ġper tur
Ġpre te
Ġpre med
ĠÃ© sa
ĠÃ© stos
vo ca
Ġpro ve
Ġan da
Ġan imaciÃ³n
Ġver de
Ġver ano
Ġver osÃŃmil
ĠC osa
con es
ier tamente
Ġcomp ro
Ġser es
Ġser vÃŃa
sp eras
Ġdesp ren
Ġdesp ierto
Ġti ro
Ġti mi
Ġven drÃŃa
ina dos
Ġpas ada
ĠI gnor
Ġtan tos
Ġmo der
Ġpa ÃŃs
Ġent ab
Ġent ero
Ġdeci dir
Ġsal e
Ġsal tar
Ġlle ga
ce da
Ġsen tada
Ġsen cilla
Ġsen tencia
Ġcar gada
Ġexp iaciÃ³n
Ġman ifi
Ġsab en
Ġpal ide
Ġtra to
Ġfu esen
Ġpr osiguiÃ³
Ġrep i
Ġsegu idas
Ġtiem b
Ġesc anda
Ġar rim
Ġar diente
Ġtom e
vid entemente
Ġad m
Ġad Ã³nde
Ġsol lo
ba dos
Ġpi de
Ġab rÃŃa
Ġru idos
car a
Ġcal cu
Ġcal zado
Ġhacer la
Ġpres un
Ġcor to
Ġentre gar
Ġmed i
Ġdej aron
Ġhaber me
Ġro bados
Ġresp ira
Ġpod rÃ©
Ġpod rÃŃan
Ġmal os
Ġemb ro
Ġestu ve
Ġli bros
Ġnue vamente
Ġfi g
Ġfi jo
Ġju ro
Es cuche
Ġdem onio
Ġesper aban
Ġesper anzas
Ġcol Ã©ri
Ġfor zoso
tras e
ĠU no
Ġvisi tar
yer on
Ġres urrecciÃ³n
Ġllev arle
Ġindi sp
Ġindi gn
ĠN os
Ġescal ones
Ġllam as
Ġtemb laban
Ġencontr Ã©
cas e
Ġdec or
Ġdec ÃŃr
Ġconsi st
Ġinc en
Ġinst in
Ġdere chamente
Ġocur ri
Ġtran s
Ġinf lam
Ġinf ame
Ġcan sado
Ġri Ã©ndose
gri taba
Ġases inar
Ġfal taba
Ġbus caba
Ġdist rito
Ġapar te
Ġapar eciÃ³
Ġapar iencia
Ġsom e
Ġmor irÃ¡
Ġmor tifi
Ġmor ib
Ġbur las
Ġdis cre
Ġdisp onÃŃa
Ġasom bra
Ġgra cia
Ġgra ves
Ġbaj eza
ĠB us
Ġvuel vo
Ġsaber lo
Ġconten ta
Ġcondu cido
Ġcondu cir
Ġcontinu ar
imen taba
sab e
Ġpri va
Ġdeten iÃ©ndose
Ġtranqui lidad
ĠlÃ¡ sti
quier es
Ġdesa fÃŃo
Ġcri ado
Ġgen io
Ġgru esas
Ġcomprender Ã¡
Ġsac ado
Ġfran ca
man as
ĠvÃŃ speras
Ġins ensa
Ġpapel es
Ġreflex iones
Ġpermi te
Ġespeci al
Ġlugar es
murmur aba
gan ta
Ġmil l
Ġreg la
Ġsitu ada
Ġarro dil
ent aban
Ġintelig entes
ĠmÃ© rito
Ġpase arse
Ġmon omanÃŃa
Ġcons uelo
Ġpos esiÃ³n
Ġsepar ado
Ġcreer lo
Ġdom in
Ġcomer ci
Ġobserv aba
Ġobserv ado
ĠreÃŃr se
Ġproced imiento
Ġform u
Ġform aba
Ġform ado
Ġform ada
Ġpien sas
Ġprodu jo
Ġblan cos
Ġcaus as
Ġagu jero
ĠimbÃ©cil es
Ġcuer da
Ġencar gado
Ġconse jo
Ġconse jero
Ġprepar ado
Ġasust ado
Ġdest ru
Ġpronunci ado
Ġtrabaj ando
Ġocas iones
ĠPro videncia
Ġdesesp erado
per imentaba
Ġsuced ido
Ġexplic aba
ĠÃ¡n gu
ĠÃ¡n gel
Ġagi tÃ³
Ġobscu ra
Ġobscu ro
Ġeleg ancia
Ġinteres es
Ġcolo car
ĠacompaÃ± aba
Ġapresu ra
cion ado
Ġgab inete
Ġcoloc ado
Ġolvid aba
Ġexten diÃ³
Ã¡ne o
ĠBa kal
ĠestÃº pi
Ġpreocupa ciÃ³n
Ġdesespera da
Ġsum ido
Ġlog rado
Ġignor aba
ĠLle vaba
Ġrecobr ar
Ġarroj ar
Ġimped ÃŃa
Ġrode aban
Ġfati ga
Esto y
Ġaver igu
Ġho jas
Ġalem ana
hi li
Ġgan as
Ġrepent ino
Ġpsicol ogÃŃa
Ġata que
Ġconserv ado
su p
Ġangust ia
Ġamen aza
Ġalej arse
Ġorgan ill
ĠSupon gamos
Ġchiquil la
An te
Ġdur m
Ġdepen de
Ġenc am
Ġoy endo
Ġlimp ia
Ġesfor zÃ¡ndose
Ġescap ado
Ġpec ado
Ġpec uni
Ġmister io
Ġcorri ente
Ġcoch ero
Ġindifer encia
Cre e
Cre es
Mu y
Ġavi dez
Ġpren das
Ġbel la
Ġretor cÃŃa
Ġcuan tos
Ġpusi eron
ĠobstÃ¡ culo
Ġdetal le
Ġdetal les
Ġvec inos
Ġleg ÃŃti
ĠaquÃ© l
ĠaquÃ© lla
Ġpreca uciones
Ġcontrari edad
Ġinterroga torio
Ġdisimu ladamente
Rodi a
Rodi Ã³n
cri p
ĠaÃ±a dir
Ġflo res
Ġincon ven
ĠAc ab
Ġfuri oso
Ġmostr ando
Ġejecu ciÃ³n
Deb e
Ġbos que
Ġdign idad
Ġdesn ud
Ġgar ganta
Ġpersegu ido
ĠprÃ¡c tica
Ġcalumn ia
Ġfranque ar
Ġdeshon or
Ġsuje to
Ġalivi o
Ġilu siÃ³n
ĠNatura leza
ĠlÃŃn eas
Ġalrede dor
Ġinvest iga
Ġcur so
Qui ero
ĠridÃŃ culo
ĠtÃŃtu lo
Ġimaginar te
Ġespantos a
Ġcategor ÃŃa
Ġensa yo
ĠDes graciadamente
Ġmagist rado
Ġimprovi so
Ġmalici osa
Ġinmen so
Ġintelectu al
Ġproyec tos
Ġensangren tado
Ġfras es
ĠÃ©x ito
Ġprotest ar
Ġcasti go
Ġpension ado
Ġentrecor tada
Ġdemas iada
Ġprepara tivos
Ġdefen der
Ġprovin cia
Ġentu sias
Ġfen Ã³meno
Ġpupi lo
Ġjur ÃŃ
Ġapla stado
ĠescÃ¡nda lo
Ġpronuncia das
Ġbrill antes
ĠespectÃ¡ culo
Ġdeparta mento
Ġon ce
Ġllu via
ÃŃtan me
Ġvul gar
Ã¡zar o
ĠrelÃ¡ mpa
Ġrell ano
Ġigles ia
ĠlÃ¡sti ma
! Â»,
A R
A c
A un
B u
E spera
G racias
H ubo
I V
L ebeziatnikoff
M i
M ientras
P ien
P erdo
P uedo
S en
T E
V I
a je
a firm
b as
b ase
c Ãº
c Ã©s
c rib
d ese
e ado
e qui
f alle
g encia
i e
i eza
i edad
k tir
l on
m amente
n ada
o ce
p aba
p uesto
p lico
r osa
s es
s mo
t ÃŃn
t ables
u se
u radamente
Ġ 2
Ġ W
Ġ ur
Ġe fec
Ġe quÃŃ
Ġd ocu
Ġa se
Ġa zar
Ġs amo
Ġde te
Ġde vor
Ġde test
Ġl lo
Ġl una
Ġp le
Ġp ia
Ġp Ã¡r
Ġc Ã³
Ġc Ã¡
Ġc el
Ġc las
er ra
en se
ar iamente
do res
on e
Ã³ gic
ÃŃ jese
ÃŃ stica
Ġt ini
Ġt esor
un ta
in ada
in sistiÃ³
Ġen tr
Ġen viÃ³
Ġen ju
Ġen volviÃ³
Ġla vado
Ġy endo
te lo
te sis
Ã© rase
Ġse an
Ġse du
Ġse manas
Ġv uest
Ġv ini
da Ã±os
Ã¡ mel
Ġcon d
Ġcon ce
Ġcon fer
om i
om pa
Ġsu cia
Ġsu fi
Ġsu cio
Ġsu ici
Ġsu cesi
Ġno table
ta mos
ch in
ch eb
ro ch
ro res
ro pe
Ġest ando
Ġest ancia
Ġest ima
Ġest rope
di oso
Ġha ciÃ©ndo
Ġb esar
Ġb endi
Ġre ch
Ġre tro
Ġre tras
Ġre almente
Ġre lig
Ġre gular
Ġmi siÃ³n
Ġmi lag
Ġle tras
Ġle gado
Ġal iento
ti zo
ti camente
Ġin ci
Ġin ces
Ġin vol
Ġlo cal
Ġcu b
el la
Ã± ada
Ġdi j
Ġdi v
Ġdi ri
Ġdi gno
ĠP ens
ĠP Ã³lvora
Ġdes al
Ġdes po
Ġdes mes
Ġdes falle
cu a
Ġsi stem
ĠE videntemente
res e
Ġmu e
Ġmu da
Ġmu ri
Ġmu tismo
gu en
bi era
ec ciÃ³n
ec ÃŃan
Ġto ca
ĠA par
Ġvi l
Ġvi br
Ġvi eron
Ġvi gor
Ġpu de
era ciones
Ġdel gado
Ġex equi
si cos
Ġg arro
Ġg estos
ada do
ez co
ru ci
ĠD ÃŃgame
ĠL Ã¡zaro
Ġten ta
Ġpo cas
Ġpo cos
ur as
Ġac cidente
ter ÃŃa
ir ma
tar ia
Ġper ci
Ġper diÃ³
Ġper ple
Ġpre sta
Ġpre fer
Ġpro lon
Ġmis mas
Ġso p
fi co
sta d
Ġan du
Ġan illo
Ġver ifi
ga te
ga ciÃ³n
ĠC ada
lar Ã³
Ġma ta
ier es
Ġcomp ar
ĠM is
Ġap ren
Ġdesp ierta
das e
Ġven drÃ©
ĠI zler
Ġca pi
Ġhu ra
Ġhu ellas
Ġmo dos
Ġpa dres
Ġsal to
Ġlle gue
Ġlle gase
Ġimp ide
Ġsen tar
Ġsen saciones
Ġcar tas
Ġcar gos
Ġcar ece
ĠT an
ĠT om
Ġman ch
Ġhi lo
ios as
Ġsab ios
Ġsab rÃ¡
Ġpal idez
Ġtra ktir
Ġrep os
Ġtien de
Ġsegu ra
lam os
ĠPor que
mb os
Ġbien he
Ġesc as
Ġhubi eses
Ġar ti
Ġar gu
Ġson aba
Ġmir aban
ĠPetro vsky
ba ciÃ³n
pa Ã±a
Ã±a dos
Ġab ur
pe te
ud ablemente
Ġtem e
Ġtem o
Ġcor ta
Ġcre ciente
Ġentre gado
Ġherm an
Ġvol viendo
dre mos
ve te
ac to
Ġdej an
ĠDun etshka
eb las
Ġcer em
Ġro to
Ġro ja
Ġro jas
Ġpod rÃ¡s
Ġpregun to
Ã±os amente
Ġfi el
Ġcam paÃ±a
Ġju rado
Ġemp ap
Ġra di
Ġra tÃ³n
Ġdirig irse
ĠseÃ±or itas
Es cucha
Ġquer ida
Ġlevan ta
ĠZ a
Ġdeb es
Ġami st
Ġami stad
Ġfor ro
Ġfor tal
Ġfor zada
Ġacab e
Ġacab o
Qu er
Qu izÃ¡
Qu ieres
gado r
Ġvisi tas
Se gÃºn
Ġpreci pi
Ġdar Ã¡
De ja
Ġlu to
Ġsup osiciÃ³n
Ġprop osiciones
Ġminu ciosamente
Ġexpres aban
Ġqued arse
Ġinst al
Ġdese arÃŃa
Ġne cia
Ġne ga
Ġinf eliz
Ġinquie te
Ġinquie taba
Ġinquie tarse
Ġacu saciÃ³n
Ġreci entemente
Ġreci biÃ³
Ġcan ciones
Ġcan didez
Ġconf orme
lla te
ocu pado
Ġante mano
Ġquier as
gi ca
ĠMar ta
ĠEst u
Ġdisp ar
Ġfij ado
Ġhum illa
Ġasom brada
Ġbaj aba
ĠB anco
ros as
Ġop ri
Ġconten ido
Ġinm ensa
Ġval ÃŃa
Ġlab io
Ġpru dencia
Ġpri vado
Ġdeten ÃŃa
Ġdeten erse
Ġdeten idamente
Ġbrus co
Ġbrus ca
Ġguar daba
Ġda Ã±o
Ġgust arÃŃa
Ġpresen taba
Ġpresen timiento
ĠAn te
ĠoÃŃr se
Ġadver tÃŃa
Ġcru zados
Ġsue le
Ġfran cÃ©s
ĠAqu ello
Ġpermi tÃŃa
Ġmos trar
Ġimag inarse
Ġconoci da
Ġreco g
ĠdÃ© j
Ġencuen tran
Ġaproxim arse
Ġesca pa
Ġprof esor
Ġbar rio
Ġofre ce
Ġmon edas
Ġocup arse
den cias
Ġanti gua
Ġsepar aciÃ³n
Ġdeclar Ã³
Cu Ã¡n
Ġatra er
Ġmol esta
Ġmovi mientos
Ġproced e
Ġinterrump ido
Ġreflexion ado
Ġinterro gar
Ġconfes ado
esta d
Ġmarch ado
Ġkope k
Ġaf able
Ġaf lig
Ġagu jer
Ġtest amento
Ġempez aba
Ġamar illo
Ġamar ill
Ġponer me
Ġdisgust os
Ġconsider ar
Ġpel daÃ±os
Ġprepar ar
Ġprepar aba
Ġdistin ta
Ġdistin tamente
Ġciudad ano
ĠO tra
Ġbril lar
Ġpared es
gen es
Ġdef ensa
Ġces Ã³
Ġmolest ar
Ġmolest ado
Ġsalud Ã³
Ġantigu os
Ġantigu as
ĠcompaÃ± ÃŃa
Ġcontar Ã©
Ġsuced e
Hab ÃŃa
men es
Ġta pete
ĠrÃ¡p ido
Ġsorpren dida
Ġexac tamente
Ġinteres ante
Ġarreg lado
Ġquin ientos
Ġestable cer
Ġperten ece
Ã©ndo le
Ġapre tando
Ġrespe tu
Ġapresu rado
ĠvÃŃcti mas
ĠsÃºbi to
Ġmanifest ado
Ġpose ÃŃa
Ġnoble za
Ġpene tr
Ġolvid ar
Ġizquier do
Ġrepar ado
Ġneg ro
Ġperdon e
Ġperdon ado
Ġasombr aba
Ġnatural mente
Ġdemos trado
Ġenti en
Ġbeb o
ĠPer dÃ³neme
ĠLle gado
Ġprome tiÃ³
Ġrecobr Ã³
Ġarroj arse
Ġhabr Ã¡n
Ġespan tada
Ġsufrim ientos
Ġaver gon
Ġho ja
Ġho tel
Ã¡rs ela
Ġtranquili zar
II I
Ġgan ar
Ġrepent ina
Ġcampes ina
Compren des
Ġley es
Ġfrunci endo
tin Ãº
Ġangust ias
Ġvacil ado
Ġvacil ante
ubi era
Ġense Ã±
Ġdesma y
Ġdesma yo
Ġapoy ado
Ġ1 5
Ġevi tar
Ġavan zÃ³
Ġpun ta
Ġind ul
Ġcuidad osamente
Ġacon se
Ġdeber es
Ġfing ida
Ġfing iÃ³
Ġapoder Ã³
Ġesfor zaba
ĠpÃºb lica
Po bre
Ġdeterm inado
Ġdeterm inaciÃ³n
Ġcr Ã¡neo
Ġcla ve
Ġcla vado
Ġconclu siones
Ġfres ca
Ġalar gÃ³
ĠSen ado
Ġdesen lace
Ġexcu s
Ġgros ero
Ġprote sta
Ġcorri endo
Ġced ido
Ġreal iz
Ġcumpli r
Ġdifi cultad
Ġdesgar rado
Ġpreced ente
Ġpreced entes
Ġcari Ã±
Ġtriunf o
Ġinclin Ã¡ndose
Ġrepugn ante
Ġrepugn ancia
Ġleg al
Ġhabi tu
Ġexig e
Ġprocu rado
ĠMa Ã±ana
ĠVen go
Ġcontrari ado
Ġsacrifi cio
Ġjustifi ca
Ġturb Ã³
Ġdisimu lar
Ġaven tura
Ġenig ma
Ġingen io
Ġdifer entes
Ġexcesi vamente
Ġhici eron
Ġcoron el
Ġcoron illa
Ġeter na
Ġnum erosos
Ġbos te
ĠfÃ¡cil mente
Ġsupli cio
Ġinsol ente
Ġdesprecia tivo
Ad vocia
Ġlin da
Ġdesvan ecido
ĠMu chas
ĠHubi era
Ġdiscul p
Ġcomenz aron
Ġmateri ales
Ġenamor ado
Ġaus encia
Ġquebran tado
Ġbrib Ã³n
Ġfil os
Ġparroqui anos
Ġsincer amente
Ġadqui rido
Ġtemp estad
Ġfur or
Ġinex plic
Ġmoda les
Ġmover se
Ġcrey endo
Ġmaldi ta
ĠAlgun as
Ġtrop ez
ĠprÃ³x ima
Ġmurmur aba
DÃ©j ame
Ġz um
Ġbre ve
Ġinoc encia
ĠRec on
Ġsinc ero
Ġsuspi ro
Ġanci ana
Ġespe jo
Ġape tito
Ġprecip ita
Ġtarta mu
Ġsorti jas
ĠConfi eso
Ġabsor to
ĠpsicolÃ³gi co
Ġorgullos o
Ġazul es
flex ion
Ġedifi cio
Ġdevol ver
Ġrean ud
Ġmiem bros
Ġinfer ior
ĠSol amente
Ġexclu sivamente
Ġcarre ta
Ġcorte dad
Ġjuven tud
Ġambi ente
Ġnecesi taba
Ġtranseun tes
Ġfuner ales
ĠfantÃ¡ stico
ĠlÃŃmi tes
Ġzapa tos
Ġbene fi
Ġoportun o
Aqu el
crÃ¡ tica
Ġbest ia
ĠPalab ra
Ġvir tud
Ġcompro bar
Ġtimi dez
Ġrespira ciÃ³n
ĠcolÃ©ri co
Ġincen dio
ĠÃ¡ngu lo
Ġapresura miento
Ġdurm iendo
afirm Ã³
Ġur gente
Ġdocu mento
Ġsamo var
Ġtini eblas
Ġinvol un
Ġdesmes uradamente
Ġexequi as
Ġgarro te
Ġamarill ento
B us
C er
E res
E ran
E sa
H erm
I sabel
L le
L ud
M as
O b
O iga
P as
P ermÃŃtame
S o
S us
S ofÃŃa
T ienes
V al
V ol
V oy
a co
b os
b ern
c ro
c osa
c Ã¡ndose
c antes
c inaciÃ³n
d an
d le
d el
d Ã©n
d ÃŃsima
e o
f r
f orme
g s
h om
h em
i ado
i tario
k h
l and
m ada
m ido
m ese
m inu
n ura
p Ã³
p res
p rÃ©
r ab
r Ãº
r Ã¡n
r aban
r ÃŃas
r arÃŃa
s ia
s eme
t ones
t ina
t ÃŃas
t Ã¡rselo
u t
u ci
v Ã³
v nas
x i
y era
y ase
Ġe c
Ġe ras
Ġd or
Ġd arÃŃa
Ġd uelo
Ġd uerme
Ġa bre
Ġa mp
Ġa tar
Ġa fi
Ġa fer
Ġa gri
Ġa don
Ġs anto
Ġde du
Ġde tien
Ġde udas
Ġl imos
Ġc ÃŃr
Ġc elo
Ġc ÃŃn
er ÃŃas
er emos
en tro
en cial
qu es
Ġm ante
Ġm Ã³vil
Ġm intiendo
ar es
ar off
ar emos
as en
an es
an tÃ¡neamente
Ã³ li
Ã³ ma
ÃŃ bu
re cido
Ġh un
Ġt ap
un d
Ġque ma
in tiÃ³
Ġen v
Ġen gan
ci or
ci eron
ci samente
ci tur
te mos
Ġn u
Ã© p
Ã© me
Ã© vol
Ġse d
Ġse que
Ġse mi
Ġse ver
Ġse pul
ra ciÃ³n
ra das
ra mos
ra mento
Ã¡ lo
Ã¡ llate
Ġcon cer
Ġcon stitu
Ġsu pre
Ġsu bido
Ġsu ceso
Ġes encial
Ġno ta
ri os
ch era
ol a
le ta
Ġo j
Ġo pon
Ġo iga
am ista
ust o
Ġb l
Ġb an
Ġb ul
Ġb ord
Ġb eso
Ġf le
Ġf la
Ġre serv
Ġre mor
Ġal de
Ġal bor
ti ri
ti cas
Ġhab ido
Ġhab iendo
Ġhab ilidad
Ġhab lamos
Ġin un
ien se
vi da
vi dad
Ġcu i
Ġcu yos
Ġcu Ã¡les
Ġpar ientes
ĠS o
Ã± e
Ã± al
Ġdi bu
Ġdi cen
ĠR esp
ĠP ala
ĠP uedo
ĠP AR
cu ciÃ³n
Ġsi l
la das
la ciones
ĠE spera
Ġme tÃ¡
Ġi mÃ¡
Ġi remos
Ġmu elle
gu as
se cuciÃ³n
bi tro
ĠA nastas
Ġvi d
Ġpu se
Ġpu diendo
Ġex ag
si va
mo res
Ġg al
Ġg raba
Ãº d
ez ca
li caciÃ³n
ĠD eci
Ġten der
ven ciÃ³n
tra ciÃ³n
Ġac or
ter n
tar ios
tar iamente
Ġper ro
Ġper dida
Ġper secuciÃ³n
tu cho
Ġpro bar
fi ca
il los
Ġan cho
Ġan dado
Ġver ÃŃa
Ġver Ã¡s
Ġver lo
Ġver stas
Ġver gon
ma c
ĠC inco
ĠC rist
lar es
Ġma tÃ³
Ġma yo
tch in
Ġcomp rado
Ġcomp ara
Â» ?
Ġser le
Ġser lo
Ġser Ã¡n
Ġdesp le
Ġdesp ist
tado res
Ġob tuvo
Ġti po
Ġti rado
ver sa
Ġven drÃ¡n
Ġca sta
Ġca po
Ġca ja
Ġca fe
Ġca ÃŃda
Ġmo viendo
Ġpa gÃ³
Ġpa tillas
Ġsal i
Ġsal ÃŃan
Ġsal uda
Ġsal iendo
Ġsal var
Ġsal ieron
ja te
Ġlle vo
Ġimp osi
Ġsen tÃ¡ndose
Ġsen tirse
Ġcar ru
ĠT ampoco
ĠT ienes
ĠT cheb
Ġexp an
Ġman e
Ġman ten
Ġhi pÃ³
ios os
Ġsab ÃŃan
Ġpal os
Ġesta ciÃ³n
Ġtra ÃŃa
Ġtra mp
tal es
Ġfu ente
Ġni vel
Ġtien da
Ġtien das
ĠH emos
ĠH ubo
ĠseÃ± ores
gar ÃŃa
Ġsobre man
Ġsobre todo
Ġesc ar
Ġesc la
Ġesc rÃº
erm an
ul lo
Ġtom o
Ġtom Ã©
Ġson aron
Ġson idos
Ġqui se
Ġqui taba
Ġqui tarse
Ġsol os
Ġsol as
Ġsol tar
Ġsol tÃ³
Ġsol edad
Ġsol itario
Ġmir arme
Ġpi ezas
uest as
Ġmen tido
Ġab us
Ġru sos
Ġru mores
car ÃŃa
Ġcal ur
im enta
Ġcor tada
Ġtu ya
Ġparec en
Ġvol vieron
pi dez
Ġmed idas
ac os
ac Ã³
Ġdej arÃ©
eci da
Ġhaber lo
Ġcer rados
Ġcer tifi
Ġcer cior
Ġro j
Ġresp irar
Ġpod emos
Ġmal estar
por te
Ġcier tamente
Ġestu ches
Ġli ter
Ġnue vos
Ġpe gaba
Ġcual idades
Ġju eces
Ġju ramento
Ġdirig ÃŃan
Ġcos tado
Ġquer iendo
Ġva ter
ic or
Ġton tos
Ġam ado
Ġech aba
Ġech arse
Ġdem anda
Ġmes ita
Ġve ÃŃan
Ġco brar
Ġvie jos
Ġvie jas
Ġfor zado
Ġacab arÃ¡
En tre
Qu erÃŃa
Ġdesde Ã±osamente
Ġgran a
Ġhabl Ã©
gra daba
Ġvisi Ã³n
Ġvisi tantes
Ġfin almente
Ġdar me
Ġpon te
Ġpon go
Ġres umen
Ġllev Ã¡ndose
Ah ÃŃ
Ġindi cado
Ġindi gno
ĠSi empre
Ġhablar te
ĠN oso
Ġlu char
Ġsup osiciones
Ġgu antes
Ġgu erra
Ġmar avi
Ġmar tiri
Ġneces aria
Ġtar ea
Ġllam o
Ġllam an
ig Ãºrate
Ġconsi go
Ġinc endi
Ġexpres ar
Ġexpres Ã³
Ġexpres ado
Ġaten der
Ġqued an
Ġqued arÃ©
Ġpol aco
Ġinst antÃ¡neamente
Ġdese char
Ġdere chos
Ġacer taba
Ġacer cÃ¡ndose
Ġocur ra
Ġocur rÃŃa
Ġter ribles
Ġter nura
Ġtran si
Ġinf orm
Ġreci bo
Ġcan tante
Ġsos tÃ©n
Ġch o
Ġch ocado
Ġconf us
Ġconf usa
Ġsilen ciosa
Ġases inado
Ġbru ja
Ġquier en
Ġor illa
Ġapar ecer
quil ado
Ġfa vo
Ġfa cili
Ġci prÃ©
cur rido
Ġbur larse
Ġgri vnas
Ġdisp ara
Ġfij ando
Ġfij arse
Ġpla zo
Ġrespon dido
Ġrespon diendo
Ġclar as
Ġrec al
Ġvuel ve
Ġref u
Ġpreocu par
ĠF u
Ġllor an
Ġconten er
Ġcuest iones
Ġsonri Ã©ndose
Ġval en
Ġvest ÃŃbu
Ġcondu jo
ĠMe jor
Ġcontinu o
Ġcontinu as
Ġcontinu amente
Ġencontrar la
Ġpri ma
Ġocul tÃ³
Ġlan z
ĠTen ga
Ġguar d
Ġguar dado
Ġguar dar
Ġgust aba
Ġsenti dos
Ġsenti men
ai eff
Ġsuf rÃŃa
Ġpresen tarse
Ġdesa gradaba
Ġcri sis
Ġconoc ÃŃan
ĠoÃŃr le
Ġcuri oso
Ġgen eraciones
ĠTo das
Ġcru ces
Ġden uncia
Ġins inu
Ġirri tar
Ġenga Ã±as
ĠCon ozco
ĠMi ra
Ġescri tas
Ġescri torio
Ã©r sele
Ġinvi erno
Ġag ente
Ġatre vi
Ġatre vo
Ġatre ve
Ġatre viÃ³
Ġmil lares
Ġprimer as
Ġreg res
Ġarro ja
Ġarro yo
Ġarro jÃ³
ĠpropÃ³si tos
ĠmÃ© todo
Ġconfi ese
Ġimpres iones
Ġabi ertas
Ġbar in
Ġbar ra
Ġbar ullo
Ġpase o
Ġpase antes
Ġresol viÃ³
Ġmon ol
Ġexist ir
Ġexist ÃŃan
ern e
Ġexam inando
Ġprest amista
Ġele vada
Ġsignifi caciÃ³n
Cu Ã¡les
cel encia
omen zaba
Ġemple ados
Ġtemblor osos
Ġolvi da
Ġolvi de
Ġsub e
Ġsub stra
Ġder ra
Ġtir as
Ġproced ÃŃa
Ġproced ido
Ġform ando
emp ezÃ³
Ġprodu ce
Ġconfes aba
Ġpasa je
Ġcaus ar
Ġcaus aba
Ġextraordinar ios
Ġamar illa
Ġenfermedad es
Ġresponder le
Ġtor p
Ġreconoci miento
ĠO stroff
Ġrev uel
ĠdÃ©bil mente
Ġmolest arle
Ġocas ion
Ġenter ado
Ġsuced er
Ġsuced erÃ¡
Hab rÃ¡
To davÃŃa
ĠÃ¡n imos
Ġta citur
Ġcad enas
Ġlig era
Ġdescub riÃ³
Ġeleg ido
mu la
Ġconvi dados
Ġsimp atÃŃa
Ġcolo res
Ġdesh arra
Ã©ndo me
Ġanim ado
Ġapre ci
Ġapre tÃ³
Ġsosten erse
Ġmanifest aba
Ġrecord aba
Ġprocur arse
Ġlib er
Ġcoloc ada
Ġpelig ros
Ġterm inar
Ġpudi eron
Ġexten siÃ³n
cep tible
Ġneg lig
ĠBa jo
Ġayud ar
Ġgo ta
Ġgo bern
Ġllen Ã³
Ġllen ado
Ġfe cha
Ġdiab los
Ġasombr oso
Ġenti endo
Ġprome tida
Ġrecobr aba
Ġabandon Ã³
Ġcoc in
Ġtro zo
Ġvas os
Ġimped ido
Ġvaci laciÃ³n
ĠKo zel
Ġobst inadamente
Ġexaminar la
Ġexaminar lo
Ġaum ento
Ġalter ado
Ġsir ve
Ġga st
Ġpropon go
Ġpsicol Ã³gic
Compren do
Ġedu cado
Ġedu cada
Ġagar r
Ġreh usa
Ġinsp iraba
Ġinsopor tables
Ġexclam aciÃ³n
Ġequi vo
ĠDi sp
Ġarm ario
Ġarm onÃŃa
Ġorgan illo
Ġaho gaba
Ġaho gada
Ġordinar ios
Ġpun tillas
Ġenc anto
Ġenc ruci
Ġconti gua
Ġoy e
Ġrefi ere
Ġind emn
Ġfigu ra
Ġapoder ado
Po co
Ġconsegu ido
Ġfres co
Ġrechaz Ã³
Ġalcan ce
Ġprote g
Ġdesapar ecer
Ġdesapar ecido
ĠcadÃ¡ver es
Ġrazon able
Ġbel leza
Ġretor ciÃ©ndose
Ġil ust
Ġjun tas
Ġcari Ã±o
Ġarran carle
Ġbote llas
Ġaprovech arse
ĠengaÃ± aba
Ġregist ro
Ġregist rar
Ġresolver se
Ġabsolu to
Ġsimple mente
Ġrepresen taba
ĠÃ¡r bitro
Ġhabi taba
Ġprov inci
ĠCu alquiera
Ġrepe tido
Ġsolici tar
Ġsolici tud
Ġtuvi era
Ġsuplic aba
Ġsuplic ado
Ġconvul sivo
Ġconvul sivamente
Ġaven ida
Ġsev ero
Ġdelic ada
Ġexcesi va
Ġprogres o
Ġprogres os
Ġventa jos
Ġvende dora
Ġimpre vi
Ġrepro ches
iÃ©ndo le
iÃ©ndo la
Ġterc ero
Ġpropie taria
Ġaumen tado
dec larÃ³
Ġora ciÃ³n
Ġdob lÃ³
Ġsar cas
Ġnum erosa
ĠcuÃ¡n tos
Ġcapa cidad
Ġesclar ecer
Ġcorrespon diente
Ġinsol encia
Ġdistingu ido
Ġcomprome ter
Ġdesign io
ĠpuÃ±eta zos
pu los
Ġses enta
Ġilu siones
Ġactu almente
Ġansi osamente
Ġmental mente
ĠNatura lmente
Ġtranquil amente
Ġinfam ia
Ġcigar rillo
Ġconvencer me
Ġatormen taba
Ġamenaz as
Ġmateri al
Ġmujik s
Ġdo ble
Ġparroqui ano
Ġgalo par
Ġdesped irse
Ġron ca
Ġoprim ido
Ġcomuni car
Ġcomunic aba
Ġdesempe Ã±ar
Ġ3 0
Ġladr Ã³n
Ġladr ona
Ġreclam a
Ġcubi erta
Ġano che
Ġestupefac to
Ġempu j
Ġdiscu siÃ³n
ĠlÃ¡ti go
ĠlÃ¡ti gos
Ġfamili aridad
Ġacome tido
Ġcaracter es
Ġul tra
ĠhÃ¡ bil
ĠenÃ©r gica
Ġinesp erada
Ġespon tÃ¡neamente
Ġexpon er
Ġencontra mos
Ġcole gio
Ġagita da
Ġatorm enta
Ma Ã±ana
Ġconci erne
Ġreo jo
Ġexh al
Ġperju di
Ġmagn Ã¡n
Ġjud ÃŃos
Ġcrimin ales
Ġhonra dez
ĠcrÃŃ menes
ĠhÃºme da
Ġaristo crÃ¡tica
ĠlÃ³gi ca
Ġsiti os
Ġis la
Ġperdi ciÃ³n
Ġprete xto
Ġprove cho
Ġpalide ciÃ³
Ġadm inist
Ġinstin to
Ġmorib undo
Ġcomerci ante
ĠBakal aieff
Ġaverigu ar
Ġinconven iente
Ġentusias mo
Perdo ne
ĠequÃŃ voca
ĠpÃ¡r pados
Ġtesor o
Ġcond ena
Ġsufi ciente
Ġsuici dio
Ġbendi ciÃ³n
Ġmilag ro
Ġinces ante
Ġdiv ina
Ġdesal quilado
Ġvibr ante
Ġcapi tÃ¡n
Ġfortal eza
Ġprecipi tÃ³
Ġhumilla ciÃ³n
Ġpenetr ante
Ġinexplic able
Ġprecipita damente
Bus ca
Herm ano
Lud jin
Ġadon de
Ġlimos na
ĠcÃŃr culos
Ġseque dad
Ġalbor o
ĠPala cio
ĠPAR TE
ĠimÃ¡ genes
ĠAnastas io
ĠCrist al
Ġmayo res
ĠTcheb aroff
ĠhipÃ³ tesis
Ġsobreman era
Ġincendi os
ĠciprÃ© s
ĠvestÃŃbu lo
Ġsubstra erse
Ġgobern ador
A r
A mbos
C ar
C Ã¡l
C ierto
C alle
C laro
C Ã¡llate
D em
D ÃŃgame
H acÃŃa
L lam
M is
N i
N adie
O stroff
P e
P ro
P ol
P uesto
P ron
S Ã©
S iÃ©ntese
T ra
T ampoco
V es
V erdad
Z ametoff
] .
a tia
a tÃŃas
b ada
c in
c ablemente
c tores
d ru
d ver
d arÃ¡
d umbre
d uras
d udablemente
e ada
f en
f ra
g al
g ante
g Ã¡ndole
g icamente
h ogar
h ubiera
i te
i Ã¡
i le
i me
i tu
i tos
i osa
i pe
i eff
k ru
l Ã©
l ese
l Ã©s
l Ã©ri
m ar
m un
o fr
p il
p ued
p ulo
r ÃŃ
r ano
r aron
s ar
s on
s ul
s ciente
t ente
t zo
t anto
t Ã¡ndole
t Ã¡ndola
u di
u era
u dos
v era
y e
z ca
z ase
z arle
Ġ k
Ġ zar
Ġ Ã³r
Ġe h
Ġd ada
Ġd ame
Ġa do
Ġa ci
Ġa ren
Ġa zo
Ġa fecto
Ġa mpli
Ġs Ã³li
Ġde le
Ġde fecto
Ġde biÃ³
Ġde bida
Ġde mac
Ġl enta
Ġp om
Ġp ones
Ġp len
Ġp Ã©r
Ġp lena
Ġp illo
Ġc era
Ġc itaciÃ³n
Ġc lÃ©ri
er tura
en tien
Ġm ona
ar do
ar az
ar ias
st en
st icamente
on ado
on aban
on ios
on adado
an as
an de
Ã³ mal
ÃŃ c
ÃŃ te
ÃŃ pro
ÃŃ fico
Ġh ol
Ġh ur
Ġh eno
Ġh endi
Ġt aba
Ġt ez
Ġt um
Ġt rÃ¡
un tÃ³
or ado
in ente
in aban
Ġen a
Ġen vÃŃa
Ġen orm
Ġen col
Ġen cog
Ġen lace
Ġen vuelto
ci almente
ci lidad
Ġla ti
Ġla zos
Ġla var
Ġn Ã¡
Ġn acer
Ã© st
Ã© tera
Ã© ramos
Ġse llo
Ġse pas
Ġv emos
Ġv uestra
Ġun iÃ³n
Ġun if
Ġun iver
da ga
Ġel ocu
Ã¡ monos
Ġcon j
Ġcon st
Ġcon ta
Ġcon sa
Ġcon curso
Ġcon cepto
Ġcon tinÃº
al to
Ġsu pe
Ġsu yos
ed aba
Ġno va
Ġno vel
ta ca
ta ciones
ch or
ch aba
ch ada
ro je
Ġest al
Ġest arÃ¡
Ġest imo
Ġest Ã³ma
le jo
Ġo ÃŃan
Ġo yeron
di dad
di cas
am ba
am inaba
ust ico
Ġha gan
Ġb ara
Ġb igo
Ġb ocado
Ġf ero
Ġf ru
Ġf um
Ġre Ã±
Ġre go
Ġre sta
Ġre ÃŃan
Ġre lam
Ġre lu
Ġre sist
Ġre ferir
Ġre sistencia
Ġmi re
Ġmi ento
Ġle vi
Ġle yÃ³
Ġal tas
ti ciÃ³n
ti tos
ti vidad
Ġhab las
Ġin t
Ġin co
Ġin des
Ġin sistiÃ³
Ġin daga
ien da
vi ar
vi al
Ġcu mp
Ġcu ellos
ĠS iendo
ĠS iÃ©ntese
Ã± ando
Ã± ora
Ġdi va
Ġdi stante
Ġdi men
Ġdi gna
Ġdi jeron
Ġdi minu
ĠR a
Ġcom b
Ġcom i
Ġcom mun
ĠP res
ĠP ase
ĠP hili
ĠP iense
jo res
Ġdes ab
Ġdes ver
Ġdes qui
Ġdes cri
Ġdes ierta
Ġdes crib
Ġdes ocupado
Ġdes dÃ©n
cu la
cu laciÃ³n
Ġsi gn
la taba
... ?--
go table
ĠE stas
Ġme jores
Ġi mi
Ġi ras
Ġi gno
Ġmu d
Ġmu ec
gu es
gu ramente
bi d
bi os
bi dos
ec era
Ġto car
Ġto cado
ĠA f
ĠA cu
ĠA caso
Ġvi ese
Ġvi gi
Ġvi viendo
Ġvi cioso
Ġpu ro
Ġpu dor
lo vna
de dora
Ġex clamÃ³
Ġex cep
si ma
si dera
Ġg rano
Ãº l
Ãº bi
uÃ© l
ru p
est e
est an
Ġhe chas
ca ciones
li za
li tud
li zar
ĠL es
ĠL ida
Ġten Ã©is
Ġcas arme
tra dor
Ġac re
Ġac Ã¡
Ġac ero
Ġac lar
Ġac ced
um e
ido tshka
tar ra
tar lo
Ġper f
Ġper si
Ġpre ven
Ġpre cio
Ġcomo didad
Ã¡n dos
ĠquÃ© date
Ġpro di
Ġpro pen
Ġpro ceda
Ġso bres
Ġso Ã±ado
Ġso Ã±ar
Ġso Ã±aba
io res
Ġan onadado
Ġver las
ga zos
ĠC asi
ĠC iertamente
lar me
Ġma ja
Ġcomp Ã¡s
Ġcomp asi
Ġcomp uesto
ran tzo
mi ta
mi cas
mi litud
Â» ;
Â» Â¡
ren o
ren ta
ĠM os
ĠM ÃŃ
ĠM arÃŃa
Ġap lic
Ġap asi
Ġap ete
Ġap atÃŃa
sp osiciÃ³n
Ġdesp rovi
Ġob ras
Ġob rado
Ġven dido
Ġpas iÃ³n
Ġpas arÃ©
ĠI ba
Ġba il
Ġba tal
Ġba Ãºl
Ġca e
Ġca tor
Ġca tÃ¡
Ġmo de
Ġmo vÃŃa
Ġpen osos
Ġpen osamente
Ġpa st
Ġpa ja
Ġent rist
osi militud
Ġdeci di
Ġsal v
Ġsal ÃŃ
Ġlle guÃ©
Ġlle gaban
Ġimp o
Ġimp on
Ġimp idiÃ³
Ġsen si
Ġsen tir
Ġsen tase
rim en
rim ir
ue b
Ġcar ecÃŃa
Ġexp uesto
Ġman go
Ġman io
Ġman cha
Ġman dado
Ġhi to
ĠEn trÃ³
Ġsab io
Ġsab emos
ĠPe ti
der Ã¡
der le
Ġtra jo
Ġtra tas
Ġtra jes
Ġfu iste
Ġpr or
za das
Ġcab ecera
iÃ³ dica
ĠH acÃŃa
ĠseÃ± ales
us ka
Ġesc Ã©p
Ġya cÃŃa
Ġar ch
Ġtom aban
Ġtom aron
Ġson ar
Ġr ÃŃ
Ġqui m
Ġad vi
Ġsol uciÃ³n
Ġsol emn
Ġmir aron
Ġmir Ã¡ndola
Ġpi ca
ĠtenÃŃa mos
pa gue
ĠEl los
Ġmen di
Ġmen tir
Ġab o
Ġab stra
Ġab und
Ġinter venciÃ³n
Ġru so
Ġru mb
Ġru bio
Ġencon trase
Ġcal laba
im nas
Ġtem a
Ġtem iendo
Ġtem iese
Ġpres os
Ġcor tar
Ġcre en
Ġcre es
Ġentre garme
Ġpens Ã©
Ġpens arÃŃa
van tÃ³
van gel
pi tos
ĠSe a
ĠSe pa
Ġdej arÃŃa
Ġdej ase
eci miento
Ġhaber te
Ġro ta
Ġresp lando
Ġresp irÃ³
Ġresp uestas
Ġmal icia
Ġtal ento
Ġtal ler
Ġemb araz
ĠV est
ĠsÃŃ laba
Ġpe gÃ³
Ġpe chera
ord Ã³
cil iaciÃ³n
Ġcam ar
Ġcam inaba
Ġemp a
rÃ© du
Ġextra Ã±
Ġextra Ã±os
tor ios
Ġra pidez
Ġcos tÃ³
Ġcos taba
Ġcos tase
Ġquer ÃŃan
Ġquer ÃŃas
Ġquer ella
Ġva go
Ġva gando
Ġva yan
Ġlevan taba
Ġlevan tada
Ġcuar tito
Ġcuar tucho
ic k
les iÃ¡
ĠÃº tiles
Ġam an
Ġam ante
Ġam ueb
Ġech Ã©
Ġdem uestra
Ġve hem
El la
lic as
Ġesper as
Ġco do
Ġco pa
Ġco inci
Ġco ber
Ġcol gado
Ġfor rado
Ġfor zados
Ġacab arÃŃa
Ġbu jÃŃa
ĠEs os
cer se
unci Ã³
ÃŃr sele
Ġpreci oso
Ġpreci siÃ³n
ĠAd vierto
Ġpon drÃ©
Ġllev arla
iz on
iz Ã¡s
iz ada
ced e
ĠN a
ĠN uest
Ġescal eras
Ġescal ofr
Ġmar chas
Ġneces ariamente
ĠDe j
preguntÃ³ le
Ġllam ada
Ġtemb lÃ³
Ġdec ÃŃan
Ġconsi ente
Ġconsi ste
Ġconsi guiÃ³
Ġconsi dero
Ġinc rÃ©du
Ġexpres arme
Ġqued aban
Ġqued Ã¡ndose
Ġpol ÃŃ
Ġpol acos
Ġinst itu
Ġdese oso
Ġacer caba
Ġacer carse
Ġtres cientos
Ġne gra
Ġinf ancia
Ġinf ortun
Ġinquie tar
Ġacu s
Ġacu diÃ³
Ġcan taban
Ã¡ndo te
Ã¡ndo las
Ġch or
Ġch imen
gri tan
rir se
Ġperson almente
Ġfal se
Ġbru to
Ġcalle jeros
gi ble
gi miÃ³
Ġapar iciÃ³n
!... --
asi lio
Ġtraba jos
Ġfa cilidad
ĠSu plico
Ġbo da
Ġci elo
ire mos
Si gue
Ġmor ales
Ġbur lo
Ġgri taba
Ġdis cur
Ġdis curso
Ġtener se
Ġpla to
Ġhum ill
Ã¡r sele
Ġconven cimiento
Ġconven iencias
Ġclar os
Ġsa stre
Ġrec l
Ġrec om
Ġrec ÃŃpro
ĠB ien
ĠB asilio
ĠK har
ĠK atia
Ġref orm
Ġrecon ciliaciÃ³n
Ġvolver ÃŃa
ĠF erme
ĠF ÃŃjese
ĠF rantzo
Ġcuest a
Ġparti ci
Ġvest ir
Ġcondu ci
Ġlab or
Ġcir culaciÃ³n
Ġencontrar le
Ġencontrar emos
Ġocul tos
Ġdeten erme
Ġlan zado
mel as
Ġentrar on
Ġestre pitos
Ġdescon f
Ġda dos
Ġrela cionado
Ġgust an
Ġhor mi
Ġpeque Ã±as
Ġcul tura
Ġpresen tan
ĠUn icamente
Ġsospe cho
Ġdesa grad
Ġdesa hogar
ĠAn daba
Ġescuch ando
ĠpÃ¡ g
Ġconoc erte
ĠoÃŃr lo
Ġgru esa
ĠTo da
ĠTo davÃŃa
Ġcomprender Ã¡s
ĠQu iere
Ġapo ple
Ġsac ando
Ġcru zÃ³
Ġfran ces
Ġviol entos
Ġtab la
Ġins en
ĠtÃŃ mido
Ġcome tiÃ³
Ġpermi so
Ġpermi tiÃ³
Ġmos trador
ril los
Ġescri biÃ³
Ã©r date
Ġinvi tÃ³
Ġexperimen tando
Ġag res
Ġnego ci
Ġconoci ese
Ġreco ger
Ġsitu ado
Ġhon rada
Ġencuen tras
Ġdejar lo
Ġaproxim aba
Ġconfi dencias
Ġprof eso
Ġparticular idad
Ġofre ciÃ³
Ġasegu ra
Ġcua der
ap Ã¡
Ġocup aban
Ġcontemp lando
Ġexam inado
ĠHab iendo
dez co
Ġpos ada
Ġsepar Ã³
Ġsepar aba
Ġele va
Ġsignifi can
Ġcreer Ã¡
Ġdeclar o
Ġdeclar ar
Ġdeclar ado
Cu alquiera
Ġatra jo
Ġmol esto
Ġobserv Ã³
Ġemple ar
Ġbuscar me
Ġaleg ro
Ġgener oso
Ġdif unta
Ġdeli b
Ġdeli ro
Ġdeli ca
Ġinterrump iÃ©ndose
Ġincl inado
Ġreflexion aba
Ġpien se
Ġprodu cÃŃa
Ġprodu cir
Ġprodu jeron
Ġinterro gaba
Ġinterro garme
Ġinterro gÃ¡ndole
Ġren o
Ġbil lar
Ġfun dado
Ġfun esta
Ġmira mientos
Ġextraordinar ias
Ġasesina tos
Ġaf ron
Ġaf renta
Ġagu do
Ġagu deza
Ġace ite
Ġservi do
Ġservi rÃŃa
Ġservi rÃ¡
Ġempez ar
ĠseÃ±al Ã³
Ġconsider e
Ġpreocup ada
Ġpreocup arse
Ġgolpe a
Ġpin tura
Ġpin tada
Ġcien tÃŃ
Ġinmedia to
Ġenten dÃŃa
Ġencar Ã¡ndose
Ġprob ado
Ġprob abilidad
Ġreconoci endo
Ġbille tito
Ġbril lante
Ġrev ela
Ġdest ro
Ġacos tÃ³
Ġacos tarse
Ġpronunci Ã³
Ġpronunci ada
Ġfuerte mente
Ġterrible mente
Ġacep taba
ĠJ u
Ġpl eno
ĠestÃ© tica
Ġsalud ar
Ġadvir tiendo
ha y
Ġau di
Ġenter os
Ġsupon e
Ġsuced iÃ³
bal e
Ġta pa
Ġlig eros
Ġdescub rim
Ġdescub rÃŃa
Ġeleg ir
Ġos ten
Ġevid encia
Ġconvi cciones
Ġdire ctamente
Ġsimp atÃŃas
Ġexac to
Ġobli gÃ³
Ġinteres an
Ġcolo cados
Ġadvertir lo
Ġarreg lando
ĠacompaÃ± Ã³
ĠacompaÃ± amiento
Ġdesh acer
Ġperten ecen
Ġapre cia
Ġapre taba
Ġexplicar le
Ġetc Ã©tera
Ġsecre tario
Ġcomun es
Ġmanifest ar
Ġjuz gaba
Ġsignifica tivo
Ġrecur rir
Ġprocur ar
Ġcoloc arse
Ġolvid Ã³
Ġestrech aron
Ġpelig rosa
Ġdolor osamente
Ġdu das
Ġreun idas
Ġrepar Ã³
Ġresuel ta
Ġresuel tamente
Ġgo zoso
Ġllen aba
Ġlimi to
Ġlimi tÃ³
Ġlimi tÃ©
Ġresul taba
Ġdistra ÃŃda
Ġburl Ã¡ndose
Ġasombr osa
Ġus ada
Ġtras la
ĠPer iÃ³dica
Ġignor o
Ġmiser icor
Ġempe Ã±o
Ġempe Ã±ados
Ġhabr ÃŃas
Ġrode a
Ġrode aba
Ġpreguntar Ã¡
Ġdesconoci da
Ġhonor arios
Ġeb ria
Ġaver gÃ¼enza
Ġpes adamente
Ġodi osa
Ġdisi pa
Ġviva cidad
Ġexcel entes
Ġincomo de
Ġtranquili zado
Ġinsul tos
Ġinsul tado
Ġabsur da
mÃ¡ tica
Ġer rores
Ġalter na
Ġalter cado
Ġsir viÃ³
Ġpropon e
Ġimpa ciente
Ġabri endo
Ġcampes inos
Ġfavor able
Ġdesconfi ado
Ġata Ãºd
Ġlar gos
ster io
Ġconden ada
Ġley endo
Ġexci tado
Ġexci taciÃ³n
Ġexci tados
ĠpaÃ± ol
Ġdenunci aba
Ġincorpor arse
tin as
Ġdul c
Ġasi lo
Ġagar rÃ³
Ġinde ci
Ġinde cible
Ġinsp ir
Ġvacil Ã³
Ġcobar des
Ġorig en
Ġocultar lo
Ġautor idad
Ġautor izaciÃ³n
Ġense Ã±ado
Ġfan go
ĠRe vista
ĠRe flexion
ĠDi ce
ĠperdÃ³n eme
Ġalej ado
Ġalej Ã¡ndose
Ġtrist es
Ġtrist emente
Ġapoy ada
An tes
An drÃ©s
Ġevi taba
Ġevi tando
Ġtos er
Ġsuel dos
ĠfrÃŃa mente
Ġrefi ero
ĠPas Ã³
ĠEx perimentaba
Ġacon go
Ġsocial es
ĠprÃ³ j
Ġfigu raba
Ġgui Ã±Ã³
Ġapoder arse
Ġfres cura
Ġfirm ar
Ġrechaz ar
Ġmister ioso
Ġmister iosas
Ġalcan zÃ³
Ġgros eramente
Ġobed eciÃ³
ĠVa kru
Ġreconoc ÃŃa
Ġdesapar eciÃ³
Ġrazon ar
ĠtÃ©rm ino
Mu chas
Ġpren da
Ġcen tro
Ġced iendo
ens aba
stro fe
Ġconmo vido
Ġreal izaciÃ³n
Ġdesgar rada
Ġrecibi miento
Ġtriunf ar
Ġsofoc ado
ĠengaÃ± arme
Ġinclin arse
Ġrepresen tar
Ġinsignifi cantes
Par ecÃŃa
Ġdue Ã±a
ĠcÃ¡l culos
Ġalu cinaciÃ³n
Ġperm ÃŃtanme
Ġpreten de
Ġrepe tir
Ġadem anes
Ġpresi di
Ġtuvi mos
Ġlibr arse
Ġinterroga torios
Ġater rada
Ġater rado
Ġcontribu ÃŃdo
Ġcontribu yÃ³
Ġflo re
Ġreti rado
Ġingen ioso
Ġdifer encia
ĠPre cisamente
Ġexas p
Ġventa jas
Ġvende dor
Ġhici ese
Ġrepro du
ĠVi vo
ĠVi vÃŃa
Ġapresur ar
Ġmostr arse
Ġeter no
Ġina dver
Ġina gotable
ĠcuÃ¡n tas
Ġdesn udos
Ġgar an
terio res
Ġobten ido
Ġcapa ces
Ġimper tin
ĠprÃ¡c tico
Ġocupa ciÃ³n
Ġocupa ciones
Ġsospech aba
Ġsospech oso
ĠQui so
Ġfranque Ã³
Ġcomprome tido
Ġdesign ios
Per dÃ³neme
pu f
tri z
Ġu Ã±as
Ġdud aba
Ġses os
Ġvoso tras
Ġben Ã©vol
Ġbor de
Ġbor rar
Ġactu alidad
Ġprovo cado
Ġansi edad
Ġimpru dente
Ġimpru dencia
Ġmental es
ĠVe ÃŃa
Ġenfermi za
Ġenfermi zo
Ġenfermi zos
Ġinfam ias
Ġofen der
Ġofen dido
Ġacostum brada
id an
Ġdo ce
Ġacog ida
ĠlÃŃn ea
ĠmÃº sicos
ĠfÃŃsi co
Ġresi gn
Ġalrede dores
Ġinvest i
Ġsigu iendo
Ġmeter me
Ġgalo pe
Ġsincer idad
Ġprevi sto
Ġprevi siÃ³n
Ġdesped ida
Ġvender ÃŃa
Ġprom esa
Ġprom esas
Ġruboriz Ã³
ĠtÃŃtu los
Ġcuad ro
Ġcomuni caciÃ³n
Ġcategor ÃŃas
Ġrestable cer
Ġafe i
Ġafe itado
Ġcubi ertos
ĠCre yÃ³
Ġasal tado
Ġcallar on
Ġestuvi era
Ġcharla tÃ¡n
Ġmorb oso
Ġdispon ÃŃan
Ġcontest ar
Ġcontest Ã³
Ġatrever ÃŃa
Ġindepen diente
ĠprÃ³x imo
ĠÃŃnti mas
Ġdeposi tÃ³
Ġnecedad es
VÃ¡ monos
VÃ¡ yase
Ġagra daba
Ġinesp erado
Ġdescen diÃ³
Ġsocor ro
Ġsocor rer
Ġtradu cciÃ³n
Ġarru gas
ĠVol viendo
Ġrecomen da
Ġescribi entes
Ġcapri ch
Ġcuchara das
ĠhipocondrÃŃa co
Ven drÃ¡s
Ġdetu vieron
ĠcÃ¡n didamente
Ġtorm entos
chi uska
Ġlej ano
Ġlej ana
ĠdiciÃ©ndo me
Ġcomien zos
Ġpredi sposiciÃ³n
Ġoblig ada
ĠTem b
Ġmenti ra
Ġinfin ita
ĠpequeÃ± uela
Ġarrepen timiento
Ġimpresion ado
Ġafirm ar
Ġcele br
ĠhuÃ©sped es
Ġequival ente
Ġacarici ado
Ġininteligi ble
Ġininteligi bles
Sal iÃ³
Ġdeno taba
Ġpesta Ã±e
Ġmel an
Ġnar ices
Ġreven dedora
Ġalum braba
Ġinti mi
ĠPav lovna
Ġmuest ra
Ġviv ienda
Ġpertur bado
Ġpremed itado
Ġmoder nas
Ġsollo zando
Ġcalcu lado
Ġpresun ciones
Ġmedi ante
Ġdecor ador
ĠdecÃŃr telo
Ġconsist ÃŃa
Ġinsensa to
Ġmill ones
Ġformu lar
ĠestÃºpi das
sup licÃ³
Ġorganill ero
Ġencam inÃ³
ĠlegÃŃti ma
crip ciÃ³n
Ġinvestiga ciÃ³n
ĠrelÃ¡mpa go
Ac ab
Bu ena
ĠW a
Ġpia ta
ĠcÃ³ micas
ĠcÃ¡ ustico
Ġvini ese
Ġconfer encia
Ġsucesi vo
ĠhaciÃ©ndo le
Ġretro ced
Ġretras o
Ġinci dentes
Ġcub eta
Ġdij iste
Ġdiri jo
Ġmuri ese
ĠApar te
Ġtenta tiva
Ġandu vo
Ġcerem onia
Deja dme
Ġbrillar on
Ġentien des
ĠcariÃ± oso
ĠRecon ozco
Ġreanud ar
Ġbenefi cios
Ġinvolun tariamente
Ġec lesiÃ¡
ĠcÃŃn ico
Ġengan char
Ġsever amente
Ġsepul cro
Ġsupre mo
Ġoj illos
Ġbord es
Ġvid rio
Ġdespist ado
Ġcafe tÃŃn
Ġimposi bilidad
Ġcarru aje
Ġtramp as
Ġcertifi cado
Ġcercior arse
Ġroj iz
Ġrecal cando
Ġsentimen tal
Ġneglig entemente
Ġcocin era
Ġequivo cado
Ġencruci jada
Ġilust rado
Ġventajos o
Ġsarcas mos
CÃ¡l lese
Dem onio
ĠclÃ©ri go
Ġmona sterio
Ġtaba co
Ġencol er
Ġlati gazos
Ġunif orme
Ġelocu encia
Ġconsa g
ĠestÃ³ma go
Ġfero z
Ġrego ci
Ġrelam pague
Ġinco her
Ġindaga toria
Ġdimen siones
Ġcommun e
ĠPhili po
Ġdesver gon
Ġsign os
Ġiras cible
Ġigno re
Ġmaja der
Ġcator ce
ĠcatÃ¡ strofe
Ġentrist ecÃŃa
ĠescÃ©p tico
vangel io
Ġresplando r
Ġvehem encia
Ġcoinci dencia
Ġcober tizo
Ġinstitu triz
Ġchimen ea
ĠFrantzo vna
Ġapople jÃŃa
Ġafron tar
ĠeclesiÃ¡ stico
! ;
) --
) --,
. ;
2 0
? ;
A bre
A laba
A div
A bri
A ses
B ien
C ada
C inco
C iertamente
C omenzaba
D es
D ic
D Ã¡mel
H an
H ombre
H all
I rÃ©
M al
M iente
M amÃ¡
M it
N atura
P re
P apÃ¡
P ensaba
S ol
T A
T em
T anto
V i
V ete
V erÃ¡
V II
Z osimoff
] ,
a te
a tch
a das
a dre
a gre
b ia
b rio
b Ã©r
c l
c Ã¡
c encia
c tor
c entes
c tur
c tora
d Ãº
d ario
d arme
d ecer
d ÃŃsimo
f o
f u
f os
g Ã¡
g ia
g ru
g il
g osa
g ame
g lÃ©s
h ur
h oma
h acer
i ar
i jo
i rado
j ust
j osa
j amÃ¡s
j esen
k as
k li
m Ã©
m ir
m arse
m ul
m ase
m edia
n al
n iente
o h
o cia
p l
p ÃŃa
p ada
p iento
p elo
p lica
p inadamente
r om
r gu
r ru
r arÃ¡
r arÃ©
r arle
r erÃŃa
s en
s Ã©
s ol
s ada
s ales
t ino
t abas
t ÃŃase
u p
u ja
v Ã©
v amos
v emente
w ton
y en
y ese
y endo
y amos
z te
z ante
z ones
z osa
z uel
z can
z ura
Ġ 5
Ġ ÃŃ
Ġ rÃŃa
Ġ oso
Ġe go
Ġe co
Ġe cho
Ġe mi
Ġe rig
Ġe dito
Ġd udo
Ġa ur
Ġa tado
Ġs ano
Ġde ca
Ġde sta
Ġde udo
Ġde vuel
Ġde volviÃ³
Ġde biera
Ġde lataba
Ġl entos
Ġl ison
Ġp est
Ġp Ã¡n
Ġc az
Ġc and
Ġc esa
Ġc Ã¡p
Ġc aza
er la
er vo
er ten
er us
en ci
en me
en itch
os ch
os tura
qu er
Ġm Ã¡
Ġm ina
Ġm ord
Ġm Ã¡r
ar e
st ar
st im
st ici
on amente
on arios
Ã³ so
Ã³ cil
ÃŃ to
ÃŃ sta
ÃŃ za
ÃŃ damente
ÃŃ vol
ÃŃ cara
ÃŃ jate
re jas
Ġh ar
Ġh in
Ġh em
Ġh Ãºm
Ġt Ã³
Ġt un
Ġt in
Ġt rÃ©
Ġt rib
Ġt Ã¡c
Ġt rab
ab Ã³
ab il
ab all
or gu
Ġque de
in e
in cu
in gun
Ġen ca
Ġen ven
Ġen oj
Ġen vuel
Ġen trase
Ġen roje
Ġen orgu
ci able
ci entes
ci entemente
Ġla d
Ġla m
Ġla stim
te o
te ar
te mÃ¡tica
Ġn atal
Ġn ub
es go
Ã© mos
Ġse cos
Ġv ana
Ġv ienen
Ġun e
ÃŃa mos
da me
da mos
Ġel o
ra me
Ã¡ li
Ã¡ tico
Ġcon qui
Ġcon ces
Ġcon tuvo
Ġcon cen
Ġcon tarle
Ġcon dec
Ġcon tÃ¡rselo
al do
al la
al Ã©n
om as
om in
Ġsu ble
Ġsu ciedad
Ġsu cesos
Ġsu avi
ed ic
Ġes qui
Ġno tas
Ġno via
Ġno ctur
ri s
ri tos
ri les
ri mida
ta Ã±a
ch u
ch tch
ch ame
ro chado
Ġest or
Ġest ran
Ġest arÃ©
.. ..
ol es
ol le
le j
Ġo ig
di das
di mientos
di entemente
di Ã©ndo
am br
am elo
am antes
Ġha z
Ġha gas
Ġb i
Ġb ri
Ġb esa
Ġb ala
Ġb ili
Ġf o
Ġf em
Ġf az
Ġf ren
Ġf ina
Ġf ea
Ġf og
Ġf Ã³r
Ġf olle
Ġre z
Ġre ma
Ġre mi
Ġre ba
Ġre fer
Ġre inar
Ġre zar
Ġre emp
Ġre inaba
Ġre stos
Ġmi ras
Ġle ve
Ġle vÃ¡n
Ġle chu
Ġal f
Ġal fi
Ġal qui
Ġal tera
ti gu
ti das
ti ese
ti rÃŃa
ti eron
ti lla
ti llo
ti lidad
ti cos
ti dumbre
Ġhab it
Ġin fi
Ġin ver
Ġin du
Ġin gra
Ġin cul
Ġin sistencia
Ġpor ciÃ³n
Ġpor tado
vi stas
vi sion
Ġlo cu
Ġcu e
Ġcu ente
Ġcu ida
Ġcu char
Ġcu brÃŃa
Ġcu yas
Ġpar ar
el os
el es
el ero
el ipe
ĠS al
ĠS ue
ĠS iento
ĠS acÃ³
Ã± ique
Ġdi chas
Ġdi rÃ¡s
Ġdi jese
Ġdi ciÃ©ndose
Ġdi rÃ¡n
Ġdi amantes
Ġcom me
Ġcom iÃ³
Ġcom edia
ĠP ido
ĠP erman
Ġdes ol
Ġdes di
Ġdes na
Ġdes ven
cu p
cu Ã¡l
cu Ã¡nto
Ġsi ervo
la cial
la cablemente
Ã¡s ate
ĠE ch
ĠE vangelio
Ġme da
Ġme Ã±ique
Ġmu ch
Ġmu ro
Ġmu tu
Ġmu dado
gu o
gu ra
gu Ã¡n
gu los
gu ito
gu lado
se Ã±al
bi ado
bi lla
bi ertas
ec erse
ec Ã©is
Ġto tal
Ġto cante
Ġto alla
ĠA s
ĠA segu
ĠA zte
Ġvi era
Ġvi ce
Ġvi ves
Ġvi vos
Ġvi viese
Ġvi vido
Ġvi gil
Ġpu er
Ġpu Ã±o
Ġpu ramente
Ġpu estos
Ġpu reza
Ġpu pil
era tura
era damente
Ġdel ici
Ġdel incu
Ġex cepto
si era
dad as
Ġg lo
Ġg est
Ġg ras
Ġg lor
Ġg lacial
co u
Ãº rese
na te
est as
ca z
li car
li zado
li brio
ĠD arÃŃa
ĠD ere
ĠD Ã©j
ĠD entro
ĠD Ã©me
mp osible
mp ara
cho res
ĠL lam
ĠL idotshka
ĠmÃ¡s cara
Ġsin ti
Ġsin tiendo
Ġten eb
Ġten dÃŃa
Ġten drÃ¡s
Ġten drÃ¡n
Ġten dero
ven ÃŃa
Ġpo yo
Ġac aban
Ġac cesos
Ġac tividad
ter os
ter ÃŃas
um br
ir Ã©
ir ÃŃa
ir lo
ir gen
tar emos
Ġpre venir
ĠÃ© stas
Ã¡n ime
tu ita
Ġpro fi
Ġpro ble
Ġpro pa
Ġpro cura
Ġpro vision
Ġpro venÃŃa
Ġso is
Ġso ber
fi cas
sta chiuska
Ã©n seme
ora ciÃ³n
Ġan cha
Ġan illa
Ġan dra
Ġan Ã¡lo
Ġan teriores
Ġan gulos
Ġjo yas
Ġjo vial
Ġver Ã©
Ġver cho
Ġver ter
Ġver du
Ġver nos
Ġver sÃŃ
Ġver osimilitud
Ġjoven cita
ĠC a
ĠC er
ĠC or
ĠC om
ĠC omen
ĠC omenzÃ³
ĠC risto
ĠC og
ĠC arlos
con trar
Ġas ed
Ġas iendo
Ġas oci
Ġas ocia
Ġma tarle
Ġma dru
Ġma temÃ¡tica
Ġj ab
Ġj urÃ³
Ġj arro
Ġj Ãºbi
ier an
tch a
Ġcomp ras
Ġcomp ostura
mi s
Â» Â¿
Ġser vid
Ġser ias
Ġser ie
Ġser iedad
az o
az os
az as
ren se
ĠM amÃ¡
ĠM irÃ³
Ġesp ina
Ġesp esa
Ġesp esas
Ġap a
Ġap ri
Ġap el
Ġap licÃ³
Ġap uro
Ġdesp i
Ġdesp idiÃ³
Ġti tu
Ġven da
Ġven ÃŃan
Ġven tura
Ġven cer
Ġven garse
ina ciones
Ġpas ando
Ġpas aron
Ġpas ase
Ġpas arÃ¡
ĠI r
ĠI rÃ©
Ġba ti
Ġba ile
Ġca u
Ġca ÃŃ
Ġca Ã±
Ġca erse
Ġhu mo
Ġhu erto
Ġhu eco
Ġmo ce
Ġmo difi
Ġmo dest
Ġpen co
Ġpa ta
Ġpa ga
Ġpa Ã±o
Ġpa gado
Ġpa gaba
Ġpa ciente
Ġpa decÃŃa
Ġpa pelo
Ġent ona
Ġdeci siÃ³n
Ġdeci siva
Ġsal en
Ġsal vo
Ġsal tÃ³
Ġsal taba
Ġsal tando
Ġsal udo
Ġsal drÃ¡
ja dos
Ġlle van
Ġimp u
Ġimp ud
Ġimp idan
Ġimp lacablemente
Ġsen sa
Ġsen taba
Ġsen tadas
Ġsen cillo
Ġhom ena
Ġcar o
Ġcar ga
Ġcar idad
Ġcar tilla
ĠT ol
ĠT res
ĠT anto
ĠT ome
ĠT Ã³mal
Ġman to
Ġman dar
Ġman gas
Ġman dÃ³
Ġhi riÃ³
Ġhi jas
Ġsab ÃŃas
Ġsab rÃ©
Ġpal mo
der os
der se
Ġesta tu
cha te
QuÃ© dese
ĠmÃŃ as
Ġtra go
Ġtra po
Ġtra tase
Ġtra pos
Ġdecir os
Ġfu ga
Ġfu ria
Ġpr Ã©st
Ġni e
Ġni hili
Ġrep as
Ġrep ren
Ġsegu ÃŃan
Ġsegu idos
Ġpalab rerÃŃa
lam off
lam iento
ĠH oy
mb Ã©cil
ĠseÃ± a
gar Ã¡
gar ia
Ġbien estar
Ġsobre hum
Ġhubi eras
Ġhubi Ã©rase
erm ÃŃtanme
Ġar mas
Ġar dientes
Ġar tel
Ġtom arle
Ġson Ã³
Ġson ora
Ġr ar
Ġr osa
Ġad u
Ġad rede
Ġmir arla
ĠIv an
ba ta
Ġpi pa
Ġir te
Ã±a das
Ġmen tÃŃa
Ġab ne
Ġab ertura
Ġinter pel
Ġinter eso
Ġinter rup
pe da
Ġru sa
Ġru mor
ud able
car on
car Ã¡
Ġcal idad
Ġcal ifi
Ġcal lado
Ġcal larse
ĠestÃ¡ bamos
im ientos
Ġtem pr
Ġtem per
Ġtem ores
Ġpres ur
Ġpres um
Ġpres intiendo
Ġcor ro
Ġcor reo
Ġcor rÃŃan
Ġcor tinas
Ġcor bata
Ġtu bÃ©r
Ġcre an
Ġcre ÃŃan
Ġentre guÃ©
Ġentre vistas
Ġherm osos
Ġvol vi
Ġvol vÃŃ
Ã±o res
pi z
Ġcompren des
ve ÃŃa
is k
ĠSe is
ac abÃ³
Ġdej aban
Ġdej emos
stante s
eci llo
eci damente
Ġcer do
oc ÃŃa
Ġro jos
Ġro pas
Ġresp irando
Ġresp land
Ġresp aldo
Ġpod rÃŃas
Ġpregun tarle
Ġmal as
Ġmal vado
Ġtal ones
Ġemb a
Ġemb orra
mos lo
por que
Ġcier ra
Ġli bres
Ġli ebre
Ġli tera
ĠV an
ĠV uel
ĠV irgen
Ġpe ga
Ġpe ticiÃ³n
Ġpued as
Ġfi esta
lex ible
Ġverdad eros
Ġverdad eras
Ġju gu
Ġju ici
Ġemp er
Ġemp ieza
Ġextra vi
Ġextra va
tor iamente
Ġra y
Ġdirig e
Ġdirig ida
Ġdirig iendo
Ġdirig irme
Ġcos ta
Ġcos tarÃ¡
Es as
Ġva gar
Ġva gaba
Ġva ciÃ³
Ġva gas
ĠRom eo
Ġam as
Ġam argo
Ġech ando
Ġech Ã¡ndose
Ġech aron
Ġech arÃ©
Ġech Ã¡r
Ġve as
ĠZ ara
Ġdeb ÃŃan
Ġna ce
Ġna cido
Ġesper e
Ġami stos
Ġami guito
Ġco jo
Ġco hom
Ġcol aciÃ³n
Ġdesde Ã±
Ġbu taca
ĠÃºlti mamente
Ġhabl an
cer ca
gra fÃŃa
Ġvisi tÃ³
Ġvisi taba
Ġfin al
Se Ã±ora
ÃŃr selo
yer an
Ġdar te
Ġdar les
tir te
Ġpon ga
Ġpon ÃŃan
ĠAl lÃ¡
Ġres en
Ġres uci
Ġres onaban
Ġllev aban
Ġllev arse
Ġllev arÃ¡
Ġllev arme
Ġindi car
Ġindi cio
Ġindi cÃ³
Ġindi caciÃ³n
Ġindi cando
Ġindi gencia
iz aba
enta da
Ġhablar Ã©
Ġhablar me
Ġobje ciÃ³n
Ġobje ciones
Ġrub ia
ĠN unca
Ġsup lica
Ġsup rimir
Ġgu a
edo r
Ġmar ca
Ġmar cada
ĠDe biera
Ġprop uesto
Ġtar des
Ġtar darÃŃa
Ġllam aban
Ġllam aron
Ġmej illa
Ġdec ente
ig an
Ġinc lu
Ġexpres arse
Ġaten u
Ġqued ar
Ġqued arÃŃa
Ġqued arÃ¡
Ġ( Â¡
Ġpol izon
Ġinst ancias
Ġdese ar
ĠSem enitch
Ġros tros
Ġocur r
Ġter ra
Ġter reno
Ġinf al
Ġinf lexible
Ġinquie tarle
Ġinquie tarte
Ġacu dieron
Ġacu saba
Ġacu rru
ara das
Ġreci b
Ġreci bida
ĠpodÃŃa mos
Ġcan san
Ã¡ndo lo
Ġch is
Ġch ic
Ġri Ã±as
Ġri val
Ġri zados
Ġri esgo
Ġfal da
Ġfal so
Ġfal tas
ĠHa ga
Ġfr ÃŃvol
Ġbru tos
Ġante vÃŃ
Ġbus cando
Ġapar ente
Ġapar ecÃŃa
Ġapar taban
Ġfa ut
Ġcontra di
Ġcontra ste
Ġcontra jeron
ĠEst Ã¡s
ĠEst aban
Ġsom bra
Ġsom bri
Ġbo fe
Ġci e
Ġci tar
Ġci ega
lu o
Ġbur lar
Ġbur laba
Ġgri ta
ĠLe jos
Ġfij an
Ġfij aban
Ġinstru cciones
Ġinstru mento
Ġpla Ã±
Ġpla ca
Ġpla tos
Ġconven ÃŃa
Ġconven ir
Ġconven drÃŃa
Ġgra vemente
cios os
Ġescu p
Ġapro pi
Ġapro ve
Ġbaj ado
Ġrec tifi
guiÃ³ se
Al go
Al lÃŃ
ĠK osch
Ġref res
Ġpreocu pe
Ġpreocu pes
Ġop er
Ġop ino
Ġop uesta
Ġrecon cili
Ġcomen zando
Ġvolver emos
Est aban
Est arÃ¡
ĠF igÃºrate
ĠF elipe
Ġllor as
Ġllor Ã³
Ġllor aba
Ġllor aban
Ġllor ique
Ġconten tÃ³
Ġinm inente
Ġcuest e
Ġval erse
Ġval erosa
Ġvest ÃŃa
Ġvest idas
Ġcondu jesen
Ġinten to
Ġinten ta
Ġinten tÃ³
Ġcambi arÃŃa
Ġcontrar iada
Ġcontinu aciÃ³n
rar te
tada mente
fec tamente
ĠHe cho
Ġencontrar Ã¡
Ġencontrar me
Ġnecesidad es
Ġpri vada
Ġexper imenta
Ġocul tÃ¡ndose
fe ta
Ġlan zando
Ġestudi o
Ġestudi ar
Ġpersona jes
Ġentrar Ã©
Ġconver tir
Ġestre m
ĠTen emos
Ġguar n
Ġrela tivo
Ġrela tiva
Ġsenti mos
Ġcircun spec
Ġcircun stantes
Ġhor ribles
Ġpresen tÃŃa
Ġpresen taban
Ġpresen tarÃ©
ĠlÃ¡ mpara
ĠlÃ¡ piz
Ġescuch en
Ġconoc en
Ġestar Ã¡s
ĠoÃŃr la
Ġgru pos
Ġgru esos
Ġadver s
Ġcomprender Ã¡n
ĠQu izÃ¡s
Ġirri table
Ġirri tarle
Ġenga Ã±ar
Ġpermi ta
Ġpermi tir
Ġacerca os
Ġespeci almente
Ġespeci alidad
dÃ³n ame
Ġinvi taba
Ġimag inado
Me jor
vol encia
Ġag rio
Ġag rada
ĠPetersbur gs
Ġtomar la
ĠpÃ¡li dos
gan da
Ġatre ves
Ġreco do
Ġllegar ÃŃa
Ġllegar Ã¡
bar az
Ġhal a
Ġhal le
Ġhal lÃ¡
Ġhal laban
Ġhal larse
Ġhal lase
alidad es
Ġreg imiento
Con que
Con oce
Con forme
ent ÃŃase
Ġacord Ã¡ndose
Ġdejar nos
Ġaproxim ado
Ġaproxim Ã¡ndose
Ġaproxim adamente
ĠmÃ© dicos
Ġconfi ar
Ġconfi esa
Ġprof esiÃ³n
Ġimpres o
Ġparticular idades
Ġabi ertos
Ġbar n
Ġbar bas
Ġbar billa
Ġpase ar
Ġpase ando
Ġpase ÃŃto
Ġresol uciones
Ġofre cimiento
Ġofre cieron
Ġculp ables
Ġasegu rÃ³
Ġasegu rarse
ap untÃ³
Ġmon taÃ±a
Ġfel ices
Ġexist iese
Ġocup Ã³
Ġocup ada
den es
Ġexam inaba
Ġprest Ã³
Ġanti ci
Ġrin cones
Ġsepar arse
Ġsepar amos
Ġsepar arme
Ġele vado
Ġsignifi caba
Ġcreer Ã¡s
Ġdeclar aciones
Ġatra ÃŃa
Ġatra ÃŃdo
Ġher ir
Ġher idas
Ġextre mos
Ġobserv aban
Ġemple a
Ġbuscar la
Ġolvi do
Ġsub iendo
Ġsub stitu
Ġperman ecido
Ġmovi do
Ġgener ales
Ġgener osidad
Ġcono ces
Ġdif am
Ġdeli tos
Ġproced iendo
Ġproced imientos
Ġinterrump iendo
Ġincl inaba
pr on
Ġprodu cto
Ġcabal lejo
Ġinterro gÃ³
Ġblan cas
Ġmarch ar
Ġmarch aba
Ġren e
Ġfun ciones
Ġfun dar
Ġdesper tado
Ġdesper tarse
Ġdesper tarme
Ġaf ortun
Ġaf irma
Ġped ÃŃ
Ġbe ba
Ġbe biÃ³
Ġperder Ã©
Ġjust o
Ġjust os
Ġservi cios
Ġponer le
Ġponer lo
Ġdisgust ado
dar ios
Ġcompa decer
ĠseÃ±al ar
Ġconsider ado
Ġconsider able
Ġgolpe aba
Ġpel os
Ġtor re
Ġtor tura
Ġtor tur
Sab ÃŃa
Ġpan ecillo
Ġenten dimiento
Ġconse jos
Ġfunci onarios
Ġprob Ã³
Ġdistin gue
Ġciudad es
Ġreconoci da
Ten ÃŃas
Ġadiv inÃ³
Ġasust arme
Ġdef ien
Ġdest in
ala ciones
Ġretir aba
Ġpropi amente
Ġtrabaj aba
Ġmolest aba
Ġacep to
ĠJ erus
Ġhos peda
Ġabrir la
Ġcuales quiera
Ġdesgracia dos
Ġau xi
Ġenter as
Ġenter amente
Ġenter rado
Ġinquil ina
Ġdiver tido
Ġdiver tÃŃa
Ġinterlocu tora
Ġejemp lar
Hab rÃ©
tÃ¡ is
Ġagi taban
Ġcasu almente
Ġcasu ÃŃstica
Ġmenest ral
Ġsorpren diÃ³
Ġdescub ri
Ġmas a
Ġmatar Ã©
Ġmatar ÃŃa
Ġobli ga
Ġobli gar
Ġinteres Ã³
Ġinteres aba
Ġinteres ado
ĠacompaÃ± arle
Ġquin ta
Ġtur co
Ġestable cido
Ġdesh ac
Ġperten eci
Ġanim ada
Ġanim Ã¡ndose
Ġanim ales
Ġrom per
Ġsosten ÃŃa
Ġsosten ido
Ġapresu ro
Ġexplicar lo
ini sta
Ġenf ri
cion al
Ġjuz gue
Ġrecord Ã³
Ġrecord arÃ¡
Ġpose o
Ġdoc tr
Ġpier de
Ġleer Ã©
Ġleer lo
terior mente
Ġpene traba
Ġadmi te
Ġadmi to
Ġpelig roso
Su bid
Ġdu ro
Ġdu reza
Ġce Ã±o
Ġenvi le
Ġbon ita
Ġbes ado
Ġfon dos
Ġpudi eran
Ġresuel vo
Ġneg ras
Ġayud arme
Ġgo zar
Ġllen ar
Ġllen aron
Ġtier na
Ġfe o
Ġperdon ar
Ġperdon arÃ¡
Ġlimi tado
Ġlimi taba
Ġdistra cciÃ³n
Ġdistra ÃŃdamente
Ġburl onamente
Ġus ar
Ġdemos traba
Ġll ora
Ġsum ario
Ġsum aria
Ġbeb iendo
ĠPer ten
ĠLle gÃ³
Ġmiser ias
Ġmiser ables
Ġja de
Ġseguir le
Ġseguir la
Ġempe Ã±ar
Ġescapar Ã¡
Ġabandon ar
Ġabandon ado
Ġator mente
Ġtro zos
Ġtro cÃ³
Ġhabr Ã¡s
Ġespan tado
Ġtoma das
Ġrode o
Ġpreguntar te
Ġvaci lo
Ġacabar Ã¡s
Ġllevar emos
Ġeb rios
Ġaver siÃ³n
Ġpes ado
Ġpes ada
Ġpes cado
Ġodi aba
ĠPara tcha
Ġrepres entaban
Ġincomo dado
Ġincomo des
Ġincomo dÃ³
Ġincomo darse
Ġtranquili zÃ³
Ġinsul tÃ³
Ġpedir te
mÃ¡ tico
Ã¡b ase
Ġalter aron
Ġinsi sto
Ġga to
Ġinterior mente
Ġasist ÃŃa
Ġasist ido
Ġlar gas
ĠcrÃ© alo
Ġencan tos
ĠPo dÃŃa
ĠPo tchin
Ġtemer oso
Ġincorpor Ã¡ndose
tin es
Ġdul ces
Ġdul zura
Ġasi sti
Ġagar ran
olu to
Ġexclam ado
Ġangust iado
Ġcobar dÃŃa
Ġcanal la
Ġemo ciones
Ġequi librio
Ġense Ã±Ã³
Ġfan tas
ĠDi me
Ġdespe gar
Ġdespe gado
Ġarm ar
Ġaho ga
Ġapoy aba
Ġchiquil lo
ler es
Ġ1 0
Ġdur mi
Ġafec tado
Ġafec tando
Ġdepen dencia
Ġpun zante
Ġtos iendo
Ġrefi riÃ³
Ġdesem baraz
ĠEx celencia
Ġlimp ios
Ġlimp ieza
Ġfing ir
ĠNe wton
Ġgui Ã±ando
Ġgui tarra
Ġestreme cimiento
Ġhorrible mente
Ġescap Ã³
ĠpÃºb licas
Po dÃŃa
Ġpec ados
Ġencer rado
Ġencer raba
Ġencer rÃ³
Ġfirm emente
Ġrechaz ando
Ġalar mada
Ġalcan zaba
Ġalcan zarle
Ġdesen vol
Ġobed ecer
Ġtrastor n
Ġcorri eron
Ġrazon amiento
Mu cho
ĠG imnas
Ġavi so
Ġamo res
Ġcen ten
ens able
Ġvac ÃŃa
Ġconmo ve
Ġconmo vida
Ġalquil er
Ġalquil ado
Ġalha ja
Ġpusi ste
Ġcari cias
Ġabra z
Ġabra zar
Ġconveniente mente
Ġaprovech ado
Ġregist rado
Ġelegante mente
Ġrepresen tando
ĠcÃ¡l mese
aro vitch
Ġenem igos
Ġvec ina
Ġvec ino
Ġalu siÃ³n
Ġdescar gar
Ġexig ir
Ġperm ÃŃte
Ġprocu raba
Ġprocu rase
ĠMa homa
Ġteor ÃŃas
ĠIn Ãºtil
ĠIn cl
ĠIn media
Ġrepe tÃŃa
Ġquisi ese
Ġtuvi esen
Ġsuplic Ã¡ndole
Ġconsidera ciones
Ġsacrifi car
Ġcruel dad
Ġcruel mente
Ġrevel aban
Ġveinti cua
Ġdescubrir le
Ġconvul siones
Ġaz u
Ġham bri
Ġfre cu
Ġfre cuen
Ġfre cuencia
Ġflo taba
Ġreti rada
Ġincon sciente
Ġdesli zarse
Ġmezc lado
ĠAc ompa
Ġespal das
Ġventa ja
Ġimpre gn
Ġfuri osamente
Ġrepro che
ĠVi ve
iÃ©ndo me
Ġconfesar Ã©
Ġapresur aba
Ġmonstru oso
Ġaumen tÃ³
Ġaumen taba
Ġencantado ra
Deb o
Ġora ciones
Ġza guÃ¡n
Ġeter n
Ġdob lado
Ġsar dÃ³n
Ġsar cÃ¡
Ġbro tÃ³
Ġbro taron
Ġredu cida
vocifer aba
Ġservir se
Ġesclar ecido
Ġirres oluto
Ġcerra das
Ġpeda zos
ĠQui se
ĠQui siera
Ġcaball eros
Ġdesprecia tivamente
Ġdistingu ida
ĠsonreÃŃr se
Ġproporcion ado
Ġproporcion arle
Per dÃ³n
Ġdud ar
Ġaj eno
Ġaj ena
Ġaj enos
Ġplan es
Ġlav Ã³
Ġdesvan ecimiento
ĠperiÃ³ dico
Ġprovo cÃ³
Ġespec tadores
ĠHubi Ã©rase
Ġtranquil as
Ġdiscul par
Ġofrecer le
Ġatraves Ã³
Ġatraves aba
Ġatraves ado
Ġacostum braba
Ex perimentaba
In dudablemente
sal tÃ³
Ġacog iÃ³
Ġpesa dilla
Ġhara piento
Ġhachaz o
Ġbrib ones
Ġfil Ã³so
ĠfÃŃsi ca
ĠfÃŃsi cas
Ġresi gna
ĠDeb e
Ġbast Ã³n
Ġhuir ÃŃa
Ġirre vo
Ġirre gular
Ġtemp eratura
Qui so
Ġruboriz arse
ĠridÃŃ cula
Ġoprim ÃŃa
Ġahor carse
Ġregal os
Ġcuad rado
Ġconsol ar
Ġsuminist rado
Ġespantos o
Ġrestable cido
Ġrestable ciÃ³
Ġposi tivo
Ġposi bilidad
Ġposi tivamente
Ġpelo ta
Ġfur tivamente
Ġreca er
Ġinva dido
ĠEsp er
Ġano ch
Ġanunci Ã³
Ġanunci ado
ĠCre ÃŃa
Ġasal tÃ³
Ġmagist rados
Ġtraer Ã©
Ġconfun dido
Ġconfun dir
Ġconfun dÃŃan
Ġmorb osa
Ġdispu ta
Ġdispu taban
Ġdispon er
Ġhumil des
Ġinmen samente
Ġintelectu ales
Ġatrever se
Ġcolore ado
Ġindepen dientemente
Ġexasper ado
Ġexasper arme
Ġfastidi ando
Ġmurmur Ã³
Ġejer cer
Ġejer cÃŃa
Ġagra dezco
ĠenÃ©r gicamente
Ġencen diÃ³
Ġsur g
Ġsur gÃŃa
Ġbre ves
Ġinoc ente
Ġpul so
Ġgem ÃŃa
Ġsinc era
Ġsuspi caz
Ġanci ano
ĠTu vo
Ġpros tern
ĠVol ver
Ġdirigir le
Ġprecip itaciÃ³n
Ġllame antes
Ġsorti ja
Ġmortal mente
Ġdetener le
Ġconsen tirÃŃa
Ġcapri cho
Ġadelan tado
ĠpsicolÃ³gi ca
Ġorgullos a
ĠÃ¡rbol es
Ġcliente la
Di me
Esp ere
har itch
Ġais lamiento
Ġtorm ento
Ġencu biertas
Ġbr omas
Ġino por
Ġino pinadamente
Ġcomien za
Ġexh alaciones
ĠDel ante
Ġsiniest ra
Ġpredi le
Ġsuspen diÃ³
Ġjud ÃŃo
Ġsalva je
ĠTem o
Ġmenti ras
Ġentreab riÃ³
Ġentreab ierta
Ġpersua dido
Ġvisible mente
Ġinfin ito
Ġcrimin alidad
Ġpermiti ese
Ġconsul tar
Ġaconte cimientos
Ġconseguir lo
Ġilum inaba
ĠenigmÃ¡ tico
Ġarrast rado
ĠhÃºme do
Ġras gos
Ġecon omÃŃa
Ġago biado
Ġagrad ables
Ġdeno taban
Ġhel ado
Ġtam bale
Ġenvol vÃŃa
Ġnar iz
Ġnom bres
Ġvin e
Ġsubi eron
Ġrevol uciÃ³n
Ġdescor tÃ©s
ĠDese o
ĠIgnor o
ĠIgnor aba
Ġentab lado
Ġmanifi esta
Ġrepi tiÃ³
Ġtiemb la
Ġtiemb lan
Ġescanda los
Ġarrim Ã³
Ġruidos amente
Ġpresun ciÃ³n
Ġembro l
Ġindisp ensable
Ġindign ada
ĠdecÃŃr selo
Ġocurri da
Ġtrans currido
Ġsome ter
Ġmortifi cante
Ġdiscre ciÃ³n
Ġconducir le
Ġarrodil lÃ³
Ġarrodil larse
ĠmonomanÃŃa co
Ġdestru ir
Ġdestru ÃŃdo
ĠestÃºpi dos
Ġorganill eros
Ante ayer
Ġpecuni aria
Ġcontrariedad es
crip tible
ĠAcab aba
Ġdesnud Ã³
Ġinvestiga ciones
Ġdefender se
ĠjurÃŃ dica
ĠrelÃ¡mpa gos
Pien sa
Sen tÃŃa
Ġefec tos
Ġase st
Ġdete sto
Ġdevor aba
Ġdetest aba
Ġple garia
Ġcel os
Ġclas es
Ġclas ifi
Ġentr Ã©
Ġvuest ro
Ġconce bir
Ġnotable mente
Ġestrope ado
ĠPens ando
Ġsistem a
Ġmue ve
Ġvigor osos
Ġpresta dos
Ġhura Ã±o
ĠTom Ã³
Ġmanch arse
Ġrepos aban
Ġbienhe chor
Ġescas os
Ġarti cular
Ġherman ito
Ġempap ado
Ġradi ante
ĠZa kh
Ġamist osamente
Ġnega tiva
ĠEstu ve
Ġopri miÃ³
CuÃ¡n tas
Ġagujer ea
Ġavergon zada
Ġindul gencia
Ġdesgarrado ra
Ġboste zaba
Ġdisculp able
Ġtartamu de
Cer ca
Pas aron
Vol viÃ³
Ġdetien en
Ġmante leta
Ġtap Ã³
Ġenv ÃŃo
Ġconcer niente
Ġbl ines
Ġban quete
Ġbul l
Ġalde a
Ġcui daba
ĠSo bre
Ġdibu jÃ³
ĠResp uesta
Ġgraba do
ĠDeci didamente
Ġcompara ciÃ³n
Ġdesple gado
Ġcasta Ã±o
Ġcapo te
Ġexpan sivo
Ġescla va
ĠescrÃº pulos
ĠNoso tros
Ġmaravi lla
Ġfavo recido
Ġrefu gi
ĠFu ÃŃ
Ġprima vera
Ġlanz aron
Ġguard aron
Ġmonol ogar
Ġtorp eza
Ġocasion ado
Ġtacitur no
Ġdesharra pados
Ġliber tino
ĠpsicolÃ³gic as
Ġimprevi sto
Ġperjudi cial
Ġadminist ra
Ġincesante mente
Pol etchka
cin diendo
pued es
Ġzar ande
ĠÃ³r denes
Ġdele gados
Ġdemac rado
Ġpom ada
Ġplen amente
ĠpÃ©r dida
ÃŃc ese
Ġhendi dura
Ġena j
Ġenorm es
Ġconj unto
Ġconst ern
Ġnovel as
Ġresist ir
Ġint rig
Ġindes criptible
Ġdiminu ciÃ³n
Ġcomi siÃ³n
Ġmuec a
ĠAcu Ã©rdate
uÃ©l vete
Ã¡ndos elo
ĠMos cou
Ġapasi onado
Ġapete cido
Ġbatal la
Ġmode sto
Ġdecidi rÃŃa
Ġimpo tencia
Ġsensi bilidad
Ġmanio bra
ĠPeti te
ĠrÃŃ en
Ġsolemn idad
Ġpica porte
Ġabstra cciÃ³n
Ġabund ancia
Ġrumb o
ĠextraÃ± eza
Ġamueb lado
ĠNa stachiuska
ĠNuest ro
Ġescalofr ÃŃo
Ġmarchas e
ĠincrÃ©du lo
Ġdiscur rir
ĠKhar lamoff
Ġreform as
Ġdesconf iada
Ġfrances a
Ġinsen sible
Ġcuader nos
Ġdelica deza
Ġprobabilidad es
Ġmisericor dioso
ĠpaÃ±ol eta
ĠprÃ³j imo
ĠVakru chin
Ġexasp eraciÃ³n
Ġimpertin ente
ĠbenÃ©vol o
Ġrecomenda ciÃ³n
Ġcaprich osa
Ġcelebr arÃ¡
ĠpestaÃ±e ar
Ġmelan cÃ³
Ġformular la
ĠWa us
Ġincoher entes
Ġmajader ÃŃas
Alaba do
Abri d
Dic en
Mit ka
Natura lmente
agre gÃ³
gru Ã±Ã³
sÃ© Ã±
Ġedito res
Ġaur ora
Ġpest illo
ĠpÃ¡n ico
Ġcand elero
ÃŃza te
ĠtrÃ© mula
Ġtrib un
ĠtÃ¡c tica
Ġtrab ar
Ġenorgu lle
Ġnub es
chtch it
Ġoig as
Ġbili s
Ġfem inista
Ġfolle to
Ġreemp la
Ġlocu ras
ĠSue le
Ġdesna tura
Ġmutu amente
seÃ±al Ã³
ĠAzte kas
Ġvice versa
Ġpupil as
ĠDere cho
ĠDÃ©j ame
Ġpropa ganda
Ġprovision almente
Ġverdu gos
ĠversÃŃ culo
ĠCog ol
Ġasoci ado
ĠjÃºbi lo
Ġservid umbre
Ġpapelo tes
ĠprÃ©st amo
Ġartel chtchit
Ġabne gaciÃ³n
Ġtempr ano
Ġtemper amento
ĠtubÃ©r culos
ĠechÃ¡r melas
ĠZara isk
Ġamistos as
Ġcansan cio
ĠantevÃŃ spera
Ġsombri lla
ĠhallÃ¡ base
ĠJerus alÃ©n
Ġauxi lio
ĠPotchin koff
ĠGimnas io
ĠpermÃŃte me
ĠInmedia tamente
Ġveinticua tro
ĠZakh arovitch
! !
) :
) --.
. --
1 0
1 1
1 2
1 3
1 4
1 5
1 6
1 7
1 8
1 9
7 0
A y
A po
A lena
A puesto
A cerca
B ra
B eba
C h
C or
C ora
C aminaba
C aball
D a
D el
D esp
D inero
D ame
D igo
D emetrio
D ale
D entro
F igÃºrate
F uera
F alto
G a
H ol
H az
H ubiera
H ijo
I N
I rÃ¡s
I mposible
I mbÃ©cil
J u
J untos
J esÃºs
K olia
L uego
M ire
M ikol
M alo
M ira
N unca
O s
O cho
O tras
O cur
P res
P ase
P raskovia
P adre
P ermÃŃtanme
R O
R ec
R az
R esp
R ub
S E
S iento
S Ã³lo
S erÃŃa
S acÃ³
S entÃŃase
T u
T an
T al
T rÃ¡
T ome
T oma
T ienen
V er
V as
V iendo
V ea
V eremos
V uÃ©lvete
a d
a Ãº
a tro
a ul
a cep
a ulo
a turas
b aba
b Ã³n
b ando
b ren
b ÃŃan
b able
b lÃ³
b ablemente
b iada
c ci
c ra
c Ã¡n
c Ã©n
c able
c tas
c tivo
c almente
c Ã³lo
c ros
c Ã¡ndole
c ompren
c riba
c rito
c toria
c rimen
d ri
d em
d able
d arÃ©
d arla
d entemente
d emente
e e
e vi
e il
e tas
e gas
f l
f Ã³n
f em
f ru
f ora
f ras
f rar
f adores
f luo
g e
g Ã³n
g lo
g Ã©n
g ran
g ios
g rada
g rado
g rÃ¡
g Ã¡ndose
g anza
g abas
g Ã¡is
h as
h ombre
h estan
i j
i ro
i aba
i la
i res
i ja
i va
i rio
i dera
i esen
i dar
i jÃ³
i ador
i bles
j era
j ez
j idad
j amos
j ame
j ase
j arme
j ÃŃn
j illa
j arla
j uela
k haritch
l ona
l lado
m n
m ol
m ante
m uer
m udo
m erman
n ue
n us
n able
n ick
o t
o u
o ces
p to
p ia
p ur
p ita
p uso
p uede
p sia
r Ã³n
r ones
r able
r Ã¡ndose
r rame
r pur
s Ã³
s el
s me
s ue
s las
s camente
s ela
s cÃŃ
s cripciÃ³n
t y
t te
t om
t Ãº
t Ã¡r
t rifi
t mÃ©
t abil
t ÃŃrselo
u x
u al
u ado
u vi
u go
u ec
u de
u si
u mo
u ve
u ena
u dor
u recido
u fra
u gal
v in
v aban
v ela
v eme
x o
x imo
y ado
y ando
y ecto
y eme
y ugal
z on
z Ã¡
z uda
z arÃŃa
z ara
z gue
» le
Ã »le
Ġ 4
Ġ w
Ġ Ã¡
Ġ Ã¡s
Ġ ran
Ġ zan
Ġ omi
Ġ QuÃ©dese
Ġ 70
Ġe di
Ġe pi
Ġe mana
Ġe fica
Ġd as
Ġd ÃŃ
Ġd am
Ġd Ã¡ndose
Ġd Ã¡ndole
Ġd anos
Ġd ÃŃg
Ġd Ã¡mel
Ġd Ã³cil
Ġa ra
Ġa ust
Ġa dos
Ġa tras
Ġa vest
Ġa vel
Ġa teo
Ġa ires
Ġs ien
Ġs az
Ġs Ã¡b
Ġs ienta
Ġs ienes
Ġde mente
Ġde van
Ġde cep
Ġde bili
Ġde vuelto
Ġde udor
Ġl Ãº
Ġl Ã¡n
Ġl entes
Ġl ÃŃo
Ġl umbre
Ġp ÃŃ
Ġp li
Ġp il
Ġp ese
Ġp Ã³lvora
Ġc Ã©
Ġc ente
Ġc Ãº
Ġc lam
Ġc anto
Ġc ena
Ġc lan
Ġc eso
Ġc ent
er en
er es
er Ã©
er tr
er Ã¡n
er io
er ce
er oso
er eza
er antes
er sado
en ado
en tar
en tado
en das
en tros
en tan
en sas
en zuda
os tÃ³
os pe
os ee
qu io
qu inalmente
Ġm Ã³
Ġm am
Ġm elo
Ġm ercado
ar re
ar ti
st aba
st iÃ³
st idad
do m
do le
do na
do blÃ³
on ar
on zo
on ea
as es
an s
an al
an ia
an tro
an qui
an zÃ³
an cial
Ã³ se
Ã³ mi
ÃŃ das
ÃŃ ce
re a
re ÃŃa
re di
re la
re tro
re ce
re sto
re inta
re gible
Ġh en
Ġh arÃ¡n
Ġt Ã©
Ġt ÃŃa
Ġt ante
Ġt ru
Ġt inta
Ġt acto
Ġt azas
ab or
ab lo
ab undo
ab ili
un ciÃ³n
un dos
un cÃŃa
un dir
or ro
or ando
or io
or ma
or pren
or idos
or nada
or rable
Ġque jo
Ġque ja
Ġque jas
Ġque dase
Ġque hacer
Ġque mase
in di
in idad
in Ã¡ndose
in cones
in centes
in fl
Ġen o
Ġen si
Ġen der
Ġen fa
Ġen cor
ci fi
ci das
ci tas
ci ona
ci dez
ci abilidad
ci smo
ci frar
Ġla de
Ġla van
Ġla tir
Ġla tidos
Ġla tente
-- ...
te mp
te los
te za
es ÃŃ
Ã© retro
Ġse as
Ġse xto
Ġse xo
Ġv ÃŃa
Ġv arÃŃa
Ġv Ã©r
Ġv ienes
Ġv omi
Ġun ido
Ġun Ã¡n
Ġun ÃŃan
Ġun tados
Ġun dÃ©
da zos
Ġel ig
Ġel emen
Ġel og
Ġel ecciÃ³n
ra gos
ra vado
Ã¡ tica
Ã¡ ticamente
Ã¡ chate
Ã¡ ximo
Ã¡ dole
Ġcon sp
Ġcon cur
Ġcon cre
Ġcon servÃ³
Ġcon yugal
al or
al Ã¡
al tar
al iz
om os
om ÃŃas
om is
om bra
om pÃ¡
Ġsu a
Ġsu ti
Ġsu ces
Ġsu sto
Ġsu bra
Ġsu til
Ġsu ger
Ġsu ceda
ed os
ed eci
ed ece
to Ã±o
to ler
Ġes m
Ġes es
Ġes co
Ġes cur
Ġes mal
Ġno ven
Ġno tÃ³
Ġno taba
Ġno ve
Ġno tarse
ri es
ri ca
ri tmÃ©
ch en
ch arse
ch eras
ro pi
ro gado
ro gÃ³
ro bio
Ġest ri
Ġest ru
Ġest Ã©n
Ġest riba
Ġest imaciÃ³n
ol ado
ol viÃ³
ol uciÃ³n
ol ogÃŃa
le tes
Ġo irÃ¡
Ġo rejas
Ġo cci
Ġo toÃ±o
di te
di vi
di dos
di sta
di ja
di tas
di Ã©ndose
di dura
di jeron
Ã³n gase
ust ado
Ġha st
Ġha ciÃ©ndose
ado n
ado via
Ġb aza
Ġb rillo
Ġf ro
Ġf est
Ġf lam
Ġf inu
Ġf ino
Ġf lor
Ġf emen
Ġf ÃŃjese
Ġf irma
Ġf ardo
Ġf Ã©retro
Ġre y
Ġre in
Ġre da
Ġre le
Ġre di
Ġre vi
Ġre mo
Ġre tra
Ġre tu
Ġre ten
Ġre ver
Ġre ina
Ġre ja
Ġre inÃ³
Ġre tÃŃ
Ġre vista
Ġre zando
Ġre volviÃ³
Ġre sistiÃ³
Ġre gate
Ġre bos
Ġre doblÃ³
Ġmi ente
Ġmi el
Ġmi entes
Ġmi dieron
Ġle a
Ġle o
Ġle che
Ġle almente
Ġle ves
Ġle guas
Ġal as
Ġal ien
Ġal tos
Ġal aban
Ġal imen
Ġal imenta
Ġal muer
ti tu
ti mb
ti rÃ©
ti rÃ¡
ti mientos
ti bilidad
ti lizar
Ġhab les
Ġin ta
Ġin se
Ġin Ãº
Ġin tra
Ġin que
Ġin vo
Ġin ser
Ġin sist
Ġin icia
Ġin contest
Ġin currido
Ġin glÃ©s
Ġin just
Ġin evi
Ġin arti
Ġin toler
Ġpor ra
Ġpor tarse
Ġpor terÃŃa
Ġlo do
Ġlo bo
Ġlo cos
Ġcu ero
Ġcu rado
Ġcu bo
Ġcu ide
Ġcu bri
Ġcu id
Ġpar tos
Ġpar ienta
Ġpar ecieron
Ġpar ecida
el ices
ĠS a
ĠS erÃŃa
ĠS erÃ¡
ĠS orpren
ĠS adovia
Ã± ÃŃa
Ã± arme
Ġdi le
Ġdi la
Ġdi me
Ġdi ese
Ġdi ste
Ġdi gas
Ġdi ger
Ġdi laciÃ³n
Ġdi Ã¡lo
Ġdi gÃ¡
Ġdi pl
ĠR ez
ĠR eci
ĠR eco
ĠR incones
Ġcom ba
ĠP Ã©
ĠP ri
ĠP rim
ĠP ron
ĠP ub
ĠP aulo
ia das
em b
em po
Ġdes m
Ġdes fi
Ġdes ac
Ġdes fa
Ġdes men
Ġdes col
Ġdes ierto
Ġdes orden
Ġdes val
Ġdes cal
Ġdes viar
Ġdes cifrar
cu as
cu amente
cu lados
Ġsi go
Ġsi bil
la yo
... !--
ĠE a
ĠE gi
ĠE uro
Ġme tÃŃa
Ġme tÃŃ
Ġme tida
Ġme tidos
Ġi das
Ġi lÃŃ
Ġi dio
Ġmu dos
Ġmu gri
Ġmu darse
gu ro
gu ero
gu rio
gu inar
gu eses
se gun
se Ã±or
se quio
bi erta
bi erno
ec Ã©
ec tos
Ġto que
Ġto caba
Ġto ut
ĠA tra
ĠA po
ĠA ren
ĠA sist
ĠA migo
ĠA caba
ĠA puesto
ĠA mbos
ĠA pres
ĠA lej
Ġvi ven
Ġvi das
Ġvi udo
Ġvi eran
Ġvi veza
Ġvi ctoria
Ġvi stiÃ³
Ġpu li
Ġpu estas
Ġpu rpur
lo zaba
de ciente
de jado
Ġdel irar
Ġex cur
Ġex cesos
Ġex Ã¡nime
si mo
si co
si der
si ete
si tarios
tr Ã©
tr aban
mo gÃ©n
dos a
Ġg im
Ġg ord
Ġg entes
Ġg irÃ³
Ġg alle
co res
Ãº r
Ãº car
Ãº chame
ru z
ru eb
ru scamente
est ro
Ġpara je
li tch
li brado
ĠD on
ĠD Ã©
ĠD ire
ĠD igo
ĠD ag
ĠD uerme
ĠD ans
ĠhabÃŃa le
Ġten ed
Ġten siÃ³n
Ġten gan
Ġten dencia
ven ido
Ġcas Ã©
Ġcas ado
Ġcas ada
Ġcas arÃ©
Ġcas cada
tra ordinar
Ġpo pe
Ġpo pes
Ġpo damos
ur t
ur ar
ur gueses
Ġac ci
Ġac ces
ter rogado
gun ta
um er
um as
um idas
ir mo
ir ones
ir aban
tar nos
Ġper las
Ġper fecto
Ġper ÃŃo
Ġper ros
Ġper ecer
Ġper diendo
Ġper versa
Ġper dona
Ġper orando
Ġpre ver
Ġpre ste
Ġpre viendo
Ġpre ferir
Ġpre dest
Ã¡n ea
que ta
Ġsus ceptible
Ġsus cripciÃ³n
tu al
tu lo
tu so
tu oso
tu ito
Ġpro ver
Ġpro ces
Ġpro fer
Ġpro videncia
Ġmis a
Ġmis antro
tÃ³ gra
Ġso ba
Ġso cio
Ġso br
Ġso ciabilidad
fi l
fi tri
Ã©n d
ora dos
ten to
ten cias
ten drÃ©
ten ciosamente
Ġan to
Ġan darse
Ġan tina
Ġan fitri
Ġver as
Ġver Ã¡n
Ġver los
Ġver tido
Ġver Ã©is
ga Ã±
po dÃŃa
ĠC as
con trÃ³
con sul
Ġas fi
Ġas pi
Ġas mÃ¡tico
Ġma dres
Ġma estro
Ġj i
Ġj arra
Ġj ÃŃcara
Ġj irones
so y
Ġcomp en
Ġcomp ra
Ġcomp onÃŃa
Ġcomp lace
Ġcomp one
Ġcomp acto
ran quil
ran cÃ³
mi dad
Ġser Ã©
Ġser Ã¡s
Ġser ÃŃan
Ġser eno
ĠM an
ĠM il
ĠM ire
ĠM enos
ĠM edic
ĠM Ã¡ximo
Ġesp Ã¡r
Ġesp osos
Ġesp uma
Ġesp esos
Ġap urÃ³
Ġap licaciÃ³n
sp ense
Ġdesp ier
Ġdesp ide
tado ra
Ġob s
Ġob ser
Ġob raba
Ġob sequio
Ġob tuso
Ġti sis
ver es
Ġven a
Ġven diÃ³
Ġven ida
Ġven ÃŃas
Ġven gan
Ġven gas
Ġven idas
Ġven cida
Ġven id
Ġven ganza
Ġven cidas
Ġpas an
Ġpas aban
Ġpas arse
ĠI slas
Ġba u
Ġba Ã±o
Ġba gate
Ġba terÃŃas
Ġca en
Ġca ÃŃa
Ġca dera
Ġca iga
Ġca yera
Ġca stidad
Ġhu yÃ³
Ġhu irÃ¡
Ġhu esos
Ġhu yera
Ġhu yese
Ġhu sme
Ġmo ti
Ġmo za
Ġmo viÃ³
Ġmo vÃŃan
Ġpa que
Ġpa stas
Ġpa gue
Ġpa isa
Ġpa dec
Ġpa jar
osi s
Ġdeci de
Ġdeci sivo
Ġsal go
Ġsal ga
Ġsal tado
Ġsal ita
Ġsal drÃ©
Ġsal chi
Ġsal timb
Ġlle gamos
Ġlle gando
Ġimp ar
Ġimp ÃŃo
Ġimp asi
Ġimp erdo
Ġimp onÃŃa
Ġimp ropi
ce ar
ce tines
Ġsen cil
Ġsen tados
Ġsen taron
Ġsen tarÃŃa
Ġsen tarÃ¡
Ġsen tÃŃase
Ġsen tenciosamente
ana das
Ġcar n
Ġcar ecer
Ġcar ecÃŃan
Ġcar ezco
Ġcar amba
ĠT us
ĠT omo
ĠT ales
ĠT oma
Ġexp ed
Ġexp lo
Ġexp ir
Ġexp onÃŃa
Ġexp irÃ³
Ġexp ensas
Ġman dÃ©
Ġhi g
ios amente
ĠEn tÃ©
ĠEn trÃ©
Ġsab Ã©is
Ġsab rÃ¡s
Ġpal mada
der ÃŃa
Ġesta fadores
qui ta
qui zÃ¡
qui librado
QuÃ© date
Ġtra e
Ġtra te
Ġtra mo
Ġtra gar
Ġtra tada
Ġtra taban
Ġtra tarle
Ġtra igo
Ġtra iga
Ġtra mpa
Ġtra igan
Ġtra yecto
Ġdecir les
Ġdecir nos
Ġfu tes
Ġfu entes
Ġfu gi
Ġfu eses
Ġfu imos
Ġfu elle
Ġdos cientos
Ġpr in
Ġpr ÃŃn
Ġni eb
Ġni ega
Ġrep li
Ġrep ul
Ġrep licÃ³
Ġrep uso
Ġcab ra
lam e
ĠH able
ĠH arÃ©
mb ues
gar es
gar le
gar Ã¡n
us ky
us sup
Ġsobre cog
Ġesc enas
Ġesc Ãºchame
Ġhubi eron
Ġhubi Ã©ramos
Ġya cen
erm en
Ġar de
Ġar ca
Ġar rep
Ġar ries
Ġtom an
Ġtom ada
Ġtom ara
Ġtom ase
Ġtom arÃ¡
Ġtom arÃ©
Ġtom Ã¡ndole
Ġr ara
Ġr ÃŃg
Ġqui tado
Ġqui tarle
Ġad ul
Ġad entros
Ġsol ÃŃ
Ġsol tarse
Ġsol dados
Ġsol eil
Ġmir Ã¡ndose
ita da
pre ciable
Ġhombre cillo
Ġpi di
Ġpi ano
Ġpi sta
Ġir Ã³n
Ġir rep
uest os
tas en
tas es
pa f
pa ciÃ³n
pa ces
pa cita
Ġmen su
Ġab or
Ġab ol
Ġab ren
Ġab stu
Ġab uela
Ġab omin
Ġinter esar
Ġinter cep
Ġinter val
va ya
Ġvo cifer
Ġru bi
Ġru ega
Ġru bios
ud Ã³
car o
car te
car los
ĠLa tÃŃa
Ġcal lase
Ġcal ientes
Ġcal mado
Ġcal cetines
trar Ã©
ĠestÃ¡ is
Ġhacer te
im emente
im merman
Ġtem ido
Ġtem por
ste in
Ġpres ento
Ġcor o
Ġcor di
Ġcor ren
Ġcor taba
Ġcor ona
Ġcor rido
Ġcor tados
Ġcor tase
Ġcor rÃŃ
Ġtu tor
Ġtu gurio
Ġcre ÃŃ
Ġcre ma
Ġcre encia
Ġcre erÃŃa
Ġentre go
Ġentre ten
Ġentre gaba
Ġentre garse
Ġpens emos
Ġpens abas
Ġherm osa
Ġherm oso
Ġherm anos
du la
du vo
Ġvol viese
Ġvol vÃŃan
pi Ã©s
Ġcompren da
Ġcompren dÃŃ
Ġcompren dieron
Ġmed ic
is as
ĠSe guramente
Ġdej es
Ġdej Ã©
Ġdej arse
Ġdej arÃ¡
jer as
pon gamos
eci ese
Ġhaber los
Ġhaber les
Ġcer illas
Ġcer raban
Ġcer tidumbre
oc Ã³
Ġro c
Ġro ca
Ġro ce
Ġro dado
Ġro dar
Ġro dÃ³
Ġresp lan
Ġpod ÃŃas
Ġpod Ã©is
Ġpregun tan
Ġpregun tase
Ġpregun tÃ©
Ġmal e
Ġmal hum
Ġmal he
Ġtal le
Ġemb ru
Ġemb rom
por tar
Ġcier ro
Ġestu fa
Ġli sto
ĠV as
ĠV iendo
ĠV arias
ĠV Ã¡monos
Ġpe le
Ġpe garse
Ġpe trifi
Ġfi la
Ġfi cti
uel os
uel ga
cil Ã³
cil los
Ġcam inar
Ġcam aradas
Ġcam isas
Ġju gaba
Ġju gando
Ġju ris
Ġemp inada
Ġemp onzo
Ġra pe
Ġra ya
Ġra mas
Ġra mil
Ġra pada
Ġdirig ieron
Ġcos er
Ġcos tarÃŃa
Es cÃº
Es cup
Ġquer rÃ¡
Ġquer idos
Ġquer rÃ¡s
Ġva ga
Ġva hÃŃ
Ġva yas
Ġva yamos
Ġlevan tarÃŃa
tura l
ic as
Ġton os
Ġton ante
Ġam aban
Ġam antes
Ġam ables
Ġam abilidad
ka ia
Ġech an
Ġech ada
Ġech ase
Ġech arÃ¡
Ġech arle
Ġdem udado
Ġdem onios
Ġve te
Ġve hÃŃ
Ġve ge
ĠZ immerman
Ġna va
Ġna cimiento
lic os
lic ado
Ġesper ase
Ġpron ta
Ġpron tos
Ġpron titud
Ġami gas
Ġco bra
Ġco ordinar
Ġco jÃŃn
Ġco dazos
Ġco urt
Ġcol a
Ġcol ch
Ġcol mado
Ġcol ecciÃ³n
Ġfor tifi
Ġfor tuita
Ġacab aron
Ġacab Ã¡bamos
En tra
En trÃ³
En can
En cuen
